#version: 0.2 - Trained by `huggingface/tokenizers`
x x
e n
Ġ xx
Ġxx x
en t
Ġxxx s
Ġ t
a r
Ġ i
Ġ n
i m
en d
ar t
t art
im ent
ent iment
Ġxxx end
Ġxxxs tart
Ġxxxs entiment
Ġ a
v e
Ġ s
i n
Ġn e
Ġ w
Ġ m
Ġt h
Ġ h
u t
t i
a l
Ġ b
Ġ p
ti ve
o n
in g
Ġt o
Ġ f
e r
o r
Ġ g
Ġ d
r al
o u
Ġ c
Ġne ut
Ġneut ral
Ġ l
. .
Ġth e
o s
a t
a n
Ġ y
r e
Ġ o
a y
Ġp os
Ġpos i
g a
Ġposi tive
l l
i t
o m
Ġne ga
Ġnega tive
e s
e d
o o
Ġa n
Ġh a
o w
e e
o t
Ġy ou
i s
Ġi t
Ġm y
a s
Ġan d
Ġi n
u s
e t
l y
Ġ on
g h
Ġi s
Ġb e
Ġ u
Ġf or
Ġo f
a d
Ġ e
c k
c h
! !
Ġ j
l e
.. .
Ġw h
Ġ re
* *
Ġm e
i d
Ġs o
Ġth at
k e
gh t
om e
i c
Ġg o
Ġ r
ve r
us t
Ġl o
Ġha ve
l d
i ght
t er
a m
Ġs h
u n
Ġ k
Ġd ay
Ġh e
it h
Ġb ut
er e
d ay
p p
Ġj ust
Ġw ith
Ġw e
oo d
Ġl i
Ġs t
Ġd o
Ġn ot
Ġa t
Ġw or
Ġw as
Ġf r
Ġc an
Ġ Ġ
o p
Ġg et
u r
i r
on e
Ġ ar
Ġu p
h er
Ġg ood
Ġo ut
al ly
Ġa ll
c e
i ll
Ġc h
t t
Ġwor k
Ġn ow
Ġth is
a ck
r y
Ġs u
Ġt w
Ġn o
ou ld
h a
t h
Ġlo ve
an t
Ġli ke
Ġm or
Ġar e
Ġg ot
k s
Ġa l
Ġ -
as t
: /
Ġth an
o ut
tt p
:/ /
Ġ _
Ġh ttp
Ġd on
e a
Ġto o
at e
Ġha pp
Ġa m
Ġyou r
in k
r o
Ġ 2
ot her
Ġm a
Ġto day
i e
is h
Ġk n
i l
Ġt im
Ġa w
is s
s t
Ġgo ing
ver y
r a
Ġs ee
Ġs ome
Ġi m
r i
Ġa b
** **
s e
Ġwh at
t ing
Ġa s
es s
c om
Ġ ****
ee p
oo k
Ġfr om
Ġw ant
Ġb ack
Ġw ee
Ġlo l
Ġtim e
Ġhapp y
Ġkn ow
Ġon e
Ġm iss
on g
Ġd e
an d
ee l
Ġp l
u m
Ġ v
Ġ 1
ou r
f f
Ġd id
Ġth ere
Ġw ill
al l
Ġf eel
n a
n ing
Ġre ally
Ġf in
c t
Ġne w
ou n
Ġof f
ar d
at ch
ti on
Ġha d
es t
Ġan y
Ġth ink
er s
Ġwee k
Ġe x
a b
h h
.. ..
Ġab out
o l
ic e
i g
Ġh ome
Ġn ight
g e
Ġc om
Ġit s
Ġs l
o ll
Ġh op
ou gh
i ck
a a
Ġi f
Ġm other
oo l
Ġthe y
Ġg re
Ġs ti
Ġs p
m or
u l
Ġha ha
Ġm o
Ġh ow
it e
? ?
am e
a k
r ow
Ġne ed
Ġtw it
!! !
u ch
Ġf un
Ġ &
v ing
in e
Ġsti ll
Ġb l
Ġw atch
Ġhop e
Ġmor e
Ġwe ll
Ġ us
ee t
Ġwh en
a in
Ġo h
Ġl e
Ġu n
Ġm om
is t
Ġthan ks
Ġm uch
Ġe very
Ġ or
Ġh ere
Ġg u
oun d
Ġha s
Ġtwit ter
Ġ (
a ke
Ġw ish
v en
Ġs e
Ġh er
Ġc l
Ġf a
Ġmor ning
w w
q u
Ġgre at
t w
Ġl ast
Ġs or
Ġst u
os t
Ġ '
Ġ #
in d
Ġsh e
o y
Ġt on
Ġsl eep
oo oo
oll ow
Ġw ould
i re
Ġs a
Ġc o
mor row
Ġw a
ad y
m m
Ġc on
i es
Ġp ro
Ġto morrow
Ġp h
id e
Ġth en
Ġl ook
Ġbe en
ou s
Ġc ould
Ġs ad
Ġb ad
Ġb y
Ġt e
Ġon ly
Ġfr i
Ġy ea
f e
Ġs ay
ow n
re s
ga in
Ġw on
p l
Ġ en
Ġf ollow
Ġb et
Ġs un
Ġwh y
Ġr ight
Ġfri end
x t
Ġa gain
h ing
Ġth ing
Ġton ight
a p
Ġy es
Ġdid n
us e
Ġwa it
Ġ 3
Ġsor ry
Ġ 4
Ġa f
Ġm an
b e
Ġm ay
Ġo ver
Ġma ke
Ġsh ow
a tion
o d
Ġp e
Ġb r
f or
p ic
i le
a use
e ar
Ġsh ould
Ġthe m
Ġn ice
Ġm on
Ġw ay
Ġt ry
w ay
Ġg r
Ġg on
os e
al k
it t
as e
Ġj o
Ġo k
Ġwh o
Ġ :
Ġ very
an g
i on
Ġaf ter
!! !!
Ġyea h
d er
Ġb ed
y y
Ġth ough
Ġ qu
a ch
Ġgon na
u d
Ġr o
Ġhe ad
as s
id ay
Ġweek end
Ġd own
t s
y s
Ġs ch
b er
Ġs c
i p
Ġbet ter
Ġc ome
Ġc ar
Ġch e
Ġs w
Ġs tart
Ġe ven
Ġ ...
a g
Ġget ting
Ġpe op
Ġdo es
Ġt r
Ġpl ay
Ġf e
f t
tw it
Ġpeop le
Ġne xt
Ġh our
Ġ x
Ġp re
f ul
u ck
u b
re e
Ġsch ool
u e
v ie
Ġl ong
b le
i ve
Ġp r
ir l
u re
Ġday s
Ġmother s
Ġa d
ou ght
Ġwatch ing
0 0
twit pic
Ġs om
Ġw ere
Ġd r
Ġdon t
Ġh im
Ġf l
Ġp ic
Ġbe c
u g
Ġc all
h e
m a
Ġso on
Ġr ain
Ġma k
a ce
Ġsu ck
Ġtw eet
t o
Ġh ate
Ġaw es
u ll
i a
Ġa c
th ing
Ġsom et
i z
Ġb est
m y
Ġ .
Ġ `
Ġg irl
o g
Ġp le
Ġawes ome
Ġp art
Ġy ear
Ġha ving
Ġthan k
ire d
Ġm ad
Ġb or
Ġp o
an na
Ġbe ing
itt le
Ġl a
an s
Ġl ittle
Ġe ar
m ent
u p
Ġl et
Ġa pp
Ġh ur
Ġg l
l f
ur n
c i
Ġu r
Ġne ver
or t
Ġl ist
Ġwork ing
Ġt ake
Ġw r
Ġc ool
way s
Ġ @
Ġt ired
t a
re ak
Ġhe y
ir st
n e
Ġh i
Ġh is
ou se
n y
p er
at er
Ġs ick
Ġt alk
Ġe at
res s
Ġbec ause
a c
Ġs m
Ġd one
e m
Ġ 5
Ġ ?
Ġwh ere
Ġst ar
Ġ <
Ġf irst
Ġb ab
Ġfeel ing
oo ks
Ġsu re
Ġfriend s
Ġple ase
Ġ *
re am
a ge
Ġfr iday
Ġal re
Ġevery one
Ġw anna
l o
Ġ our
Ġan other
Ġdo ing
Ġfin d
a z
p t
s o
in t
Ġo m
Ġcan t
Ġalre ady
Ġl ot
it y
Ġli fe
r r
Ġ !
at her
Ġmo vie
l p
Ġo t
ee ee
u ally
Ġh ouse
Ġb ig
Ġhour s
a h
p e
Ġm in
Ġal ways
Ġdoes n
Ġd i
w h
Ġy et
for e
ut e
p h
Ġs ong
Ġo ld
Ġre ad
i ch
i ous
Ġl ea
Ġin ter
Ġbe fore
Ġe ver
Ġk eep
Ġh ard
ti c
Ġph one
Ġtry ing
Ġt ri
Ġi d
Ġb it
oo o
Ġgu ys
j oy
t in
Ġth ought
tt y
Ġot her
Ġhe ll
Ġa ct
Ġb ir
Ġy ay
Ġt ra
Ġd is
Ġu gh
Ġpre tty
g et
m s
¿ ½
ï ¿½
Ġa g
Ġh ot
se lf
Ġsomet hing
e l
Ġb u
Ġc r
Ġen joy
d y
Ġin to
Ġli ve
g g
Ġw ent
Ġhe lp
Ġsuck s
Ġmad e
b l
b it
Ġb ro
Ġf am
Ġre ady
Ġaw ay
Ġfin ally
Ġcom p
n er
un ch
Ġex c
s h
Ġp ar
on d
Ġre al
Ġs ame
Ġb reak
Ġr un
Ġle ft
Ġfin ish
i ly
Ġsome one
Ġom g
e ll
at h
Ġlist en
Ġw ar
Ġgu ess
Ġ ,
Ġl ooks
Ġk ind
ha ha
Ġlook ing
Ġmon day
Ġjo b
Ġl uck
an ce
Ġmay be
Ġche ck
w n
Ġb us
Ġl ate
ot h
Ġam az
Ġ 6
Ġw ow
Ġp er
Ġwh ile
Ġk id
Ġact ually
aa aa
it ed
Ġsu ch
Ġm ar
or e
ur l
ar e
ti l
Ġre m
Ġear ly
Ġp ut
Ġs in
Ġd a
Ġ end
Ġhe ar
Ġstu ff
Ġte ll
Ġbir th
Ġ ..
en s
Ġs er
os s
l a
an k
Ġwor ld
? !
Ġth r
Ġd ri
Ġnot hing
ĠĠ Ġ
Ġmiss ed
Ġbirth day
n ight
s s
s ide
Ġ ;
Ġt ak
Ġb oy
Ġy a
Ġtw o
i x
Ġbor ed
w ard
Ġun til
Ġm us
b ook
Ġs ound
ter day
c o
o pp
Ġs it
Ġth ose
Ġal so
Ġyes terday
Ġd ad
Ġl ater
Ġ1 0
Ġsa w
Ġgl ad
at s
as h
od y
Ġamaz ing
n o
Ġ 7
Ġh un
Ġfa ce
Ġpro b
Ġpart y
o ke
Ġha ir
ab le
Ġsa id
Ġ =
Ġf ound
at ed
Ġbab y
Ġsin ce
i o
s p
Ġ 8
is e
one y
Ġbe l
o x
Ġg one
Ġc le
Ġme an
m ost
Ġm ust
Ġc ra
Ġar ound
oun t
Ġfe w
Ġac c
tin y
l i
n t
Ġany thing
Ġcom ing
Ġst ay
Ġco ld
Ġph ot
p s
Ġf ar
ig n
Ġthing s
Ġpo or
b y
t ed
or d
Ġmy self
Ġgo d
Ġgot ta
Ġm ight
Ġf ree
Ġthat s
Ġdr ink
Ġfam ily
o ck
z y
Ġt re
Ġs k
Ġm um
Ġd in
Ġl ost
Ġcl ass
Ġwon der
Ġmak es
tiny url
Ġg ame
Ġg ive
at ing
Ġwe ather
Ġal most
Ġco ff
Ġt ill
Ġs at
Ġm ost
Ġth o
Ġwait ing
Ġmak ing
Ġb oo
Ġl unch
as on
Ġaw ww
hh h
Ġsun day
Ġlea ve
d e
ar y
Ġh ang
Ġe l
Ġsu mm
Ġle ast
a ut
ent s
im e
or k
at es
it ing
Ġpic t
l es
Ġb ook
an c
Ġmon th
Ġexc ited
en ce
er t
.. ...
Ġevery thing
Ġhur ts
Ġcoff ee
an ge
Ġe m
Ġde f
Ġpl an
Ġthink ing
Ġus e
lo ad
Ġp ain
ĠĠ ĠĠ
Ġaw w
ab ly
Ġmus ic
c ome
p id
Ġ z
Ġ ke
Ġst op
ur k
Ġsu per
Ġhapp en
Ġthr ough
i f
Ġm oney
Ġto t
Ġwe l
Ġstu pid
Ġad d
Ġsumm er
d d
p le
Ġs ing
Ġw in
Ġf ood
Ġbe aut
Ġfor ward
Ġsu pp
Ġwant ed
Ġany one
Ġmo ve
Ġro om
l ine
Ġd es
Ġin st
Ġv ide
Ġfa v
Ġlisten ing
a il
Ġm ess
Ġc ry
Ġthe ir
Ġpl ace
Ġex am
Ġbu y
n et
u z
Ġh u
Ġc ause
Ġmiss ing
ull y
Ġfinish ed
Ġdin ner
b r
Ġch o
b s
b ody
Ġw oke
Ġha ven
et s
Ġun der
Ġsw eet
Ġi ll
Ġh it
Ġd ream
Ġc ute
Ġis n
th e
i ful
Ġh ol
or y
Ġtim es
?? ?
3 3
i gh
Ġp ers
Ġo p
Ġwh ich
ie ve
Ġwant s
Ġfun ny
Ġman y
m an
Ġh o
Ġre st
Ġprob ably
Ġcle an
Ġwel come
Ġbeaut iful
n n
Ġs oooo
ot e
Ġde l
pl urk
ud e
Ġplay ing
Ġbel ieve
d s
g ot
i ld
Ġt ea
Ġs n
Ġb oth
Ġout side
Ġfa il
Ġdidn t
ar n
Ġs ur
Ġm ine
Ġg i
Ġre p
Ġas k
Ġok ay
Ġkid s
Ġ; )
3 0
b ut
c tion
i an
m e
re d
Ġen ough
Ġro ck
Ġeat ing
os ed
Ġre c
Ġdo g
Ġup d
Ġsay s
ach e
Ġt urn
es e
Ġk ill
Ġat t
Ġwas n
Ġsound s
Ġpers on
p r
t e
Ġ 9
in s
Ġwith out
Ġwee ks
f ully
i i
l and
u u
Ġ $
Ġch ar
Ġse en
Ġfollow ers
ci al
Ġtot ally
e ct
g er
k k
n ess
Ġh and
Ġc a
Ġhaha ha
Ġmom s
Ġstu ck
e w
Ġt ick
Ġs end
Ġh or
Ġc am
oo t
Ġtoo k
Ġpro ble
c l
v ent
Ġs ooo
Ġthe se
ver s
Ġgood night
Ġbl og
Ġse c
Ġwho le
em ber
Ġhol iday
Ġw alk
Ġp a
ww w
Ġcon c
Ġyear s
Ġag o
Ġtak ing
ent ly
Ġa p
ee e
Ġsh opp
ith er
Ġlove ly
Ġfin al
hh hh
a pp
c c
p ress
u gh
Ġw ind
Ġm eet
Ġc ame
ur day
Ġoff ice
Ġsp e
u be
Ġc atch
mor e
yy yy
Ġsit ting
Ġel se
e al
g r
Ġ ve
Ġt v
ee ting
Ġsee ms
Ġde c
Ġcomp ut
Ġtre k
Ġvide o
g le
v is
Ġn ame
Ġs is
Ġm id
Ġc ard
Ġo wn
Ġfor got
Ġhead ache
Ġsat urday
in ks
Ġf ull
or s
Ġl ess
Ġy um
Ġli k
Ġsp end
Ġfollow ing
ma il
Ġbro ke
Ġkind a
Ġrem ember
Ġshopp ing
g ry
r s
Ġ ed
Ġs et
Ġh al
Ġb o
Ġg a
Ġc oll
Ġre la
un e
Ġch ill
Ġaw ake
Ġgu y
Ġbr other
Ġqu ite
Ġtweet s
Ġhi gh
ph one
Ġid ea
Ġhell o
e ad
e ver
f m
t ime
Ġ +
ve l
Ġw ed
Ġm ind
us h
Ġhe art
Ġst r
Ġlove d
Ġcom pl
fe ct
c on
e p
i k
u ght
Ġt il
Ġa h
Ġf all
Ġon ce
ir t
Ġal one
Ġhope fully
wh ere
z z
Ġb um
Ġp ack
Ġp ast
Ġc ook
le y
Ġab le
ong r
Ġcall ed
Ġwr ong
ne y
Ġtalk ing
Ġlot s
Ġwar s
Ġbus y
f ri
n ot
w e
y m
Ġ )
ve d
Ġm il
at t
Ġan n
Ġj on
Ġwe ar
op e
Ġget s
out ube
Ġany more
Ġsl ow
Ġbl ack
Ġgr ad
vie w
Ġinter net
Ġdri ve
b o
c ol
l ess
Ġ ent
Ġ !!
Ġb ar
Ġc ongr
Ġpos t
Ġe y
Ġma c
?? ??
Ġstart ing
Ġdi ff
Ġrun ning
Ġser ious
Ġinst ead
Ġcomput er
Ġb ra
Ġb tw
Ġf an
Ġc ou
Ġsh ort
ation s
Ġgr and
iz z
Ġface book
k en
u es
Ġ art
ar k
Ġi ce
ti e
Ġp ick
or m
Ġc ut
Ġc uz
Ġ**** .
Ġde ad
Ġus ed
for t
Ġeven ing
ug s
l ing
v in
Ġi phone
Ġp ass
Ġf ig
Ġc al
Ġon line
Ġe ither
Ġre d
ir d
Ġcould n
Ġwon t
Ġtr ue
Ġtri p
Ġtri ed
Ġper fect
Ġdef in
Ġop en
- -
d ing
s w
t op
Ġ ....
im es
Ġb ank
at ter
it ch
Ġbe ach
Ġe p
Ġhe he
Ġex ce
Ġle g
Ġmom my
Ġstu dy
Ġhur t
Ġpict ure
m er
Ġa ir
Ġg oo
Ġd ude
Ġc e
Ġc ur
re w
Ġre s
am a
Ġsee ing
f ast
i er
m ed
Ġ er
Ġ es
Ġm et
al e
Ġgo in
un k
ri ed
Ġfeel s
Ġhun gry
Ġfav or
Ġconc ert
Ġrela x
m o
p m
t on
Ġs oo
Ġh mm
on s
ing s
Ġd ra
pp y
Ġch ange
Ġfin e
Ġnew s
Ġwatch ed
Ġcl ose
Ġcon f
Ġcar e
Ġpr om
Ġgirl s
Ġcra zy
fri end
_ _
b all
i ke
j ect
u al
u res
y ou
Ġm c
ut es
Ġto ur
Ġy outube
Ġv is
Ġte xt
Ġfe ll
Ġbor ing
Ġt er
Ġa v
in es
in ess
Ġp res
Ġc our
Ġl ink
et e
am p
pp ed
ate ly
Ġneed s
Ġfl u
ma o
Ġhal f
u c
Ġb urn
Ġto p
Ġf il
it s
ad e
Ġch r
Ġlove s
ri ble
Ġ1 2
Ġhop ing
Ġmom ent
Ġshow er
Ġmin utes
Ġpar k
/ ~
6 7
a w
g o
Ġt est
Ġs ign
an a
ot t
Ġfor get
Ġhe ard
ea k
ul t
Ġhead ing
ag es
bl ip
Ġphot o
Ġcho col
Ġfig ure
i ble
p ort
w ork
Ġs ite
Ġto ld
Ġl mao
es tion
ow s
Ġon es
Ġe as
ter s
Ġli l
ite ly
Ġen g
Ġrain ing
Ġsomet imes
Ġbreak fast
Ġacc ount
Ġsec ond
f r
l s
n d
o h
o k
ve s
in a
Ġne ar
Ġp ub
Ġd ou
ou d
an y
is od
Ġe mail
ct ed
Ġbl ess
oooo oooo
Ġwr iting
Ġwonder ful
Ġtick ets
Ġep isod
e y
Ġt y
Ġf ly
Ġl ap
Ġre ason
Ġsleep ing
Ġbr ing
Ġ@ _
Ġmonth s
Ġdefin itely
Ġfavor ite
l ol
Ġn ite
Ġw oo
Ġb b
Ġc at
an e
ow er
Ġj une
ic i
Ġgo es
Ġlo ad
Ġex t
Ġcom es
Ġle arn
Ġsay ing
Ġla ugh
Ġphot os
Ġproble m
d le
f l
i b
o int
v ice
v ies
ar s
Ġn ap
Ġw ater
al s
Ġp izz
Ġf ast
ay ing
es ting
op s
Ġse ason
Ġfa ir
Ġjo in
Ġspe cial
Ġcou ple
Ġchocol ate
l eep
ar ed
Ġth ree
Ġb ought
Ġf ix
er a
Ġg ra
ou p
ou ch
Ġj u
Ġup s
Ġup load
ill s
Ġde ar
Ġcom m
ak es
Ġsor e
Ġlea ving
Ġluck y
Ġcoll e
fort un
Ġce le
h n
t en
Ġa hh
Ġs y
Ġs ide
Ġc ol
Ġc up
re ad
Ġj eal
Ġre g
Ġme ans
ur ing
Ġ1 5
Ġany way
Ġcom ment
aa a
Ġmo vies
Ġcon t
Ġstart ed
Ġsupp osed
l ish
v a
Ġn um
Ġw ake
Ġb and
Ġto m
Ġf ing
Ġd ang
ot s
!! !!!
Ġre t
Ġch ick
Ġsee m
Ġas leep
Ġmo ving
Ġafter no
iz ed
Ġdrink ing
Ġjeal ous
a ct
Ġn y
Ġs ent
Ġh on
ut h
on es
Ġd am
Ġc ity
re en
Ġre pl
Ġar en
st and
Ġbl ood
Ġbl ock
Ġun fortun
Ġ3 0
Ġwar m
Ġrep ly
Ġap art
Ġdiff er
Ġserious ly
g in
g ic
l ic
o es
p ing
Ġt a
Ġi p
Ġs am
Ġm ood
Ġb ur
Ġto get
Ġd ie
Ġc ream
Ġy ep
Ġin s
Ġre vis
Ġst e
Ġsu b
Ġas s
Ġsong s
Ġpict ures
Ġhu ge
Ġpizz a
Ġafterno on
c ed
i tion
Ġb ud
Ġp s
Ġp pl
Ġp ap
on t
Ġd ate
Ġan sw
us s
Ġ1 1
ber ry
Ġwr ite
Ġdi ed
Ġread ing
Ġunder stand
Ġga ve
Ġgoo gle
Ġcour se
Ġlap top
Ġtoget her
b um
g t
g y
i pp
l t
n g
Ġ /
Ġ !!!
ent ion
Ġs im
Ġw ww
Ġb out
Ġd ue
Ġc ount
Ġl ight
re ci
Ġin d
Ġu k
Ġe v
ch ing
am es
Ġwe ird
Ġch at
Ġch ance
Ġ2 0
Ġkn ew
Ġv ote
Ġwish ing
Ġcl ub
Ġsad ly
!!!! !!!!
Ġdown load
Ġx d
uck s
Ġpic s
Ġinter esting
Ġtra in
Ġbro ken
Ġhappen ed
Ġcompl ete
Ġip od
6 6
f ollow
i ed
m ing
t f
en se
Ġi ve
Ġm ed
Ġg ym
Ġd ress
Ġc ake
Ġl ady
os ing
ll ll
as tic
Ġin v
Ġwh ite
Ġst ra
Ġst and
ur s
Ġch ang
Ġ- -
Ġab s
eep s
Ġus ing
Ġor der
Ġfa ct
Ġby e
Ġjo hn
Ġpo int
ond on
Ġdri ving
Ġgrad u
b a
Ġw i
Ġm mm
ti es
Ġg ard
Ġc or
Ġj ack
Ġr ide
Ġst re
Ġsun sh
Ġche ese
Ġapp reci
Ġdis app
Ġag ree
Ġenjoy ing
Ġexam s
Ġclean ing
Ġsis ter
h ow
l ed
Ġm en
Ġm ile
Ġm eeting
Ġh ar
Ġto wn
Ġf reak
it al
Ġe ff
Ġre f
id er
ic a
Ġr ather
Ġwhat s
Ġpl us
ff ic
Ġevery body
Ġwish es
Ġear li
ci ally
Ġhor rible
Ġlik ed
Ġann oy
a ir
g ing
t r
u k
u ff
v d
Ġs al
Ġm s
Ġth ro
Ġh ub
Ġd ist
Ġc ous
Ġl ondon
Ġst ore
Ġtw ee
Ġal bum
Ġ1 00
Ġoff ici
row n
Ġstu d
Ġsa ve
Ġsm all
Ġpar ents
Ġrem ind
Ġjon as
Ġups et
Ġansw er
j ust
Ġt al
Ġn a
Ġb day
Ġd un
os h
es ter
Ġwe b
Ġst ory
Ġwor th
Ġcan ce
ro om
um p
Ġv ac
Ġgre en
Ġwould n
Ġpro ject
iz e
Ġho ld
Ġwed ding
Ġcongr ats
Ġcele br
Ġgard en
Ġsunsh ine
b urn
c le
n ow
t y
w a
Ġ ouch
Ġne r
Ġw tf
Ġp ur
Ġp age
Ġf oot
er y
Ġg ut
Ġd uring
Ġc y
Ġc os
Ġl u
ll y
Ġbe er
Ġr an
Ġsh ame
Ġch ild
Ġde press
Ġpl ans
Ġv o
Ġex per
Ġsp ent
ak ing
Ġneed ed
Ġpro f
Ġsun ny
Ġqu estion
ip s
Ġstart s
Ġapp ar
rr rr
Ġhang ing
Ġexce pt
Ġpres ent
Ġepisod e
Ġunfortun ately
Ġabs ol
Ġearli er
1 0
b b
i et
v id
w ell
xx xx
Ġt um
Ġs on
Ġm r
Ġm ass
Ġb re
Ġb all
Ġb ug
Ġb ott
Ġp ri
Ġf ight
Ġf ab
Ġd m
Ġc ent
Ġc re
Ġo hh
Ġha vent
is ed
ad io
Ġwor d
Ġar ri
ill y
Ġam er
Ġ2 00
ess ion
ol og
tw eet
Ġlook ed
Ġqu ick
pe cially
Ġdoesn t
wh at
Ġboy s
Ġcam era
Ġey es
Ġthro at
, ,
c y
c al
f ly
m l
m on
r en
Ġ et
ar a
Ġn orm
Ġa ust
Ġw om
ti v
ti ce
Ġb as
Ġb le
Ġp ay
Ġp ool
Ġf ish
Ġf ire
Ġg ig
ga s
Ġe ach
Ġme ant
Ġwor st
Ġwor ds
ant s
Ġde al
Ġhaha haha
Ġtr ans
Ġtra ffic
Ġcomp any
opp ed
Ġsk y
Ġsur pr
Ġupd ates
Ġpap er
Ġabsol ute
0 9
b ur
i ft
r on
Ġs le
Ġth inks
Ġb es
Ġp ull
Ġto uch
Ġf our
Ġg e
Ġg en
Ġd y
Ġc ost
Ġl at
Ġpos s
id ent
Ġst ress
Ġnot e
Ġwor ry
Ġex p
Ġex act
.... ....
Ġsp r
ul ar
Ġcl oth
Ġcon s
Ġshow s
yy y
Ġplay ed
Ġlong er
Ġsm ile
Ġbus iness
Ġmar k
ert ain
Ġmid dle
Ġrelax ing
Ġnum ber
Ġrevis ion
Ġwi fe
Ġappar ently
Ġabsolute ly
a v
c es
d a
f o
i ence
m end
m in
r ight
x y
Ġ >
Ġ q
Ġ ï¿½
en ch
Ġn on
Ġa ud
Ġm is
Ġh oll
Ġb ag
Ġb ike
Ġp iss
Ġp ol
Ġf ans
Ġd ro
Ġd ig
ch e
ic s
Ġr u
ill e
ie ld
Ġ1 4
ard s
Ġbl ue
Ġpro d
Ġsc reen
Ġda ught
Ġwonder ing
ail s
Ġrec ord
Ġchill in
Ġbrother s
Ġsle pt
1 2
n ed
p ar
t v
w s
Ġt ues
Ġn ope
Ġs igh
Ġm ath
Ġm ama
Ġh ug
al th
Ġp u
Ġp op
Ġf ant
Ġg er
Ġd ance
Ġc op
Ġo b
ee k
Ġin c
Ġin de
us ed
Ġre l
Ġr oll
ust ed
Ġlo ving
Ġsh op
Ġk ick
Ġat e
Ġtw eeting
Ġal ong
Ġyour s
Ġ2 5
ra c
ri es
Ġmom m
Ġcl osed
Ġsun burn
Ġbab e
Ġke y
Ġupd ate
Ġwind ows
Ġes pecially
Ġvis it
Ġeas y
Ġeng lish
Ġcolle ge
Ġappreci ate
Ġcloth es
b ile
c ast
g ed
end ing
Ġw ine
Ġb ox
Ġp c
Ġp ower
Ġc d
Ġl ine
Ġbe at
Ġj ay
Ġre com
Ġso ld
Ġr a
Ġr adio
Ġsh all
Ġsh oes
ur ch
Ġwork s
il ight
Ġim p
Ġsa fe
res h
he ad
Ġreal ized
Ġboy friend
Ġhu h
Ġdream s
Ġgi ft
Ġchick en
Ġdisapp oint
Ġhub by
c r
f b
g n
g ar
n ia
o e
Ġ 0
Ġ ~
Ġs qu
Ġw ol
Ġh os
Ġh um
Ġb en
Ġb ath
or ge
Ġd ire
Ġl one
Ġin side
Ġbe h
Ġfor ever
Ġsh irt
Ġst om
Ġdo ct
Ġch urch
Ġwork ed
th ough
ate ver
Ġma ch
Ġ**** ,
Ġv id
Ġex pe
Ġsti ck
Ġun i
Ġ( :
Ġse lf
ion s
Ġtr ack
ment s
Ġapp le
Ġtra il
by e
Ġmove d
Ġmess age
Ġproble ms
Ġwalk ing
Ġyum my
Ġcal i
Ġcomplete ly
Ġgradu ation
Ġtues day
Ġrecom mend
! ?
b ack
g an
m ar
o id
s ter
v ille
en o
Ġt en
Ġn or
Ġn one
Ġs and
Ġm atter
Ġth x
Ġth er
Ġb ooks
Ġb ody
Ġp ea
or ts
Ġd vd
Ġl ow
Ġl ame
ay l
as ed
Ġis s
Ġu m
Ġme l
id es
ic an
Ġr ub
Ġst opped
Ġhapp ens
Ġsp eak
Ġhaha h
Ġph il
Ġte am
Ġgr oup
Ġsc r
Ġsw ine
Ġdr unk
og ra
Ġid k
Ġcr oss
aaaa aaaa
Ġsing le
Ġcry ing
Ġbb q
Ġju ly
Ġexact ly
Ġlone ly
b and
b ox
d o
l in
l er
n es
o ver
Ġt ast
Ġm as
Ġth urs
Ġp an
Ġp ot
Ġf ill
Ġd anc
Ġo oh
Ġpos ted
oo p
ad a
ck ed
Ġre le
Ġso uth
Ġsh in
Ġsh are
Ġfr ench
Ġtw ilight
Ġal though
out h
Ġ2 4
Ġsome where
Ġim ag
Ġde m
Ġv ot
Ġhome work
Ġsleep y
Ġsc ream
Ġche er
Ġpr op
Ġfl ight
Ġrain y
Ġla zy
eeee e
Ġdis c
Ġtak en
ĠĠĠĠ ĠĠĠĠ
Ġbum med
Ġpack ing
Ġmil es
Ġwear ing
Ġcongr at
Ġdiffer ent
Ġannoy ing
Ġcous in
Ġhos p
Ġbeh ind
( (
2 0
c ri
f er
Ġ vers
Ġ ????
ar ch
Ġn ick
Ġa hhh
Ġm ic
Ġm ention
Ġth row
Ġb ac
Ġf re
Ġc ap
Ġc ase
Ġl ad
it ar
Ġyou ng
Ġmy sp
Ġwh atever
id ed
ic t
ic ally
Ġsh es
Ġk iss
Ġdo c
Ġwor se
Ġsu gg
Ġal right
st ar
Ġ**** !
Ġ1 3
Ġsp ell
Ġmo d
Ġmo on
mm m
Ġte ch
Ġbr it
itt y
Ġqu iet
Ġro ad
Ġother s
Ġtra vel
Ġstay ing
Ġmess ages
Ġtea ch
Ġve gas
Ġey e
Ġbra in
Ġcur r
Ġpub lic
Ġfing ers
Ġstom ach
Ġpea ce
) .
. '
1 5
b t
c ess
f a
g re
i v
m it
o ld
w l
y a
Ġt ee
Ġa le
Ġw al
Ġm ich
Ġth a
Ġh ates
Ġp al
Ġp at
Ġp ink
Ġp ie
Ġf it
Ġo oo
it er
ow ers
Ġin cl
Ġe h
Ġj am
Ġre sp
ic le
ic ious
Ġr and
Ġr ound
ver ine
un es
Ġwe bs
Ġget tin
Ġal ot
Ġany time
Ġgu itar
Ġse xy
Ġcl ou
Ġbr ought
Ġsc ary
Ġpr in
Ġpr ay
Ġstar b
rr r
Ġend ed
Ġplan ning
Ġsing ing
Ġdes k
Ġvide os
Ġsn l
Ġfail ed
Ġleg s
Ġfil m
Ġchr ist
fr iday
Ġext ra
Ġoffici ally
Ġtal ent
Ġtum my
Ġfant astic
Ġcop y
Ġmach ine
Ġmysp ace
' .
) ,
9 9
c an
d om
h am
p ro
s on
t own
y le
z e
Ġ :/
Ġt an
Ġn oooo
Ġa ff
Ġa int
Ġa hhhh
Ġm ix
Ġp ort
Ġf ol
or n
Ġg ames
Ġd en
Ġy o
ay s
ll ed
Ġj us
Ġre co
Ġme mor
Ġr y
Ġsh ar
Ġsh out
Ġli ving
Ġfr ont
Ġsu m
th at
Ġim a
Ġ1 8
Ġany ways
Ġex ha
ul ations
Ġus ually
Ġfollow er
Ġ4 0
for m
!!!! !!
Ġsc rew
Ġsw e
Ġfe lt
00 0
Ġbec ome
Ġinter view
Ġbu ild
Ġcr ash
Ġenjoy ed
Ġexc iting
Ġser vice
Ġmum s
Ġdes ign
Ġdec ided
Ġwed nes
Ġent ire
Ġair port
Ġav ail
Ġret urn
Ġlu v
Ġdaught er
Ġger man
Ġdisappoint ed
Ġthurs day
Ġhosp ital
Ġrand om
d on
e x
g d
h ere
i al
i ot
m p
m en
m ber
v s
v ious
Ġ [
Ġt ayl
Ġs an
in o
Ġw aking
Ġm i
Ġm u
Ġm ate
Ġh om
Ġh es
Ġh il
Ġh ist
Ġh anna
ti ll
Ġf b
Ġf at
Ġf eet
er n
Ġd ry
os er
an ne
Ġy r
om y
Ġan im
is ing
Ġis nt
ic al
Ġsh ut
Ġsh ot
Ġdo or
Ġwor ried
Ġgood bye
Ġall ow
Ġare a
Ġyour self
Ġaw e
Ġv i
Ġ1 6
Ġex pl
Ġsp am
Ġsp ace
Ġbl ast
ain s
Ġevery day
Ġco ver
Ġqu e
Ġsc ared
Ġsw im
Ġfe ed
Ġx ox
Ġpr oud
pt y
Ġmin ute
Ġlate ly
Ġclass es
Ġem pty
Ġsupp ort
Ġgi ving
Ġtick et
Ġpa id
bo ard
Ġstudy ing
Ġvac ation
Ġinde ed
Ġwol verine
Ġdire ct
Ġwebs ite
Ġstarb ucks
Ġwednes day
f ace
h oo
i est
j a
m ys
n ite
p a
p ed
u ral
w ood
Ġ ??
Ġn ic
art h
Ġa ut
Ġw at
Ġw it
Ġm am
Ġh y
Ġb an
Ġb ow
Ġb ri
Ġb are
Ġp rac
Ġf resh
Ġd an
Ġd ark
Ġc ats
Ġc ertain
Ġl m
Ġl ay
Ġl ose
at ure
Ġy e
Ġo w
is on
Ġit unes
Ġin sp
Ġe le
Ġe gg
ch es
Ġre qu
Ġso l
un d
un der
Ġk a
Ġhe alth
Ġst at
Ġwas h
Ġma gic
Ġde ath
Ġpl ac
um e
Ġv al
Ġv ie
.... ..
.... ...
Ġmo bile
Ġmom ma
Ġcon ta
Ġcon ne
Ġpro gr
Ġfollow ed
for nia
Ġcall ing
Ġple as
Ġsm ell
Ġdis ney
Ġtak es
Ġdad dy
Ġ8 0
Ġacc ident
Ġdes er
Ġdra g
__ __
Ġmc fly
Ġburn t
Ġchr is
Ġfix ed
Ġny c
Ġblood y
Ġchang ed
Ġstre et
Ġmile y
Ġgut ted
olog y
Ġet c
Ġaust ral
Ġdoct or
Ġcongrat ulations
Ġtayl or
Ġhist ory
Ġhanna h
Ġprogr am
5 0
g u
i ti
k a
l et
o f
o le
r os
r oss
s m
s up
s igh
t le
w ise
en a
ar ious
Ġa y
ve red
Ġs ense
in ed
Ġw er
Ġw all
Ġm atch
Ġh rs
Ġb ak
Ġp ig
Ġp eeps
er ed
Ġg un
Ġd ent
Ġd arn
Ġl y
Ġl am
Ġy up
re t
Ġha v
Ġu g
Ġof ten
ck s
Ġj e
Ġre view
id ge
Ġr id
un g
un t
Ġhe at
Ġjust in
Ġli br
Ġdo ll
Ġch in
Ġch ap
ant ly
Ġthan x
il i
Ġim press
Ġknow s
um bl
Ġ1 7
Ġfeel in
ul ous
Ġle ad
ww ww
qu e
Ġton ite
oooo oo
Ġco de
Ġcon st
Ġcon vers
Ġsw ee
Ġtr ou
Ġ5 0
Ġmin s
Ġkeep s
Ġkeep ing
Ġhelp ing
Ġda vid
Ġacc ess
Ġinst all
Ġdog s
Ġatt em
Ġhand s
Ġca ught
ush i
Ġblack berry
Ġmac book
Ġexce ll
Ġcol or
Ġapart ment
Ġass ign
Ġdun no
Ġcance lled
Ġvo ice
Ġlat est
Ġholl y
Ġprop er
Ġvers ion
Ġale x
Ġavail able
- )
4 5
b ers
b oy
c a
f in
j or
n al
r d
r or
u x
Ġ ver
Ġs illy
Ġs ushi
in y
Ġne ck
Ġne igh
Ġh ee
Ġh us
Ġb a
Ġb ase
Ġb gt
Ġto r
Ġf ive
Ġg ar
Ġg row
Ġg orge
Ġd eep
Ġd um
Ġc ell
Ġl im
Ġl and
Ġl ang
Ġl osing
Ġl eno
re al
Ġo ops
om b
oo th
Ġan ge
Ġin t
Ġin fo
et ed
Ġe vent
Ġe arth
Ġre ce
Ġso cial
ke y
Ġsh ift
pp ing
Ġst or
Ġdo in
Ġcan not
Ġtw ice
Ġgot ten
ra id
and a
Ġv an
ff ff
Ġnight s
Ġsl ight
Ġus ual
Ġco z
Ġte x
pl ay
Ġbet we
Ġaf raid
Ġbr and
ear s
Ġmon t
Ġro b
Ġcall s
Ġac ross
Ġgl o
Ġgl ass
eeee eeee
Ġag es
el s
Ġbreak ing
Ġcheck ed
Ġthr u
anc y
Ġsupp ose
Ġfav our
Ġwind ow
Ġcatch ing
Ġlik es
Ġspend ing
Ġstr ong
Ġfall ing
Ġfing er
Ġhon est
Ġstra ight
Ġnorm al
Ġcons ider
Ġther es
ogra ph
Ġdanc ing
Ġimag ine
Ġcurr ently
Ġexha usted
Ġgerman y
Ġplac es
Ġlibr ary
Ġexcell ent
Ġneigh b
Ġgorge ous
Ġbetwe en
! '
1 1
c ause
e as
h ugs
i ff
m as
o ff
p y
p ace
u ce
z ing
Ġn am
Ġa haha
Ġs na
Ġs ale
Ġs ession
Ġw ood
Ġm ist
Ġth ird
Ġth under
Ġh ay
Ġh ost
Ġb al
Ġb oss
on a
Ġf ml
or ing
Ġg h
Ġd at
ou l
Ġl ab
Ġl aying
at ural
an n
Ġy ess
Ġy all
Ġy ah
Ġbe gin
Ġe ast
Ġr oo
Ġr ace
Ġr ich
Ġlo cal
Ġbut ter
Ġar gh
ro g
Ġ2 1
Ġma il
Ġma jor
Ġab t
est ed
Ġany body
Ġevery where
Ġor ig
Ġse ll
Ġcould nt
Ġman ag
Ġbr ight
Ġsch ed
ber t
Ġsw ear
Ġfe ver
twit ter
Ġfl o
ug ust
Ġlet s
lo ve
Ġbir d
ss s
Ġhu gh
33 33
Ġdel icious
Ġturn s
Ġatt ack
Ġsend ing
Ġbum mer
Ġmil k
att le
Ġent er
Ġgrand ma
uc tive
Ġdou ble
Ġorder ed
Ġchild ren
Ġpri v
Ġarri ved
Ġspr ing
Ġpu ppy
Ġcali fornia
Ġreco ver
Ġallow ed
Ġconta ct
! )
6 0
a ven
c ar
c ting
d en
l ight
r u
s k
s ome
y f
Ġt able
ar m
Ġi ron
Ġi gn
Ġs en
Ġm rs
Ġh m
Ġh all
Ġh oney
Ġb c
Ġb un
Ġb ill
Ġto pic
Ġf ut
er g
Ġd et
Ġd ish
Ġc ud
Ġl ak
Ġl oud
at o
es h
Ġe ur
Ġe pic
Ġj k
Ġj our
Ġr ip
Ġli e
Ġst orm
ĠĠ ĠĠĠ
Ġsu cc
Ġno body
ha ppy
Ġmor n
Ġ2 2
Ġkn ee
Ġaw ful
Ġim port
Ġde ck
Ġv ia
Ġgre g
Ġwatch in
Ġjo e
Ġ: -
Ġqu iz
Ġche ers
Ġdr op
Ġhur ting
Ġthought s
Ġdis co
Ġlive d
Ġtell ing
ward s
anc es
nn n
Ġkill ing
Ġkill ed
Ġfinal s
Ġcard s
Ġstr ange
Ġbless ed
ipp ines
follow friday
Ġstra w
Ġfreak ing
Ġexper ience
Ġbott le
Ġlad ies
Ġhil arious
mys pace
Ġaustral ia
Ġdent ist
Ġfavour ite
1 3
1 4
a f
a ti
b ar
b oo
b ra
c ut
c ing
d own
f y
f ic
g ue
h i
h ol
j e
o c
o ve
p tion
r ic
s l
u h
u le
v i
w ing
w are
ent y
Ġn d
Ġn ails
art er
Ġs ix
Ġw ra
Ġw ild
Ġh at
Ġh ugs
Ġb ay
Ġb ang
Ġp ants
Ġto ast
Ġf f
Ġf ield
er gy
Ġd ar
Ġc as
Ġc oun
Ġc ree
Ġc red
Ġc ried
Ġl ake
Ġo ct
Ġo hhh
it es
it ting
ow ing
Ġbe ll
Ġu h
Ġfor m
ch a
Ġj en
Ġj oy
Ġme x
Ġk ate
Ġhe aven
Ġst ate
Ġst ri
Ġwas hing
Ġch ea
Ġkn o
Ġas h
com ing
Ġmiss es
Ġde p
Ġv ir
Ġ1 9
our s
mor ning
Ġhow ever
row s
Ġcl osing
itt en
ach es
Ġsc ar
Ġche m
Ġtr ad
Ġad vice
Ġfl owers
Ġtweet de
Ġla ur
Ġsm ooth
lo c
tic s
Ġfinish ing
aaaa a
ens ive
Ġstay ed
Ġawww w
Ġbook ed
Ġadd ed
Ġwin ter
the y
Ġsur ger
Ġrock s
Ġspe ed
yyyy yyyy
Ġdec is
Ġmid night
Ġset ting
Ġart icle
Ġpick ed
itch en
Ġhmm m
Ġepisod es
Ġload s
ib ly
Ġupload ing
Ġste ve
Ġdepress ing
Ġprof ile
Ġwom en
Ġgen er
Ġposs ible
Ġdro pped
Ġtrail er
Ġnor th
Ġphil ippines
Ġsugg estion
Ġtech n
Ġtee th
Ġxox o
Ġstat us
Ġwer en
Ġhus band
Ġpriv ate
Ġtweetde ck
Ġsurger y
? '
a ur
a tic
b gt
d ney
g ood
g irl
g if
k y
l ie
m r
m ate
s c
s u
v o
w x
w ich
Ġt ur
Ġt ag
Ġi r
Ġi ly
Ġn om
Ġn ah
Ġa ha
Ġa ge
Ġa aa
Ġa ugust
Ġs oup
Ġw ide
Ġw oot
Ġm all
Ġm att
Ġh oo
ut s
ti an
Ġb f
Ġb at
Ġb ee
Ġb other
Ġp in
Ġp et
Ġg as
Ġg ah
Ġg osh
Ġl ack
Ġl oss
at or
Ġo ce
Ġpos ting
ee z
Ġit al
us ing
Ġe con
Ġj er
Ġr ice
ver se
Ġsh ots
Ġhe h
Ġst ep
Ġwas nt
Ġgood ness
Ġout ta
Ġch ic
Ġch anne
Ġsu gar
Ġtw eeps
Ġno tice
ha ps
th is
ro ll
st em
Ġwant ing
Ġde li
Ġv ict
Ġ& &
ist s
Ġtwitter ing
Ġher o
Ġcon tin
Ġshow ing
Ġ: `
Ġqu ote
uck y
ub s
Ġad v
Ġdr inks
Ġfl ash
Ġac ce
Ġbab ys
Ġjob s
Ġput ting
Ġplan ned
Ġpain ting
Ġho ly
Ġdel ay
Ġturn ed
uu uu
gr ound
Ġslow ly
Ġconf used
Ġter rible
Ġfigure d
Ġeas ier
Ġdou bt
Ġsy dney
Ġta x
Ġbud dy
Ġdownload ed
Ġfight ing
Ġpiss ed
Ġrele ase
Ġclou dy
Ġaff ord
Ġfol ks
face book
Ġbare ly
Ġug ly
Ġconvers ation
Ġtrou ble
Ġattem pt
ograph y
yf rog
Ġfut ure
Ġcred it
) )
2 5
4 0
6 8
: :
` ****
a ks
b ed
c u
d og
e g
f s
g s
g ie
g ers
g ive
h t
h in
i en
i ent
i um
k es
l ive
m us
n l
n ie
o on
t umbl
v ous
Ġ ut
Ġ os
Ġ ess
ar ching
Ġi l
Ġn ose
end ed
Ġa head
Ġs ea
Ġne t
Ġm al
Ġm ig
Ġm outh
Ġb on
Ġb er
Ġb atter
Ġb ills
Ġp m
Ġp oo
Ġp ress
Ġp ages
Ġp aying
on y
Ġf ancy
or ed
Ġg ear
Ġd nt
Ġc ust
Ġc ough
Ġl ar
re st
Ġha vin
is m
as ter
Ġon to
Ġre se
id s
ic es
Ġr i
Ġr ow
Ġlo c
Ġk ing
Ġk itchen
Ġbut ton
Ġst ock
Ġcan ada
Ġar m
ill a
Ġtw eep
Ġal arm
il ing
Ġaw h
ri b
Ġde v
and s
Ġv en
Ġoff er
Ġgre y
Ġse m
Ġfa ve
Ġsor t
ap s
itt in
Ġjo ke
Ġ: |
Ġbed time
Ġsc en
Ġpre t
00 00
Ġfl or
Ġfl at
my loc
Ġbor n
Ġla w
Ġhur ry
ne w
Ġtalk in
eeee eee
pe ti
Ġdi et
wh o
Ġid eas
Ġcr ack
ath an
Ġper haps
ss ss
Ġ; -)
co hol
li ke
Ġhang over
Ġem o
Ġplan e
Ġke ys
Ġadd ic
Ġmess ed
Ġbuy ing
Ġcho ose
Ġsoooo o
Ġdel eted
Ġgi ven
Ġask ing
Ġ9 0
Ġchar ac
kk kk
Ġcam p
Ġcook ing
Ġav oid
Ġju ice
Ġcount ry
Ġfreak in
Ġdist ra
Ġcelebr ating
Ġner d
Ġdepress ed
Ġexp ensive
Ġmark et
Ġprod uctive
Ġbath room
Ġsand wich
Ġiss ue
Ġscr atch
Ġincl ud
Ġresp ond
Ġshar ing
Ġvie w
Ġdeser ve
Ġswee tie
Ġslight ly
Ġsen i
Ġsucc ess
tumbl r
` .
a el
b u
c in
c ore
c akes
d ers
f g
f ile
g ree
h op
k ing
l ies
m om
m iss
p ol
s till
v r
v y
w r
w or
w ord
Ġ ???
Ġt it
Ġt ix
Ġt gif
ve ral
Ġs ar
Ġs us
Ġs ir
in al
in ts
Ġne ither
Ġw o
Ġw is
Ġw ii
Ġm art
Ġh ook
Ġto y
Ġf ather
er o
or g
Ġd c
Ġd er
Ġd read
Ġc i
Ġthe at
Ġy u
Ġy ork
re me
Ġo dd
it ter
et y
et te
Ġbe ar
Ġwh oo
Ġre ach
Ġre tweet
Ġso ci
Ġgo ld
Ġgo lf
Ġr ing
ust r
am i
Ġk o
Ġk itty
Ġhe yy
Ġat l
Ġwas te
Ġar ms
ill ion
Ġwork in
Ġnow here
Ġal cohol
ast y
il es
Ġsome body
Ġsome how
Ġback ground
Ġde vel
na tion
tion s
Ġsp read
mor o
Ġbl ah
Ġle ar
Ġle vel
Ġun less
Ġun cle
Ġton s
Ġsa ving
Ġco ast
Ġbad ly
Ġen ergy
ap e
Ġshould n
Ġ: ]
!!!! !!!
ag o
Ġpr ice
ure d
Ġdr um
Ġfl ick
ug g
Ġgirl friend
Ġsm h
Ġfind ing
Ġinter ested
Ġother wise
Ġhell a
Ġbu ff
gg ed
haha ha
Ġmar y
Ġmar ath
?! ?!
Ġparty ing
Ġcra ving
Ġsk in
Ġmost ly
Ġem p
uz z
Ġclean ed
Ġask ed
Ġsec ret
Ġholiday s
Ġremember ed
Ġpack ed
Ġann oun
Ġdiff ic
Ġpass ed
Ġfell ow
Ġeng land
Ġnear ly
Ġlaugh ed
Ġdiffer ence
Ġins ane
ipp ing
Ġsim ple
Ġev il
Ġtrain ing
Ġms n
Ġner vous
Ġquestion s
Ġmass age
Ġfab ulous
Ġamer ica
Ġbes ides
Ġfour th
Ġob vious
Ġinc red
Ġmomm ies
Ġexpe cted
Ġcross ed
Ġtast e
Ġshin ing
Ġbac on
Ġooo h
Ġmemor ies
Ġry an
Ġswe at
Ġprac tice
Ġlm fa
Ġinsp ir
Ġchin ese
Ġbase ball
Ġlang u
Ġlak ers
Ġchanne l
' ,
2 2
a i
b ish
b reak
c ent
c er
d ra
f it
f ox
g l
h o
j b
j o
l u
n ic
o ft
p ack
r is
u ly
v ia
w ish
w ars
Ġ ^
Ġt ut
Ġt at
Ġt is
Ġt ab
Ġt iny
Ġa im
Ġa in
Ġs ig
Ġs ym
in ation
Ġw k
Ġm er
Ġm at
Ġth om
Ġb ull
Ġb rown
Ġp j
Ġp ad
Ġp ill
Ġf ur
Ġf ully
or ious
Ġg am
Ġg ro
Ġg oooo
Ġg oss
Ġd ut
Ġd om
Ġd ub
Ġc in
Ġc ir
Ġc ab
Ġl on
an ks
Ġpos ts
it o
Ġan g
is es
Ġit em
us hing
us ion
Ġu na
Ġj im
Ġj un
Ġre pe
Ġme al
Ġr ent
Ġr ose
Ġsh oo
Ġsh ip
Ġsh oot
Ġk ay
Ġwe ight
Ġli f
Ġst ack
Ġst yle
Ġat m
ur y
Ġar ch
Ġup gr
Ġsu x
Ġsu ff
Ġno tic
Ġal as
ro l
Ġ2 6
ish ed
il s
se y
Ġas ap
Ġde b
Ġde ce
Ġpl s
Ġpl enty
Ġany where
Ġsp ot
ul ts
Ġmo tiv
Ġbl ank
Ġun f
ound s
Ġtwitter s
Ġse at
Ġse arch
Ġse attle
Ġcl ick
Ġcl oser
oooo o
Ġcon d
Ġcon vin
Ġpro cess
Ġagain st
Ġqu it
Ġro ast
Ġhead ed
Ġdown town
Ġcar s
Ġsw itch
Ġpr int
Ġpr aying
Ġsuck ed
Ġla und
Ġlet ting
Ġsm art
Ġfriday s
pe ct
Ġid iot
Ġcr ush
Ġper form
Ġmar ried
Ġda ily
Ġ.. ...
Ġser ver
oss ible
Ġmus h
Ġsit u
Ġdad s
li fe
Ġboo t
Ġrest aur
Ġtea ching
Ġrep ort
ction s
Ġ$ $
Ġca vs
Ġhor se
Ġpa ti
app s
Ġve t
Ġless on
Ġbo ard
ik es
Ġcook ie
Ġcook ies
Ġprom ise
Ġmc don
Ġburn ed
Ġemail s
Ġty pe
Ġlaugh ing
Ġjoin ed
Ġsy stem
Ġrepl ies
Ġrepl ace
Ġrepl ied
Ġblock ed
air s
Ġsal ad
Ġoffici al
Ġstud ent
Ġremind s
Ġpresent ation
Ġamer ican
Ġnorm ally
Ġwom an
Ġbas ically
Ġhahahaha ha
Ġsurpr ise
Ġiss ues
Ġvot ing
Ġdisc uss
Ġdesk top
Ġbuild ing
Ġswim ming
Ġmist ake
Ġflo or
Ġimport ant
Ġchea p
Ġsuggestion s
Ġchic ago
Ġ:` (
Ġdevel op
Ġnotic ed
Ġlaund ry
Ġmcdon al
0 7
a tive
b re
b ay
d r
g b
g m
i us
k ot
l ook
l ves
m art
m ay
m ark
n s
p ting
r ie
s g
s n
w as
y i
z er
en ess
Ġt ips
im p
Ġs i
Ġs il
Ġs our
Ġne tw
Ġw est
Ġw if
Ġm ent
Ġm ot
Ġm ouse
Ġm ount
Ġm ike
Ġh ills
ti s
Ġb ff
Ġb ub
Ġto w
Ġto oth
Ġto ugh
Ġf yi
er ing
Ġg ir
Ġd j
Ġc u
Ġc oo
Ġc ine
Ġl in
Ġl as
Ġl iter
at he
Ġy rs
Ġo ven
Ġo per
ll l
ed s
Ġan na
Ġan gry
Ġha h
Ġha w
as ing
et t
Ġu mmm
Ġfor give
ad es
Ġe w
Ġe qu
ch y
Ġj b
Ġj es
Ġj ud
Ġj osh
id a
id ing
Ġr os
Ġr ude
ter ed
un a
un ity
Ġk ar
Ġst ates
Ġnot es
Ġfr u
Ġfr ustr
ill ed
tt t
Ġsu bs
Ġlike ly
Ġhapp iness
Ġma x
Ġma in
Ġaw ards
ra ine
Ġde gree
eel s
Ġv ol
Ġv irt
est s
Ġex ist
Ġcom peti
aa ay
Ġsp o
mor ow
ak ed
Ġtwit pic
Ġus a
Ġgu il
Ġhas n
Ġco ck
mm e
Ġph ys
Ġlook in
Ġte en
Ġte mp
pl oy
Ġthem e
Ġqu ot
Ġro fl
Ġsc ore
Ġsw ed
Ġplay er
Ġpre fer
Ġad am
Ġad mit
Ġdr ank
Ġsomet ime
Ġear s
Ġapp ear
Ġwr ote
Ġsm ok
Ġstar ving
Ġbab ies
Ġmin i
Ġhard ly
Ġhot el
gg g
Ġexc use
sh ip
Ġreal ize
ell e
Ġcheck ing
Ġkid ding
Ġda ve
?! ?
Ġcle ar
ock ed
Ġtre at
Ġpain ful
Ġtot al
Ġcho ice
Ġsur v
Ġupd ated
Ġatt ention
Ġpa ul
Ġlik ing
Ġent ertain
Ġbra z
fort able
Ġter min
Ġlearn ed
Ġcolle ction
Ġrevis ing
Ġbud get
Ġsim s
llll llll
Ġinv ol
Ġstand ing
Ġmmm m
Ġcous ins
Ġtwee tie
Ġstud io
Ġcelebr ate
Ġmass ive
Ġbott om
Ġcent er
Ġpull ed
Ġdy e
Ġstress ed
Ġmis er
Ġpop ular
Ġimp ossible
Ġdem i
Ġmic ros
Ġteach er
Ġpal m
Ġpie ce
pro file
Ġye h
Ġchris tian
Ġgun na
Ġimpress ed
Ġmanag ed
Ġsched ule
Ġeur ope
Ġoce an
Ġbatter y
Ġcust om
Ġawh ile
Ġtit le
Ġwis dom
Ġtheat re
Ġlear ning
Ġdiffic ult
Ġgoss ip
Ġnetw ork
0 5
1 8
2 4
2 00
4 8
8 4
a ff
a gain
c ake
c up
d id
e en
f c
f ing
f ol
g es
h ttp
j c
l m
l an
l ist
l ake
m b
m ins
n i
n am
n atural
o ber
p o
p he
s i
s he
y ea
Ġ est
Ġt ar
Ġt es
Ġt ong
Ġt ree
Ġt ac
Ġn at
Ġn oo
Ġn ug
Ġn ooo
im b
end er
art s
Ġa ce
Ġs s
Ġs ens
Ġs ittin
Ġw et
Ġw ats
Ġm ir
Ġm ul
Ġm eeee
Ġth um
Ġh d
Ġb ound
Ġb ah
Ġb unch
Ġb ugs
Ġp en
Ġp our
Ġp anc
Ġp ush
Ġp ump
er ence
or es
Ġg eek
Ġd h
Ġd u
Ġd iss
Ġd ies
Ġc ow
Ġc her
Ġc ast
Ġc ash
Ġc akes
Ġl oo
Ġl inks
an o
an ut
Ġy ard
Ġo pp
ll a
it a
om et
es y
ed y
ed ay
ed ic
Ġan k
Ġmy ster
as k
Ġbe lly
Ġbe coming
Ġu lt
Ġfor e
Ġfor um
ad o
ch ed
ch ester
Ġj ap
Ġso ft
Ġr om
Ġr out
Ġr ach
Ġlo g
am ps
pp er
Ġst alk
Ġst eak
Ġwor e
Ġfr ank
ir ts
Ġar g
Ġgood morning
Ġch i
Ġch est
Ġwork out
Ġsu it
ha ve
ant a
Ġgot s
Ġma g
il ed
Ġtim ber
Ġaw some
st on
st op
ra h
Ġas well
com pl
and y
Ġpl z
um ent
all en
Ġhad n
ab y
ig g
Ġgre et
Ġsp orts
Ġfun n
Ġfun er
Ġus b
Ġor ange
Ġse arching
Ġcl a
Ġcl os
Ġfa ult
Ġgreat est
mm mm
Ġte le
Ġte ars
Ġwait in
od e
Ġgr r
Ġgr oss
Ġhead s
Ġweekend s
ber ries
Ġsc ri
Ġcar ry
Ġfe m
Ġx box
Ġschool s
Ġad op
Ġsom eday
Ġhim self
Ġmak in
Ġac tion
iz ing
Ġpart s
Ġpart ic
Ġthank you
Ġapp s
Ġgl orious
Ġtalk ed
lo ck
Ġbig ger
wh y
get s
el ess
Ġlive s
bl es
bl ed
bl og
Ġbro ad
Ġmonday s
Ġ6 0
Ġser ies
ash ed
Ġhang in
Ġpain t
Ġz omb
Ġhappen ing
if ts
Ġadd ing
dd d
33 3
Ġsn ack
Ġatt end
ii i
Ġdec ide
Ġsis ters
Ġless ons
Ġbo om
Ġrela tive
irt y
we b
att oo
Ġhehe he
Ġres ults
Ġdra w
Ġter m
Ġfly ing
Ġwoo p
Ġext reme
Ġupload ed
Ġcomment s
Ġblock s
Ġste ph
Ġsub ject
Ġind ian
Ġchat ting
Ġinv ite
Ġchang ing
Ġcor re
Ġannoy ed
Ġtwee ters
Ġcance led
Ġfoot ball
Ġprof ession
xxxx xxxx
Ġaust in
Ġsky pe
Ġsurpr ised
bur y
Ġdy ing
Ġposs ibly
Ġaud io
Ġdro ve
Ġsunburn t
Ġrub bish
Ġvot ed
ĠĠĠĠĠĠĠĠ ĠĠĠĠĠĠĠĠ
Ġkiss es
Ġmich ael
Ġchrist mas
Ġmi ami
Ġanim al
Ġbow ling
Ġegg s
Ġhealth y
Ġpleas ure
Ġchap ter
Ġassign ment
Ġproper ly
Ġtex as
Ġglass es
Ġconsider ing
Ġrecover ing
Ġbun ny
Ġdet ails
Ġmorn in
Ġoct ober
Ġmex ican
Ġital ian
mus ic
Ġess ay
Ġrese arch
Ġinclud ing
Ġmarath on
Ġlangu age
Ġthom as
Ġsitu ation
Ġmcdonal ds
kot b
Ġmot or
Ġliter ally
Ġsurv ive
Ġbraz il
Ġmicros oft
Ġjap an
! ...
. !
. )
1 7
1 9
2 6
9 0
9 5
? )
b ad
b od
c am
c ise
c amp
c arter
d i
d am
d ies
e es
e very
f ar
f ire
f ail
f ield
g en
g on
h ee
h rs
h ope
i am
i ans
j g
j j
j am
j ud
k r
k ed
n it
n ers
o b
o om
r ing
r ay
s v
s ee
t oo
t ra
u ct
u ise
w ith
w atch
y outube
z en
z ine
~ ~
xx x
en ed
Ġt ire
Ġt ip
Ġt attoo
Ġi i
Ġn ut
Ġn ood
Ġn oooooooo
Ġn asty
im ate
end s
Ġa che
Ġs f
Ġs ry
Ġs ara
Ġs oul
in ting
Ġw and
Ġw ire
Ġm ow
Ġm uff
Ġm tv
Ġh r
Ġh w
Ġh ill
al o
al ity
Ġb k
Ġb ost
Ġb oooo
Ġb ass
Ġb ooo
Ġb io
Ġb ones
Ġp od
Ġp ix
Ġp ills
on ed
Ġto e
Ġto dd
Ġf o
Ġf ake
Ġf aster
or ia
Ġg d
Ġg t
Ġg rown
Ġd est
Ġl is
Ġl ic
Ġl ord
Ġl oser
at ar
Ġy ell
re ed
Ġo z
Ġo hhhh
Ġo cc
ga ge
it or
Ġan th
Ġha m
as g
Ġand y
et her
ly n
Ġis h
Ġis land
Ġbe y
Ġfor ced
Ġe ll
Ġe ight
Ġe bay
ck y
ck et
ch ool
Ġj ess
Ġj ump
le ast
Ġwh ether
Ġme m
id ence
Ġso ber
ic y
Ġr en
Ġr am
Ġr ough
Ġr ite
Ġr ac
Ġlo v
Ġlo cked
Ġsh ud
Ġhe al
Ġhe av
Ġst ream
Ġst eal
Ġat least
Ġwor ries
Ġfr og
ir m
Ġch ina
Ġch ips
Ġsu dd
Ġtw ist
ha w
Ġtoo l
Ġ2 3
Ġ2 7
ie f
ie l
Ġkn ight
il ity
Ġim ma
ri age
Ġab ove
ess ed
Ġknow n
Ġmiss ion
Ġde gre
Ġpl ant
Ġpl ug
Ġpl urk
Ġv s
Ġv in
Ġv ill
Ġv anc
ard ed
ol en
Ġcom edy
oll en
Ġhop es
Ġsp l
Ġsp in
Ġsp ider
ul es
Ġmo de
Ġhow s
Ġbl ame
Ġus eless
ain ed
Ġ( )
Ġse pt
Ġcl ue
Ġco ach
Ġco vered
Ġph illy
Ġte ase
fe ction
Ġbet a
Ġman chester
Ġbr ad
for d
Ġgr ay
Ġgr rr
Ġ: :
Ġafter wards
!!!! !!!!!
Ġhead aches
ip e
Ġsw ollen
Ġtr uck
Ġtr uth
Ġtr ending
Ġtr uly
Ġx o
Ġpre m
ue l
Ġdr ama
Ġbec ame
Ġrain s
Ġthank ful
Ġpo ints
Ġur l
Ġur gh
Ġwr k
ne ed
Ġstar s
Ġfeeling s
eeee ee
wh en
ph ones
tic al
ooo h
Ġugh hh
Ġbu zz
Ġcr is
Ġhelp s
Ġfam ous
Ġreal ised
Ġlisten ed
Ġdri ver
Ġhun ting
Ġhair cut
sp ot
Ġbel ong
Ġmean ing
Ġgive s
Ġke pt
Ġke lly
Ġsuper natural
if ic
Ġadd ress
Ġwin ning
Ġdes p
Ġsoooo oo
Ġgi ant
Ġrock ed
Ġupd ating
Ġchar ge
Ġhand le
Ġca fe
Ġblog ging
Ġed iting
zz z
att y
Ġgrand par
Ġopen ing
Ġer r
Ġconf erence
Ġvis iting
Ġcour t
Ġpark ing
Ġsecond s
Ġwoo hoo
oint ment
Ġjoin ing
Ġcup cakes
Ġband s
Ġdam mit
Ġbur r
Ġsub way
Ġps y
Ġmed ic
Ġeff ect
Ġbre ath
tiv ity
Ġsurpr ising
Ġbag s
Ġpol ice
Ġru le
Ġru ined
Ġ14 0
Ġinc re
Ġkey board
Ġexpe ct
Ġfill ed
Ġscream ing
Ġmod el
Ġwal mart
Ġclou ds
Ġport fol
Ġscrew ed
Ġcrash ed
Ġcertain ly
Ġconne ction
Ġbak ed
Ġje ff
Ġinstall ed
Ġassign ments
Ġgar age
Ġdum b
Ġlim it
Ġange ls
Ġrece ive
Ġtex ting
Ġmont ana
Ġhonest ly
Ġbegin ning
Ġorig inal
Ġcontact s
Ġdish es
Ġstraw berries
Ġdecis ion
Ġdelay ed
Ġflor ida
Ġwo ken
Ġobvious ly
Ġlmfa o
Ġ^ ^
Ġdece mber
Ġcond ition
Ġrestaur ant
Ġsubs cri
Ġtong ue
Ġtimber lake
Ġextreme ly
Ġbost on
Ġsudd en
Ġgrandpar ents
Ġportfol io
1 6
3 8
8 0
8 8
a way
b k
b ea
b ud
b ooks
b by
c s
c ery
d es
g i
g un
g ra
g est
h en
h an
h ip
h ouse
h ears
i j
i od
j k
k o
k in
k er
k et
l uck
m c
p g
p art
p re
q l
r ound
u um
v al
v ise
w alk
x d
y r
en z
en cy
Ġt ight
Ġt un
Ġt mr
Ġi c
Ġi love
Ġn ail
Ġn urs
Ġa z
Ġa un
Ġa aaa
Ġs way
Ġs ang
in i
Ġne phe
Ġw ise
Ġm unch
Ġm itch
Ġm illion
Ġh t
Ġh en
Ġh ul
ut ion
ti t
al y
Ġb i
Ġb s
Ġb rew
Ġb read
Ġb rows
Ġp it
Ġp ity
Ġto oo
Ġto ys
Ġf ool
Ġf ash
Ġf ox
Ġf old
Ġg ing
Ġg ifts
Ġd re
ou ps
Ġc art
Ġc ri
Ġc row
Ġc ass
Ġc ub
Ġc ore
Ġc able
Ġc nt
Ġc ult
.. ?
re y
ga zine
oo f
Ġyou re
Ġin f
Ġin fection
us es
et a
et h
Ġfor ce
Ġe ww
ch ange
Ġj r
Ġj um
Ġj ail
Ġwh is
Ġre hears
Ġso f
Ġso ph
Ġso cc
Ġso cks
Ġr ate
Ġr um
ust ing
Ġlo ck
Ġlo vin
Ġlo gic
Ġsh er
Ġday y
Ġhe ck
pp in
pp pp
Ġwith in
Ġli ver
Ġst ok
Ġwas sup
Ġfr ies
Ġfr ance
Ġcan cer
Ġar r
Ġout fit
ce l
Ġch ip
Ġch ili
tt tt
ha ke
th anks
Ġ- >
Ġ_ _
Ġam y
ie ce
iss y
st e
Ġim o
Ġim ac
Ġ**** ...
Ġknow ing
Ġde mo
Ġv ent
Ġex er
hh hhh
Ġcom fortable
Ġsl ee
Ġbl ip
Ġbl ond
Ġun ited
ist a
Ġevery time
Ġgu d
Ġse veral
Ġcl imb
Ġsor ted
Ġstu bb
ind a
Ġsa us
Ġsa ved
Ġsad d
ap ore
Ġ4 5
Ġman age
be l
be ll
Ġmake up
ation al
Ġpe anut
Ġbr itt
itt ed
Ġwho a
ang o
ach ing
Ġro le
Ġsc ot
Ġsc are
Ġsw ift
ag er
Ġpre vious
Ġad or
Ġad vent
Ġdr ugs
Ġpic nic
he y
he tic
Ġtweet ed
ull en
ia h
Ġac compl
Ġpart ner
Ġbor row
Ġla unch
Ġla wn
Ġapp t
Ġapp ointment
Ġgl asg
ta il
Ġsm oke
Ġfriends ter
Ġmin or
Ġold er
Ġag reed
sh op
sh irt
haha haha
Ġbus h
Ġper iod
Ġmar riage
Ġda wn
Ġend ing
Ġhear ing
Ġbored om
Ġsit es
Ġhun t
Ġprob s
Ġcra z
Ġcra ppy
ock ey
Ġmum my
Ġleave s
Ġem ploy
Ġz e
Ġsing apore
Ġhit ting
Ġdream ing
Ġdel ete
Ġrec og
pr om
Ġchar ger
Ġhor ror
Ġap olog
Ġve get
Ġcomput ers
Ġed it
Ġchill ing
Ġcompl ain
con t
Ġcou ch
Ġpick ing
Ġcut ting
Ġres ist
Ġres pect
Ġer ror
Ġmet h
mo bile
Ġav atar
Ġfil es
Ġty pic
Ġbring ing
Ġphotos hop
Ġcont est
Ġret arded
Ġdam nit
Ġdie go
Ġ/ /
Ġev ents
!!!!!!!! !!!!!!!!
Ġdress ed
Ġcor n
Ġeff ort
Ġsal es
Ġpur se
Ġpur ple
Ġbre athe
Ġball s
Ġcent ral
Ġamer ic
Ġ200 9
Ġble h
Ġfire fox
Ġge orge
Ġaud ition
Ġdig ital
Ġrecord ing
Ġpu pp
Ġrel ation
Ġkick ed
Ġmomm as
Ġsqu are
Ġspeak ing
Ġmas k
Ġmas ter
Ġpan ic
Ġfill ing
(( ((
Ġ???? ??
Ġ???? ???
star wars
Ġbrit ains
Ġpat hetic
Ġnoooo o
Ġport ug
Ġmemor y
Ġreturn ed
Ġque en
Ġaut om
Ġhy per
Ġrequ est
Ġka tie
gu y
Ġrid ing
Ġconst ant
Ġconst antly
Ġgrow ing
Ġglo omy
Ġsna p
Ġjour nal
Ġstraw berry
Ġash ley
Ġvir gin
Ġsetting s
sc reen
Ġecon omy
Ġcontin ue
Ġacce pt
Ġbabys itting
dog book
Ġking dom
Ġtweep le
Ġaddic ted
Ġsuccess ful
Ġsar ah
Ġsoci ety
Ġsig ning
Ġgro cery
Ġdut y
Ġshoo ting
Ġconvin ced
Ġmush room
Ġcine ma
Ġtes co
Ġnug gets
Ġpour ing
Ġpanc akes
Ġscri pt
Ġfem ale
Ġheav y
Ġdegre es
Ġvill age
Ġdesp ite
Ġsocc er
Ġstok ed
Ġglasg ow
' !
, .
. <
2 7
2 8
2 9
4 7
5 5
6 5
7 0
7 8
` ...
a ver
a ult
b on
b us
b one
b ie
b our
b ag
c tive
c at
c ra
c ook
c ough
c ream
c ullen
d u
d ie
e ed
f i
f k
f ood
h al
h ood
i pped
k n
k p
l og
m other
m ers
m ind
m ag
m ade
n x
n ame
p en
p es
p et
p ool
p ose
r p
r us
r up
s y
s an
s ad
s un
t n
t ure
u a
u cc
v m
v t
v ation
w p
w y
w ar
w in
y l
y o
y es
z a
Ġ |
Ġ eee
Ġxx xx
Ġt b
Ġt ed
Ġt une
Ġt amp
ar on
Ġi con
Ġn g
Ġn i
Ġn as
Ġn ig
Ġn aw
Ġa ly
Ġa ch
Ġa id
Ġa uth
Ġa uss
Ġs ow
Ġs anta
Ġne gle
Ġw en
Ġw ud
Ġw ooo
Ġw aaaa
Ġw ings
Ġw ana
Ġm p
Ġm ol
Ġth rew
Ġh ou
Ġh ood
Ġh eels
Ġh ockey
Ġb ot
Ġb am
Ġb ry
Ġb ul
Ġb iz
Ġp ug
Ġp unch
Ġp ork
Ġp oop
Ġp ony
on ing
on ly
on line
ing ing
Ġto il
Ġf i
Ġf es
Ġf ed
Ġf le
Ġf are
Ġf usion
or a
Ġg m
Ġg all
Ġg eez
Ġd ust
Ġd all
ou ra
Ġc ord
Ġc rown
Ġl uc
Ġthe e
Ġthe ory
an ish
an oid
Ġo o
Ġo bs
Ġo live
Ġposi tion
ga me
ed ed
Ġan x
ee ch
ee ks
ot a
as y
Ġin vent
us ive
et ch
ly ing
Ġbe in
Ġbe lo
Ġbe ats
Ġbe bo
Ġu ber
Ġfor t
Ġe c
ch in
Ġj a
Ġj st
Ġj ew
Ġj uss
Ġj ames
le igh
... )
Ġwh ew
Ġme mber
ke a
ic o
Ġr b
Ġr ay
Ġr ab
Ġr ick
Ġr are
Ġr aw
Ġlo ose
Ġlo go
ld a
am ore
Ġsh ops
Ġsh ann
Ġk l
Ġk en
Ġk im
Ġk ir
Ġhe l
Ġbut t
Ġwith dra
Ġst eel
Ġst ation
Ġst ole
Ġdo gg
Ġnot hin
Ġat h
Ġfr ick
ir ing
ir re
ir it
Ġar ent
her s
Ġch a
Ġch allen
Ġno ve
Ġno on
th en
th ink
Ġal ive
Ġ_ ****
ate ful
ro y
ro ck
Ġma int
Ġsome what
Ġab and
Ġde vice
Ġpl ain
Ġwill ing
oun ts
ers on
Ġex change
.... .....
Ġcom in
Ġcom ics
Ġcom fy
oll y
Ġgre e
Ġgre w
Ġsp ain
Ġsp ort
Ġsp oke
Ġsp ark
Ġsp anish
Ġsp eech
Ġtwit s
Ġbl ow
Ġbl ind
Ġus er
Ġwhen ever
Ġun l
Ġmom ents
ist ry
Ġor gan
Ġtwitter land
Ġtwitter ville
Ġse l
Ġse es
Ġcl ock
tw url
Ġlast s
Ġton y
Ġwa h
Ġte m
Ġfriend ly
Ġ3 1
Ġ3 5
Ġ4 00
Ġaf r
Ġshow ed
ile y
ear ed
Ġway s
Ġgr ound
Ġgr ass
Ġgr rrr
Ġgr oups
ud ge
Ġsc an
Ġsc ott
Ġsc ience
ip ed
Ġcar l
Ġcar ol
Ġche esy
Ġtr ust
Ġplay s
Ġlong est
ive red
Ġpr ison
Ġad m
Ġad ver
he lp
Ġrain ed
Ġawes om
Ġac tive
Ġac ting
iz zy
Ġpart ies
Ġpo cket
Ġla h
Ġla id
up s
Ġlet ters
Ġapp lic
Ġsm s
az z
Ġbig gest
wh ich
Ġhard er
Ġtri ps
Ġid ol
Ġact ual
Ġyay y
gg ing
gg gg
Ġhelp ed
Ġpar is
Ġreal ity
ath y
Ġstuff ed
ens on
Ġ= /
Ġcle ver
Ġcra w
Ġcra ig
Ġacc ord
Ġawww ww
Ġke en
dd dd
Ġinst ant
br on
nn nn
Ġdel ivered
Ġsn iff
Ġrock ing
Ġrec ently
Ġkill ers
ii ii
land o
uu u
Ġchar ged
kk k
cl ing
Ġwalk ed
Ġed uc
ik i
Ġgrad e
Ġshort ly
Ġcut est
Ġfig uring
Ġcal m
-- --
atter ed
Ġleg al
Ġleg it
Ġcur ious
Ġes p
Ġtext ed
aw a
go ing
Ġsign ed
Ġpub lish
fl u
Ġgra ce
Ġsy n
Ġreg is
Ġreg ard
Ġreg ret
aaa ay
Ġnum bers
Ġapart ments
Ġlight s
Ġmed ia
Ġinv ited
Ġcor ner
led ge
Ġdist ur
Ġstud ents
Ġremind er
Ġcy rus
Ġbug ger
Ġcre ative
Ġbas ket
Ġtrans l
Ġtrans fer
bur gh
Ġbes ties
Ġgen ius
Ġcost ume
ular ly
Ġru in
Ġdaught ers
Ġmath s
Ġob ama
Ġ25 0
cast le
Ġhum or
Ġdoct ors
Ġvid s
Ġmel ted
Ġtast es
Ġrele ased
Ġsugg est
Ġspell ing
Ġbrit ain
Ġbrit ney
Ġtha i
Ġpie ces
Ġincl ude
Ġprin cess
Ġshout out
Ġhom ie
Ġvi ol
Ġfeed back
Ġbow l
Ġbri an
Ġele ct
Ġwash ed
Ġval ley
Ġsmell s
Ġaccident ally
Ġdrag on
____ ____
iti s
Ġreview s
unt u
fin ally
Ġange l
Ġnam ed
Ġgh ost
Ġattack ed
Ġign ore
af ter
Ġwra p
Ġtrad ition
Ġlaur en
Ġtur ning
Ġbother ed
Ġecon om
Ġjer k
Ġdeli very
Ġtax i
Ġmig raine
Ġber ry
Ġri ver
Ġsem ester
Ġscen e
Ġcharac ter
Ġcharac ters
Ġdistra cted
Ġmarket ing
Ġseni or
Ġseni ors
wor ld
Ġannoun ce
Ġincred ible
Ġsym p
Ġitem s
Ġjim my
Ġmotiv ation
Ġunf air
Ġjes us
Ġfru it
Ġfrustr ated
Ġvirt ual
Ġquot es
Ġsmok ing
Ġtermin ator
Ġinvol ved
Ġank le
Ġmyster y
Ġrach el
Ġjapan ese
Ġnood les
Ġlic ense
Ġmem bers
Ġsept ember
Ġmedic ine
bk ite
part y
Ġnephe w
Ġfash ion
Ġstubb orn
Ġrecog n
Ġpupp ies
Ġtamp a
Ġauth or
Ġhou ston
Ġfle w
Ġdall as
! .
! ..
( :
) ...
/ ?
0 1
1 00
3 9
4 4
9 8
` ,
a ve
a gh
a ud
b c
b al
b ing
b at
b ow
b ro
b ies
b ug
b ank
b enson
c ab
c ies
c tic
c lock
d h
d j
d is
d day
d ue
d ress
d ling
e h
e v
e ven
f an
f est
f ree
g od
g ress
h m
h ay
h ome
i or
i fe
i ents
i vers
j ack
k eep
k ins
k now
l ong
l ines
m ie
m ig
m ond
m are
n or
n ger
o tic
o aks
o inting
p u
p ut
r q
r an
r ad
r id
r ry
r ate
s omet
t her
t ore
t astic
w d
w ill
w eek
x i
x o
en ing
Ġt xt
Ġt ap
Ġt esting
ar ian
Ġi kea
Ġn t
Ġn in
Ġn an
Ġn ur
Ġn ash
Ġn ature
Ġn athan
Ġn aked
Ġn kotb
Ġa ver
Ġa pt
Ġa unt
ve st
Ġs ter
Ġs ize
in ion
Ġne at
Ġne il
Ġne st
Ġw re
Ġw oe
Ġw rest
Ġm ut
Ġm ia
Ġh ve
ti sh
ti fic
al so
al most
Ġb by
Ġb aking
Ġb omb
Ġb attle
Ġp am
Ġp ff
Ġp ure
on der
Ġto es
Ġto ss
Ġf t
Ġf oo
Ġf tw
Ġf ear
Ġf uck
Ġf og
Ġf urn
er es
er gic
or r
or ay
or der
Ġg al
Ġg il
Ġg um
Ġg ab
Ġd v
Ġd os
Ġd oo
Ġd uck
Ġd are
Ġd ates
Ġd rew
Ġd amp
ou ver
Ġc c
Ġc n
Ġc er
Ġc ig
Ġc ure
Ġc el
Ġc rew
Ġl or
Ġl ines
Ġl ower
Ġl ung
.. !
Ġy outh
Ġo d
Ġpos ter
it as
it ure
om or
om nia
ed ing
Ġan ti
is co
Ġin j
Ġin vis
Ġin put
et ti
Ġbe ans
Ġu mm
Ġu gg
Ġof ff
ad ed
Ġe ve
Ġe cl
ck ing
Ġj et
Ġj ul
Ġj ell
Ġj ason
Ġj unk
Ġwh it
Ġre in
Ġre vise
Ġso lo
Ġr c
Ġr on
Ġr at
Ġr ug
Ġr oss
Ġr ush
ust re
Ġlo ll
Ġsh ake
Ġsh ared
Ġsh uff
Ġsh oe
Ġsh orts
Ġsh ocked
Ġk i
Ġk al
Ġk er
Ġk or
Ġk itten
Ġhe ld
day s
pp a
pp le
Ġst aff
Ġst olen
Ġfr m
Ġfr ig
Ġfr ame
Ġfr idge
Ġcan dy
ur t
Ġar my
Ġup on
Ġout look
Ġall ah
Ġall erg
Ġall ergic
Ġch an
Ġch amp
Ġch ores
Ġtw i
Ġtw in
Ġtw ins
Ġno ise
ha h
th ere
Ġal i
Ġal ice
out s
Ġhapp ier
Ġam ber
Ġam ount
Ġam using
Ġ2 8
Ġ2 9
Ġma cc
Ġma gazine
Ġkn ox
Ġkn ock
il t
Ġaw a
st up
st orm
st airs
ra in
ra ct
Ġsee med
Ġim age
Ġim med
ri x
ri but
se lves
Ġas se
Ġde ll
and er
Ġpl ants
Ġv ib
Ġv ista
Ġ1 99
ff y
all ed
Ġfin an
Ġnew castle
Ġweek ly
Ġcom mer
ool s
Ġgre ase
ul ed
ul ation
Ġmo i
Ġfun ction
Ġus es
Ġus ern
Ġoh io
Ġle ct
Ġle mon
Ġun follow
Ġun happy
Ġor lando
Ġse le
Ġse par
Ġcl ient
Ġfa ces
Ġmorning s
qu et
Ġshe l
oooo ooo
Ġsa far
Ġco at
Ġco co
Ġco bra
Ġcon ver
Ġph ones
Ġsad ness
Ġte ar
Ġyea hh
Ġsay in
Ġsun s
Ġthing y
Ġ3 00
Ġ4 8
Ġman go
Ġpe ar
Ġbr ill
Ġbr ings
Ġshould er
Ġmon ster
Ġmon itor
Ġgr an
Ġgr ill
Ġgr ateful
Ġjo int
Ġwho ever
Ġbed room
Ġqu in
Ġro ve
ip se
ag ers
Ġpeop les
ft y
ive s
Ġpr oof
Ġad s
Ġad ore
Ġad ult
Ġfl ies
ug gle
Ġsuck y
iz on
Ġple ased
Ġthank fully
Ġpo le
Ġlet ter
ci ous
Ġlist ed
Ġwr it
Ġwr itten
Ġcool er
Ġcool est
per ate
ac tion
Ġsm ack
Ġsm iling
Ġ5 00
Ġsure ly
Ġom fg
pe cted
Ġhard est
Ġbir ds
Ġtra ins
Ġdis play
Ġugh h
Ġhot t
Ġcr amps
Ġfam ili
Ġcomp an
sh ow
Ġpar ent
Ġpar amore
Ġwar ning
Ġcheck in
Ġamaz on
Ġper for
la w
Ġdri vers
Ġ7 5
Ġacc ounts
Ġphot ography
ord an
Ġfree zing
Ġclass ic
Ġsunday s
Ġdef o
Ġdef ault
ĠĠĠĠ ĠĠ
ĠĠĠĠ ĠĠĠ
Ġz oo
Ġz eal
Ġz ero
if y
Ġsing s
Ġfood s
Ġmove s
Ġroom mate
ets y
Ġop tion
Ġop inion
Ġfail ing
Ġfail ure
Ġkill s
Ġkill er
Ġperson al
Ġchar lie
Ġhand y
Ġhahaha h
Ġcam er
Ġpa ir
Ġconc ent
Ġfinal e
hhhh hhhh
press o
Ġwind y
vis ion
Ġed ge
Ġmind s
Ġcompl iment
ught er
Ġpast a
Ġcook ed
not hing
Ġmil an
Ġmil ks
Ġann ivers
Ġ!! !!!
Ġbar s
Ġbar cel
Ġgrand pa
Ġcut ie
Ġpass es
Ġpass word
Ġdefin ately
Ġgoo od
ier d
Ġer ic
Ġes c
Ġmet al
Ġmet ro
mo z
Ġdra wing
Ġdra gged
Ġtour ing
Ġpres ents
Ġpres ident
Ġfil ip
Ġchr ome
Ġeng ine
ok ay
Ġdou gie
Ġty ping
Ġgra b
Ġgra bb
Ġcomm ute
Ġcomm ence
Ġcomm unity
Ġahh hhh
Ġreg ular
Ġcont rol
Ġtom morow
Ġhon or
Ġins omnia
Ġass ume
Ġind ust
Ġind ia
Ġmed s
Ġinv it
Ġ-- >
Ġjohn ny
Ġjack son
Ġstre p
Ġref resh
Ġweb cam
Ġcance l
Ġvac uum
Ġhold ing
Ġcelebr ity
Ġexper ien
Ġpri or
Ġcent re
Ġcre ated
Ġ200 8
Ġquick ly
Ġfish ing
Ġpull ing
Ġcost s
Ġstress ful
Ġ> .<
Ġq ld
Ġholl ie
che ck
Ġmomm ys
Ġsunburn ed
Ġ0 8
Ġexpe cting
mar ie
Ġscr ubs
ogra p
Ġcross ing
Ġshin y
Ġdoc s
Ġmod els
Ġcurr ent
gre at
Ġmich elle
Ġprin ter
Ġtalent ed
Ġden ver
Ġdry er
Ġanim als
Ġexpl ain
Ġque ens
Ġ?? ???
Ġnic ole
Ġaut o
Ġwit ness
Ġmam i
Ġmam as
Ġban ana
Ġban quet
Ġow ner
Ġay e
Ġly ing
Ġje ans
Ġholly wood
Ġholly oaks
Ġver izon
Ġba haha
Ġtor n
Ġrece ption
Ġstor ies
Ġneighb or
Ġneighb ors
Ġwood s
Ġsell ing
Ġenter pr
sk ies
Ġtopic s
Ġcud dle
Ġjour ney
Ġdisco vered
Ġcree py
Ġchem istry
Ġsmooth ie
Ġdecis ions
Ġbat man
Ġvict oria
Ġlar ge
Ġloc ation
Ġven ue
Ġpret end
0000 0000
Ġemo tion
Ġhook ed
Ġdread ing
Ġci ara
ugg les
Ġbuff alo
Ġemp ire
Ġannoun ced
Ġincred ibly
Ġwk nd
Ġpill ow
Ġdub lin
Ġcin nam
Ġcir c
Ġrepe at
Ġupgr ade
Ġsuff ering
Ġperform ance
Ġ$$ $
Ġbub ble
Ġoper a
Ġkar ma
Ġcompeti tion
Ġteen agers
Ġmiser able
Ġcustom er
Ġtac o
Ġmul ti
Ġcow ork
Ġfuner al
blog spot
Ġzomb ies
Ġindian a
Ġanth ony
Ġbey ond
Ġren ew
Ġvanc ouver
Ġerr ands
Ġeffect s
Ġtmr w
Ġnurs ing
Ġmitch el
Ġexer cise
Ġsaus age
Ġador able
Ġaccompl ished
Ġtypic al
Ġameric ans
starwars day
Ġautom atic
bour ne
Ġauss ie
Ġtoil et
Ġfes tiv
Ġbelo ved
chin ese
Ġnove mber
Ġaccord ing
Ġfurn iture
Ġecl ipse
Ġfrig gin
Ġallerg ies
stup id
Ġimmed i
Ġusern ame
Ġsafar i
Ġzeal and
Ġannivers ary
Ġbarcel ona
! ?!
' ...
3 5
3 6
7 1
_ ****
a at
b m
b ee
b untu
c ul
c ue
c ord
d b
d c
d ic
d oll
d ia
d ont
d ict
f on
f un
f ish
f eel
f all
f ied
g ian
h c
h q
h u
h y
h ar
h one
h ours
i w
i ots
j u
j our
k d
k m
k u
k w
k ick
l is
l ooks
m q
m x
m ic
m ight
m ine
m ates
m outh
n on
n is
n ks
p end
q n
r op
r ant
r ors
s es
t g
t ar
t or
t ch
t ry
t ri
u ar
u ction
w he
x s
x ing
y n
Ġ ou
Ġ ee
Ġ **
en ance
en ces
Ġxx xxxx
ent ina
Ġt d
Ġt i
Ġt u
Ġt x
Ġt ad
Ġt am
Ġt ig
Ġt ank
Ġt iff
Ġt ask
ar ge
ar ies
Ġi an
Ġi ced
Ġn h
Ġn ach
Ġn ina
Ġn ames
Ġn uts
Ġn vr
Ġn iece
Ġn vm
im i
im s
end o
end y
Ġa gh
Ġa ck
Ġa ight
Ġa aaaa
Ġa ches
ve t
Ġs d
Ġs ight
Ġs ack
Ġs ized
Ġs issy
in ate
in ating
in burgh
Ġw u
Ġw ing
Ġw ack
Ġw th
Ġm ur
Ġm ite
Ġm ater
Ġm int
Ġm cc
Ġm ale
Ġm andy
Ġth or
Ġth us
Ġth read
Ġth irty
Ġh k
Ġh id
Ġh ind
Ġh ire
Ġh ide
Ġh ated
ti g
ti st
al ie
Ġb g
Ġb t
Ġb ing
Ġb om
Ġb id
Ġb ust
Ġb ite
Ġb ash
Ġb illy
Ġb usted
Ġb ikes
Ġp g
Ġp w
Ġp ee
Ġp ere
Ġp ant
Ġp ong
Ġp ac
Ġp wn
Ġp itch
Ġp unk
Ġp uff
Ġp ounds
Ġp edic
on ic
on se
Ġto oooo
Ġto ron
Ġto morow
Ġf er
Ġf id
Ġf one
Ġf ile
Ġf oc
or ate
Ġg f
Ġg na
Ġg ary
Ġg mail
Ġd s
Ġd ia
Ġd ork
Ġd unk
Ġd edic
Ġd izzy
Ġc ad
Ġc ro
Ġc url
Ġc ache
Ġc iv
Ġc iti
Ġc ubs
Ġl en
Ġl ou
Ġl it
Ġl ooo
Ġthe ater
os is
at ly
at ors
at oes
an tic
Ġy er
Ġy ee
Ġy og
Ġy ucky
re at
re ally
Ġo l
Ġo x
Ġo il
Ġo ww
Ġo pt
Ġo we
Ġo oooh
ay y
om g
om p
ed own
Ġan ne
Ġha cked
ee ze
ot le
Ġyou nger
is er
is tic
as hing
Ġand rew
Ġin ner
Ġin box
Ġin vest
Ġbe ast
Ġbe ard
Ġbe ating
Ġu buntu
Ġfor est
ad s
Ġe mm
Ġe ag
ch ase
!! ?
Ġj p
Ġj an
... '
Ġwh e
Ġwh eel
Ġwh oop
Ġre z
Ġre un
Ġre ject
** *
Ġme h
Ġme lt
id ers
ic ulous
Ġr is
Ġr ad
Ġr ack
Ġr ang
Ġr ise
Ġr ib
Ġr iot
ter nal
am s
Ġsh a
Ġsh r
Ġsh ine
Ġsh izz
Ġsh irts
un ning
Ġk c
Ġk k
Ġk r
Ġk it
Ġk ore
Ġk ris
Ġday yyy
Ġwe ak
Ġli ft
Ġst y
Ġst inks
Ġst airs
Ġdo d
Ġwas ted
Ġfr y
Ġfr anc
ur o
ur ning
ur ity
ir on
ir med
Ġar k
Ġup coming
ce pt
Ġch ir
Ġno es
ha b
th in
th ma
th ank
Ġlove eee
Ġal ge
ast ated
ea g
ea pple
Ġtoday s
Ġkn ack
il ar
Ġaw ard
iss a
st r
st ud
ra p
ra tion
Ġas thma
Ġ**** !!
Ġback up
Ġknow ledge
Ġde w
Ġv oll
Ġv ip
ff e
Ġwill iam
Ġoff line
Ġex ternal
ig an
Ġnight y
Ġnight mare
Ġcom ic
Ġsl ip
Ġhop ed
aa h
aa ah
Ġsp irit
Ġmo z
Ġmo der
Ġbl u
Ġbl own
Ġbl ows
Ġbl oom
Ġle mme
Ġun s
Ġun it
ist e
Ġgu ide
ound ing
Ġtwitter ific
Ġse ats
Ġse wing
Ġcl ar
Ġcl ients
tw are
Ġsor ta
Ġco ke
Ġwa ve
mm mmm
Ġcon verse
Ġpro v
Ġpro vid
Ġph o
Ġph ill
Ġph ew
ous ers
Ġfri ed
res ent
Ġen gage
Ġbet ty
Ġtonight s
ap er
ap ed
Ġ3 2
Ġ3 60
be at
be lie
Ġbr on
Ġbr os
Ġbr ide
Ġbr unch
Ġbr uce
Ġshould a
Ġnice ly
Ġtry in
Ġtry na
Ġgon a
Ġjo ey
Ġqu ality
Ġdown stairs
ag g
ag s
ag ed
ag ne
Ġtr ousers
Ġplay in
Ġplay list
Ġfe l
Ġfe ature
Ġx men
Ġpre p
uck ing
Ġpr os
Ġpr ote
Ġfl ow
Ġfl ood
Ġbec uz
he ll
he alth
Ġsoon er
ace y
Ġac ade
Ġpo pped
Ġpo pping
Ġear phones
ta ge
ne l
Ġeat in
Ġsm iles
Ġstar ship
Ġ< --
Ġbab es
so ci
Ġmin es
Ġdi am
ph ot
Ġread er
Ġhard core
Ġbit s
Ġdis g
Ġcr amp
Ġcr uise
Ġhelp ful
bl ack
Ġexc l
Ġpar ks
Ġrun s
Ġlisten in
Ġwar ped
Ġguess ing
Ġ, ,,
Ġluck ily
Ġkid d
Ġmar c
Ġsin us
Ġend s
Ġstuff s
Ġtell s
Ġser vers
la ur
la ugh
opp ing
Ġsit ter
ash es
Ġ7 0
Ġhun go
oke y
Ġ= ]
Ġbel ow
Ġphot ograp
Ġfar m
Ġgod s
Ġtre ats
Ġsk i
Ġsk int
Ġsk ills
Ġboo ts
anc ing
Ġplan et
Ġuse ful
Ġz one
Ġz ach
Ġke ll
Ġke vin
Ġstop s
ple ase
Ġwin ner
Ġbeaut y
Ġroom s
Ġdes cri
Ġcho ir
Ġhit s
Ġho le
Ġho oray
Ġsoooo ooo
Ġdel ight
Ġsn ow
Ġsur round
Ġrep air
Ġrock in
Ġrec ent
Ġrec ipe
Ġatt ending
Ġperson ally
te en
Ġchar ity
ness ee
Ġcam ping
cl ub
Ġsec urity
Ġve gg
Ġdec ent
Ġyum m
Ġed ition
Ġed inburgh
Ġset tle
Ġbo b
Ġbo at
Ġbo iling
Ġga ga
Ġhigh ly
Ġcompl ic
con ne
Ġjon athan
Ġslow er
col n
Ġent ry
Ġdead line
Ġcal or
Ġopen ed
sw eet
Ġ.... ..
Ġgoo ood
Ġer in
Ġes presso
Ġmet all
Ġrelax ation
Ġconf using
Ġprom ised
friend s
Ġtext s
Ġfil ms
Ġtest s
Ġsign s
ott y
Ġforget ting
Ġchocol ates
ey ball
Ġgra ph
Ġcomm on
Ġcomm un
Ġcele b
Ġcol our
Ġreg re
Ġcont ro
Ġtom ato
Ġdang er
Ġdang it
Ġsent ence
Ġhon our
Ġdam m
Ġreply ing
Ġbur ning
Ġansw ers
Ġlight er
Ġev ry
Ġ20 10
Ġdownload ing
Ġchang es
Ġorder ing
Ġgradu ating
Ġmmm mmm
Ġappreci ated
Ġdisapp eared
Ġdisapp ointing
Ġhar m
Ġeff ing
Ġref uses
Ġms g
Ġdist ance
Ġtwee ter
Ġ100 0
Ġsmall er
Ġremind ed
Ġpur pose
Ġpur chase
Ġcy cling
Ġexper iment
rrrr rrrr
rrrr rrr
iet y
Ġson ny
Ġbott les
Ġdm v
Ġohh hhh
Ġarri ve
Ġarri ving
Ġbas ed
Ġble w
Ġpay s
bur ger
Ġge ography
Ġaud ience
Ġpiss ing
Ġpol i
Ġdig g
Ġdig ging
Ġprod uct
Ġrel ated
Ġroll s
Ġroll ing
Ġkick s
Ġra ise
Ġsqu irre
Ġhum an
Ġben e
Ġstick er
Ġrecommend ation
Ġten nessee
Ġbooks tore
Ġum bre
Ġmel bourne
Ġrub y
aaaaaaaa aaaa
Ġtast y
Ġpot ato
Ġdem ons
Ġvers ions
Ġmic ro
Ġfre ed
Ġpeace ful
Ġresp onse
Ġpray er
Ġpray ers
Ġima x
Ġmu ah
Ġhom es
Ġxox ox
Ġprac tic
Ġdan ny
Ġsol id
Ġconne ct
Ġdisney land
Ġdeser ved
Ġprogram me
Ġbak ery
Ġlam b
Ġdoll s
Ġdoll ars
Ġcolor ado
Ġstor es
Ġvan illa
ffff ffff
play er
Ġmont real
Ġrob in
Ġthunder storm
Ġdat a
Ġdat ab
Ġroo ting
Ġorig ins
Ġmanag er
Ġattack ing
erg ency
Ġdisco very
Ġbang s
Ġdar ling
Ġcas a
Ġcas es
Ġcoun ter
Ġcoun ting
Ġbell a
Ġform ul
Ġjen ny
Ġmex ico
Ġdep ends
Ġvir us
Ġscar ing
Ġlaur ie
Ġgener al
Ġgener ation
Ġtechn ology
Ġpet er
Ġital y
Ġdeli ver
Ġadv ant
Ġadv ance
Ġsea food
Ġcough ing
Ġloc ations
rib ly
Ġdev astated
Ġsem i
pol is
Ġsweat y
Ġinspir ation
Ġgoooo ood
Ġlon er
Ġuna ble
Ġjun ior
Ġprint ed
Ġreplace ment
sn ip
Ġwif i
Ġmount ain
Ġmount ains
Ġtow el
Ġcu ppa
Ġlin coln
Ġguil ty
Ġswed en
Ġmiser ably
Ġtar get
Ġthum bs
Ġpump ed
Ġdiss ap
Ġult imate
Ġfore ign
Ġrout e
Ġarg entina
Ġpartic ularly
Ġhehehe he
Ġcorre ct
Ġprofession al
jud dday
Ġpod cast
Ġlis a
Ġspin ning
Ġbrad ie
Ġsurprising ly
Ġreceive d
hen rie
Ġht ml
Ġhul u
Ġbi ology
Ġbrows er
Ġging er
Ġcrow d
Ġjum ping
Ġrehears al
Ġsof tware
Ġchip otle
Ġsadd est
Ġmanage ment
Ġbritt any
Ġapolog ies
Ġveget arian
Ġmeth inks
Ġrelation ship
Ġportug al
rup t
san ct
Ġtb h
Ġnegle cted
Ġfare well
Ġgall ery
Ġrab bit
Ġrare ly
Ġmaint enance
Ġsel ena
Ġcraw ling
Ġregard ing
Ġelect ric
Ġrecogn ize
Ġlung s
Ġinvis ible
Ġrein st
Ġshuff le
Ġkor ea
Ġvib es
Ġfinan cial
Ġcommer cial
Ġbrill i
Ġfamili ar
Ġfilip ino
Ġenterpr ise
Ġcinnam on
Ġmulti ple
Ġimmedi ately
Ġnach os
Ġpere z
Ġtoron to
Ġalge bra
Ġvoll eyball
Ġacade my
Ġhungo ver
! :
! ??
- >
- ****
/ .
0 6
0 8
2 1
2 3
3 1
4 6
5 2
5 3
5 6
7 3
7 7
7 9
9 4
; )
? `
a ha
a hh
a hhh
a tivity
b an
b out
b est
b ab
b ig
b ound
b bl
b rown
b ased
b orn
b aby
c as
c op
c ool
c ited
c uz
c ries
d g
d x
d et
d ate
d ri
d ire
d ream
d les
d ale
e o
e va
f ind
f ull
f ather
f red
g w
g or
g oo
g gh
g ins
g reen
h r
h s
h us
h un
h ur
h ate
h ire
h ug
h oot
i q
i u
i os
i ver
i que
j f
j q
j r
j en
j an
k i
k x
k z
k ay
k ward
k ids
l c
l ast
l ers
l ace
l ated
l ets
m n
m t
m at
m et
m ust
m il
m ess
m pic
m ich
m itted
n in
n ate
n ies
n ope
n kotb
o ly
o bs
o va
p ot
p op
p ts
p oint
r l
r ice
r ose
r ub
r adio
s b
s tart
s ing
s or
s ong
s oul
t d
t ain
t alk
t el
t omor
u i
u j
v l
v an
v ine
w b
w i
w q
w ed
w id
w all
w ide
w ah
w onder
x e
x ed
y b
y ing
y our
z o
z es
z ens
Â ł
Ġ {
Ġ ral
Ġ ere
Ġ !!!!
Ġ 09
Ġ etsy
en ix
en ger
ent o
ent ial
Ġt m
Ġt end
Ġt ack
Ġt ink
Ġt ub
Ġt ail
Ġt ty
Ġt ape
ar es
ar gh
Ġi e
Ġi v
Ġi z
Ġi ow
Ġi ch
Ġn j
Ġn ine
Ġn xt
Ġn ause
Ġn int
Ġn app
Ġn ba
Ġn atural
Ġn ational
im um
Ġa a
Ġa qu
Ġa irl
Ġa ko
Ġa aron
ve ll
Ġs g
Ġs os
Ġs ic
Ġs ink
Ġs ab
Ġs rs
in os
in ally
in fo
Ġw ik
Ġw itty
Ġw ives
Ġm k
Ġm t
Ġm v
Ġm ee
Ġm ill
Ġm our
Ġm eee
Ġm owing
Ġth in
Ġth ou
Ġth as
Ġth ick
Ġth aa
Ġth ous
Ġth ail
Ġth rown
Ġh p
Ġh ut
Ġh eeee
Ġh ord
Ġh ating
Ġh iding
ti ck
al a
al es
Ġb art
Ġb ast
Ġb oun
Ġb od
Ġb uck
Ġb bl
Ġb ond
Ġb oooooooo
Ġb ucks
Ġp ing
Ġp ed
Ġp ow
Ġp ir
Ġp out
Ġp il
Ġp eep
Ġp and
Ġp um
Ġp ile
Ġp sp
Ġp ets
Ġp ian
Ġp ier
Ġp ops
Ġp owers
Ġp anda
Ġp ounding
on ce
on ies
on tist
Ġto mm
Ġto ooo
Ġto ky
Ġf m
Ġf u
Ġf al
Ġf on
Ġf is
Ġf as
Ġf est
Ġf ang
Ġf ts
Ġf ont
Ġf uk
Ġf uzz
Ġf atty
er ts
or ant
Ġg g
Ġg ent
Ġg ain
Ġg ang
Ġg em
Ġg ather
Ġg night
Ġg ps
Ġg oooooo
Ġg ained
Ġd d
Ġd im
Ġd ee
Ġd ur
Ġd ess
Ġd ough
Ġd ud
Ġd up
Ġd az
Ġd ms
Ġd ual
Ġd ump
Ġd irty
Ġc s
Ġc ot
Ġc us
Ġc ere
Ġc ind
Ġc ops
Ġc ba
Ġc rib
Ġc si
Ġl j
Ġl es
Ġl oun
Ġl aa
Ġl oop
os es
os ter
at us
an ch
an other
an nn
Ġy t
Ġy an
Ġy eeee
Ġy ew
Ġy aaay
re k
re te
Ġo y
Ġo ly
Ġo li
Ġo veral
Ġpos h
om s
om en
es ome
ed in
ed ly
Ġan tic
Ġan ime
Ġha i
Ġha irst
Ġha bit
Ġha wa
ot ha
is y
Ġit self
Ġit ouch
Ġit chy
as se
as ion
Ġin dy
Ġin no
Ġin fect
Ġin con
Ġin fl
Ġin ches
et ter
et ime
gh h
Ġbe an
Ġbe com
Ġbe ars
Ġbe gun
Ġu hh
Ġu hhh
Ġfor mer
Ġof c
ad ing
ad ow
ad ia
ad dict
Ġe u
Ġe ps
ch er
!! )
Ġj os
Ġj ill
Ġj ake
Ġj ade
Ġj ordan
le g
le arn
... ?
Ġwh om
Ġwh eres
Ġre y
Ġre ar
Ġre ti
Ġre ee
Ġre ven
Ġre action
Ġso b
Ġso le
Ġso da
ic ed
ic tion
Ġgo ver
Ġgo ose
Ġr h
Ġr ot
Ġr ly
Ġr ant
Ġr ats
Ġr io
Ġr ings
Ġr uss
Ġr ules
ust ream
Ġlo bs
Ġlo vers
Ġlo gged
Ġlo gging
ter ia
am ous
am med
Ġsh at
Ġsh an
Ġsh ack
Ġsh ite
Ġsh ak
Ġsh eet
Ġsh ock
Ġsh aw
Ġsh ape
Ġsh ipped
Ġsh attered
un s
Ġk h
Ġk u
Ġk y
Ġk an
Ġk le
Ġk ard
Ġk ap
Ġk ud
Ġk ara
Ġk yle
Ġhe aps
Ġhe ctic
Ġwe ed
Ġwe eds
Ġli p
Ġli es
Ġli ed
Ġli ps
Ġst ood
Ġst one
Ġst ink
Ġst ro
Ġst age
Ġat tics
Ġwas ting
Ġfr o
op en
ur a
ur ve
ur ance
Ġar iz
Ġall ll
ill ing
Ġch ant
Ġch ain
Ġch air
tt ing
Ġwork shop
Ġsu p
ha c
ant ha
Ġlike y
Ġmor ris
Ġal o
Ġal p
Ġal ter
Ġ- .
ast e
Ġdon uts
Ġhapp iest
Ġam o
Ġam ong
ro d
ro id
Ġma h
ie m
ish ing
Ġkn ocked
Ġkn ees
il a
Ġtim ing
Ġaw kward
st ack
st ress
st ell
st ances
ra cted
ri fic
Ġab it
se x
Ġas ian
Ġas yl
ess a
Ġ**** `
Ġ**** ..
Ġlol z
Ġmiss y
Ġmiss in
Ġde cl
um ber
um ble
um mer
Ġv a
Ġv t
Ġv ine
Ġv oy
Ġv od
na ti
na tive
ers hip
Ġex h
Ġex it
ab ility
ol es
ol ic
ol ine
ol ution
ig o
Ġcom bo
Ġsl ice
Ġsl ap
ick s
Ġmo an
ak a
ak i
ak er
Ġneed le
Ġneed les
Ġtwit er
Ġtwit ting
Ġtwit ts
Ġfun ky
Ġbl end
Ġbl is
Ġbl ink
Ġbl owing
Ġus ers
Ġle on
Ġle op
Ġle bron
Ġun ex
Ġun pack
Ġgu in
Ġgu ild
Ġgu ests
Ġtwitter berry
Ġtwitter verse
Ġtwitter world
Ġ( ****
Ġ( ((
Ġwish ed
Ġher self
Ġher oes
Ġcl oud
Ġcl ara
Ġfa ith
ww www
qu el
tw t
tw eeting
Ġlast ed
Ġsor ting
Ġsleep in
Ġwould nt
Ġsa c
Ġsa tis
Ġcon vo
Ġpro gress
Ġte h
Ġyea hhh
Ġwon ders
pl ace
Ġen c
Ġen vy
Ġfollow s
Ġfollow in
Ġfollow friday
Ġsun n
ap y
Ġman n
be c
be y
be cause
Ġmay b
Ġmay er
Ġover s
Ġover he
Ġover night
Ġover time
Ġover cast
Ġover whe
Ġpe pper
Ġbr b
Ġbr u
Ġbr ook
Ġbr uise
for est
Ġshould nt
Ġmon key
Ġgr im
Ġgr ub
Ġgr ump
Ġgr illed
Ġ: [
Ġ: \
Ġqu arter
ud g
Ġro bb
Ġro gue
Ġro gers
ass ing
Ġdown side
Ġsc roll
Ġcar es
Ġche f
Ġche l
Ġche ls
Ġsw ing
Ġsw amp
ag r
ag ue
Ġtr amp
Ġplay off
Ġpre par
Ġpr itch
Ġfl ower
Ġcall in
he art
ma c
to day
ia o
Ġac id
iz es
Ġgirl ie
Ġpart yyyy
Ġyear book
Ġla ppy
Ġla ughter
Ġapp ro
Ġapp li
Ġapp les
Ġhur ray
Ġgl en
ort unity
Ġwr ist
ta ils
ne ver
Ġhi ya
ny a
Ġeat en
ac ing
ac ed
ac ity
Ġsm ashed
em o
em pl
Ġ5 5
Ġstar wars
Ġ< /
Ġbab yy
Ġour s
az ing
Ġom j
Ġmin us
Ġdi pl
Ġdi anne
Ġlea vin
Ġlea gue
Ġinter nation
Ġhard dri
Ġtri al
Ġtri ppin
Ġid iots
Ġdis like
Ġdis conne
Ġugh hhh
Ġag en
Ġcr im
Ġcr unch
Ġcr ime
Ġcr uel
Ġenjoy able
Ġcomp ared
Ġpar anoid
Ġreal y
Ġ6 30
Ġper o
Ġper u
Ġkid ney
aaaa aa
Ġmar ry
Ġrem ix
Ġput s
Ġda vis
Ġend less
Ġbirthday s
Ġtak in
Ġya ay
Ġmus cle
co ld
Ġhun g
Ġhun ny
Ġhair dress
Ġ= (
Ġ8 00
Ġbel gian
Ġcle ared
Ġcra fty
Ġacc id
Ġfar mer
by es
Ġmight y
Ġfree zer
Ġtre es
Ġtre kk
Ġsk ate
Ġsk ip
Ġmum ba
Ġboo th
Ġawww wwww
anc ed
Ġem bar
Ġem ergency
Ġplan es
Ġpain s
Ġz ac
Ġz oe
Ġke wl
Ġsuper man
Ġwel com
Ġsupp ly
Ġroom ies
Ġdes ire
br and
br ush
Ġsweet y
Ġsweet est
Ġill eg
the w
Ġop rah
Ġho e
Ġho edown
nn nnn
Ġsoooo oooo
got ta
Ġsn eak
Ġsn oring
Ġsn uggle
Ġsur f
Ġsur fing
Ġrep ub
Ġrep orts
Ġrep resent
Ġrock y
Ġrock et
Ġatt rac
te ch
te xt
Ġ9 9
uu ut
Ġchar l
Ġca used
Ġblog s
Ġconc ern
Ġspe ci
yyyy yy
Ġcard io
Ġforgot ten
Ġed ited
Ġhal o
Ġbo ost
Ġcoll ect
Ġchill ed
Ġhigh light
Ġheart s
Ġstr ang
Ġcompl et
Ġcompl eted
con f
Ġtil a
not es
Ġwear s
Ġgrad es
Ġdrive s
bo b
Ġmac ar
???? ????
Ġgrand mother
Ġart ist
Ġpass ing
Ġperfect ly
Ġ.... ...
atter n
Ġcur ry
Ġcur se
Ġcur ren
Ġres ume
unk y
mo vie
Ġconf lic
Ġconf irm
Ġconf irmed
Ġcare ful
Ġprom o
Ġmc m
Ġmc r
Ġvis a
Ġpres ence
Ġflu ffy
Ġburn s
Ġsign al
Ġeas ily
oooooooo oooooooo
Ġty ler
Ġfly er
Ġreason able
Ġbb c
ici ally
Ġload ing
Ġphotos hoot
Ġpizz as
Ġseason s
Ġsy kes
Ġside walk
Ġside kick
Ġcup cake
Ġcont ent
Ġcont ract
Ġcont empl
Ġnum b
Ġret urning
Ġdam ned
Ġsam ple
Ġsam antha
Ġbur ger
Ġbur gers
Ġins ul
Ġins pe
Ġste am
Ġste ady
Ġass ist
Ġbud dies
uss y
ention ally
Ġsim ps
Ġsim ilar
Ġlight ning
Ġind o
!!!!!!!! !!
66 5
Ġmed ium
Ġstand ards
Ġjack et
Ġstre ets
Ġstre tch
Ġcheese cake
Ġagree ing
Ġmeeting s
Ġhar ry
Ġref er
Ġref le
Ġsal ary
Ġremind ing
Ġgreen ville
Ġcelebr ated
wa it
Ġgut s
Ġcy a
Ġcy cle
Ġlu ke
Ġexper t
Ġbre aks
Ġcre ativity
Ġ200 0
cy cle
Ġble ach
Ġfish ies
Ġgig s
Ġtrans port
bur g
Ġbes ide
Ġbes tie
Ġtouch ed
Ġlat te
Ġnote book
........ ..
Ġspr ay
Ġsmile y
Ġpol ar
Ġdro pping
Ġprod uc
Ġprod uce
12 7
Ġpop ulation
Ġinde pend
Ġrel ief
Ġbox ing
Ġbox es
Ġimp ro
Ġuni que
Ġuni verse
Ġtrack s
Ġrecommend ations
Ġther apy
Ġmel issa
Ġspeak er
Ġspeak ers
Ġpot ter
Ġimag ination
Ġvot es
Ġcheer ing
Ġflight s
Ġdisc oura
Ġmention ed
Ġthrow back
Ġcap ital
cess ary
Ġtee hee
Ġwal es
Ġmich igan
Ġpat ron
Ġfit ness
Ġjam ie
Ġresp ons
Ġprin ce
pro d
Ġnoooo ooo
Ġaff ect
Ġahhhh hh
Ġmix ed
Ġden ny
Ġden ial
Ġjus tice
Ġexha usting
Ġswe ating
Ġrandom ly
Ġmu y
ern atural
ising ly
Ġexpl oring
Ġspam mers
Ġdirect ly
pa id
Ġbri ck
Ġdan iel
Ġlay out
Ġinsp ired
Ġrequ ire
Ġrequ iem
Ġmagic al
Ġvie ws
Ġconne cted
Ġaustral ian
let te
sup ernatural
Ġwall et
Ġpig s
Ġpig gy
Ġlam bert
Ġhav n
Ġhav nt
Ġrid iculous
Ġdoll ar
Ġchap er
Ġimpress ion
Ġimpress ive
Ġlead s
Ġtrou bles
Ġattem pting
boy s
Ġhee hee
Ġint ent
Ġglo om
Ġglo bal
Ġstraight en
Ġhay fe
Ġhay ley
Ġlab els
Ġyah oo
Ġroo f
Ġroo ts
Ġbutter fly
Ġorig inally
ru ction
Ġign ored
Ġeur o
Ġwra pped
Ġcoun ts
Ġjen n
Ġstri ke
Ġwashing ton
Ġchea per
Ġash leigh
Ġlaur a
aaaaa ay
Ġtechn ically
Ġtur tle
Ġtag s
Ġbee f
Ġpin eapple
Ġlack ing
Ġoce ans
Ġjer sey
Ġvict ory
Ġacce pting
)) )
`**** ?
ht ml
Ġri pped
Ġtweep les
Ġdev on
cin nati
miss ion
Ġsus p
Ġmart in
Ġci ties
Ġwhoo ps
Ġgold fish
Ġko i
Ġdrum s
Ġgirlfriend s
Ġmary land
lu v
pack et
Ġtut or
Ġtat to
Ġmat thew
Ġgam bit
Ġjun gle
Ġrepe ated
Ġkay la
Ġlif es
Ġlif etime
Ġupgr aded
Ġmotiv ated
Ġclick ed
Ġconvin ce
Ġpati ents
Ġdiscuss ion
gm t
Ġsil ver
Ġsil ence
Ġlin ux
Ġhaw ks
Ġjes se
Ġjud ge
Ġfrustr ating
Ġspo il
Ġguil t
Ġcock tails
Ġswed ish
Ġentertain ing
mb ly
yea h
Ġthum b
Ġdies el
Ġopp ortunity
Ġrom ance
Ġstalk ing
Ġfrank ie
Ġgreet ings
Ġfunn iest
Ġfuner als
Ġclos est
Ġbroad band
Ġzomb ie
Ġsnack s
Ġrelative s
Ġsubject s
ĠĠĠĠĠĠĠĠĠĠĠĠĠĠĠĠ ĠĠĠĠĠĠĠĠĠĠĠĠĠĠĠĠ
field notes
gon na
Ġtire s
Ġwire less
Ġmuff in
Ġmuff ins
Ġtodd ler
Ġyell ow
Ġocc asion
Ġtwist ed
Ġspl it
Ġburr ito
Ġpsy ch
Ġincre asing
Ġcondition s
Ġsudden ly
mc fly
Ġaun tie
Ġcart oon
Ġcass ie
Ġcult ure
Ġinf amous
Ġjail break
Ġliver pool
Ġadvent ure
Ġadvent ures
Ġemploy ee
Ġze lda
cont rol
Ġted dy
Ġwaaaa ay
Ġbam boo
Ġluc as
Ġanx iety
Ġshann on
Ġkir k
Ġchallen ge
think ing
Ġaband oned
Ġgree ce
Ġunl ucky
Ġcarol ina
Ġapplic ation
Ġregis tered
Ġdistur bed
Ġtransl ation
Ġtradition al
Ġeconom ic
Ġsymp athy
Ġnur se
Ġnash ville
Ġaver age
Ġpam per
Ġpff t
Ġdv ds
Ġchamp agne
Ġmacc y
Ġasse mbly
Ġlect ure
Ġsele cted
Ġsepar ate
Ġpear l
Ġwrit ers
Ġcompan ies
Ġperfor ming
Ġconcent rate
Ġmilks hake
Ġesc aped
Ġinsomnia c
Ġexperien cing
Ġprior ity
Ġneighbor hood
Ġemotion al
Ġcowork er
Ġrenew ed
Ġfestiv al
try ing
Ġfoc us
Ġdedic ated
Ġris k
Ġfranc isco
Ġchir ping
eag ues
Ġmoz art
Ġmoder n
Ġpho enix
Ġengage ment
Ġdiam ond
laur ie
Ġphotograp her
Ġsurround ed
Ġcomplic ated
Ġdanger ous
Ġumbre lla
Ġfreed om
Ġadvant age
snip url
Ġbrilli ant
tomor row
wid th
Ġiow a
Ġsrs ly
Ġthail and
Ġpout ing
Ġpian o
Ġtoky o
Ġfts k
Ġloun ge
Ġoly mpic
Ġoveral l
Ġantic ip
Ġreven ge
Ġlobs ter
Ġkard ash
Ġkud os
Ġkara oke
Ġariz ona
Ġasyl um
Ġunex pected
Ġunpack ing
Ġchels ea
Ġtramp oline
Ġpritch ard
Ġinternation al
Ġharddri ve
Ġmumba i
Ġilleg al
Ġattrac tive
Ġcurren cy
Ġindepend ent
! ]
! ?!?!
! ,.
' -
' ....
) !
* .
, ...
- *
- `
. ?
/ )
/ -
0 3
0 4
1 99
3 60
4 2
4 3
5 7
6 1
6 3
6 4
8 1
8 3
8 5
8 9
9 1
9 2
9 6
9 7
< <
= ]
? !!
` !
` ?
` `
a j
a u
a ga
a ving
a pl
a ugust
a xing
b p
b w
b en
b or
b es
b id
b uck
b ull
b age
b oth
b oot
b bo
b ike
b ows
b rows
b nation
c d
c f
c n
c w
c z
c or
c os
c ot
c et
c ry
c ro
c ie
c all
c ard
c ia
c are
c la
c li
c astic
c ester
c orn
c idence
d k
d ar
d ee
d one
d oes
d ler
e b
e z
e ti
e os
e ber
e gr
e bob
f re
f ay
f ed
f ight
f ill
f ry
f ting
f oot
f its
f uly
g th
g ling
g ared
g eek
h p
h z
h ot
h ack
h and
h all
h mm
h ang
h irl
h ia
h opp
h ana
h uggles
i ee
i aa
i ving
i va
i ties
i vid
j s
j t
j v
j on
j ess
j une
k q
k ar
k it
k ill
k ie
k iss
k ers
k ind
k ia
k eeps
k inda
l ou
l ow
l ee
l ant
l ink
l ip
l ord
l bs
l ondon
l arge
m f
m j
m al
m es
m ith
m and
m ake
m ble
m int
m el
m ary
m cc
m ons
m akes
m ware
n k
n p
n z
n ut
n ea
n ote
n uts
o ons
p in
p al
p an
p it
p ly
p ad
p ire
p ies
p ear
p ens
p ark
p orts
p orate
q w
r z
r ent
r it
r oo
r as
r ase
r ope
r ings
r ade
r ics
r ays
r tle
s ar
s im
s in
s ay
s ed
s ch
s am
s ub
s ure
s ort
s chool
s hake
s after
s ummer
t j
t our
t ake
t ell
t imes
t ried
t ools
u ous
u ese
v v
v or
v ity
v iron
w j
w t
w z
w al
w er
w at
w it
w ow
w ink
w ick
w eet
w anna
w el
w itty
y e
y j
y k
y th
y um
y ear
z f
z g
z i
z p
z v
z ed
Ġ eek
Ġ ustream
en e
en na
en omen
Ġxx xxxxxxxx
Ġt c
Ġt n
Ġt art
Ġt id
Ġt ro
Ġt ie
Ġt all
Ġt res
Ġt up
Ġt ube
Ġt ester
Ġt ango
Ġt iring
Ġt ierd
ar i
ar io
Ġi a
Ġi on
Ġi re
Ġi ck
Ġi rr
Ġi zz
Ġi car
Ġi kr
Ġi bm
Ġi player
Ġn c
Ġn m
Ġn it
Ġn th
Ġn ort
Ġn joy
Ġn ik
Ġn ana
Ġn fg
im a
im er
im me
im mer
im aver
end a
Ġa k
Ġa us
Ġa ven
Ġa ah
Ġa ching
Ġa ka
ve re
Ġs r
Ġs ou
Ġs ed
Ġs ake
Ġs ass
Ġs ss
Ġs fo
Ġs esh
Ġs ql
Ġs rry
Ġs izes
in is
in ity
in cl
in cidence
Ġne va
Ġne uro
Ġne cessary
Ġw y
Ġw ks
Ġw ink
Ġw il
Ġw ick
Ġw ool
Ġw ak
Ġw ip
Ġw iz
Ġw ating
Ġw itch
Ġw aaaaaaaa
Ġw ooooo
Ġw iped
Ġw endy
Ġm m
Ġm n
Ġm im
Ġm end
Ġm oo
Ġm ri
Ġm use
Ġm ud
Ġm ug
Ġm ens
Ġm ates
Ġm ba
Ġm eeeee
Ġm ashed
Ġm olly
Ġm gmt
Ġth t
Ġh q
Ġh v
Ġh an
Ġh ic
Ġh ong
Ġh ous
Ġh int
Ġh haha
Ġh ence
Ġh ips
Ġh ittin
ut z
ut ers
ut ches
ti a
ti se
ti tion
al f
al an
al ed
al le
al ine
Ġb m
Ġb end
Ġb is
Ġb eet
Ġb ake
Ġb ap
Ġb ip
Ġb ree
Ġb ens
Ġb kk
Ġb ik
Ġb att
Ġb ible
Ġb wa
Ġb oooooo
Ġb icy
Ġp d
Ġp or
Ġp as
Ġp un
Ġp atch
Ġp ul
Ġp ine
Ġp ies
Ġp ip
Ġp int
Ġp ik
Ġp eek
Ġp uzz
Ġp ushing
Ġp imp
Ġp ups
Ġp otty
Ġp attern
on i
on ia
on ica
ing e
ing ton
Ġto urn
Ġto ps
Ġto pped
Ġto wards
Ġf ee
Ġf ot
Ġf ought
Ġf ired
Ġf ond
Ġf anc
Ġf if
Ġf ift
Ġf ern
Ġf irm
Ġf udge
er m
er in
er ies
er rr
or ter
or ks
or ting
or ation
or ah
Ġg w
Ġg y
Ġg or
Ġg ad
Ġg ri
Ġg our
Ġg el
Ġg ents
Ġg nite
Ġg imme
Ġd f
Ġd k
Ġd ing
Ġd ere
Ġd ood
Ġd ice
Ġd ip
Ġd ooo
Ġd ating
Ġd irt
Ġd itch
Ġd uh
Ġd rows
Ġd vr
Ġd andy
Ġc t
Ġc w
Ġc ate
Ġc ooks
Ġc ss
Ġc ork
Ġc ds
Ġc ube
Ġc ries
Ġl end
Ġl ed
Ġl oooo
Ġl ag
Ġl ug
Ġl ens
Ġl anc
Ġl oooooooo
Ġl ane
Ġl ump
Ġl itter
Ġl inda
Ġl acey
.. '
os op
at a
at ory
an ity
an co
an ley
Ġy ur
Ġy aaaa
Ġy ey
Ġy ards
Ġy ikes
Ġy aaaay
Ġy orks
re es
re ee
re ady
re lated
Ġo ll
Ġo ot
Ġo oooo
Ġo www
Ġo va
Ġo wl
Ġo wwww
ll s
om a
es tic
es pecially
ed a
ed ge
ed ies
oo h
oo ow
oo ke
oo ol
Ġan t
Ġan ch
Ġan ts
Ġha a
Ġha z
Ġha ck
Ġha aa
Ġha mm
ee m
ee zing
ot ed
ot xt
ot ta
Ġyou u
Ġit ching
Ġmy rtle
as p
as er
as es
as ure
Ġand roid
Ġin k
Ġin come
Ġin ves
Ġin tr
Ġin form
Ġin iti
us day
et er
Ġon ion
gh z
gh hh
Ġbe es
Ġbe ver
Ġbe ers
Ġbe be
Ġbe have
Ġbe cky
Ġfor ms
Ġfor bid
ad i
ad as
ad ium
Ġe a
Ġe up
Ġe go
ch i
ch ar
ch an
ch ain
ch em
ch allen
ch itis
!! ??
Ġj d
Ġj i
Ġj s
Ġj ar
Ġj ose
Ġj ac
Ġj ane
Ġj ury
Ġj azz
le x
le man
... !
Ġwh n
Ġwh t
Ġwh aaa
Ġwh eels
Ġre ck
Ġre el
Ġre li
Ġre load
Ġre je
Ġre bel
Ġre lying
Ġme ga
Ġme gan
id i
id ol
id ity
id iot
Ġso ak
Ġso cal
ome z
ic les
Ġgo at
Ġr p
Ġr us
Ġr ome
Ġr ul
Ġr ap
Ġr ah
Ġr ates
Ġr eno
Ġr ides
Ġr sv
ust er
Ġlo ver
Ġlo gin
Ġlo osing
Ġlo llll
ter net
ter sweet
am er
am ation
am bled
am ento
Ġsh w
Ġsh it
Ġsh ir
Ġsh eep
Ġsh hh
Ġsh amp
Ġsh adow
un day
un ken
un fortun
un follow
Ġk ent
Ġk os
Ġk at
Ġk et
Ġk aw
Ġk av
Ġk fc
Ġhe ated
Ġhe yyy
Ġhe lm
ere my
pp ie
pp ers
pp ins
ood oo
Ġli ly
Ġli qu
Ġli vin
Ġst am
Ġst ats
Ġst able
Ġst ung
Ġst unning
Ġst anley
Ġdo h
Ġdo om
Ġdo lp
Ġdo pe
Ġdo ors
Ġnot ting
Ġfr ost
Ġfr app
Ġcan al
Ġcan on
Ġcan ad
Ġcan dle
Ġcan ucks
Ġcan did
op er
ir a
Ġar gue
Ġar vo
Ġar rest
her n
Ġgood luck
Ġout s
Ġall en
Ġall ergy
Ġall lll
Ġch il
Ġch eet
Ġch uck
Ġch ore
Ġch ances
Ġch ai
Ġch asing
Ġch amps
tt ttt
ry l
Ġsu d
Ġsu v
Ġsu pr
Ġtw as
Ġtw eed
Ġtw hirl
Ġno one
Ġno vel
Ġno va
Ġno bod
Ġno tific
ha a
ha bit
ha kes
th es
th ought
th ats
Ġlove e
Ġlove ee
Ġmor r
Ġgot cha
Ġal ab
Ġal ison
Ġal ien
Ġ- _
Ġdon g
Ġdon nie
Ġhapp end
Ġam b
Ġam p
Ġam en
Ġam ster
ro e
Ġma a
Ġma p
Ġma aa
Ġma gn
Ġma ui
Ġtoday yy
ie ving
Ġkn itting
il o
il ton
st or
st one
st ation
st ream
st atic
ra ines
Ġim m
ri o
ri al
ri an
ri ck
ri ch
ri be
Ġab c
Ġab usive
se c
Ġwhat ta
Ġwhat cha
Ġas ada
ess s
com fortable
Ġ**** -
Ġ**** ?
eep y
Ġback pack
Ġwee e
Ġlol s
Ġlol ol
Ġknow w
ong ebob
Ġde y
and o
and erson
Ġpl at
Ġpl ate
Ġpl zz
Ġpl ugs
Ġpl ots
um a
um ing
um ati
um stances
Ġv h
Ġv mware
Ġv oodoo
ff ee
ff le
ff les
all ah
ct s
ct or
Ġnew est
Ġnew port
Ġnew born
Ġoff ered
ard o
est on
est ones
Ġany who
Ġthink in
Ġex s
Ġex press
Ġex otic
ab eth
ol ar
Ġhome less
Ġnight mar
Ġcom et
Ġcom cast
Ġsl eee
Ġsl ipp
Ġsl ammed
ick ers
ick ey
Ġsp y
Ġsp ose
Ġsp are
Ġsp ock
Ġsp ect
Ġsp ears
Ġsp oon
Ġsp icy
Ġsp agh
Ġsp ongebob
ul u
ul eta
Ġhaha a
Ġmo ld
Ġmo tion
Ġmo haw
Ġhow d
Ġhow ard
ame l
ak en
Ġneed a
Ġneed ing
Ġtwit t
!!! ..
!!! ...
Ġbl o
Ġbl ur
Ġbl iss
Ġbl ues
Ġbl ushing
Ġhope ful
Ġhope less
ain ts
Ġoh well
Ġle an
Ġle ather
Ġle eds
Ġun ion
Ġun em
Ġun till
Ġun comfortable
ist r
ist le
Ġmuch o
Ġevery on
Ġor ch
Ġor th
Ġor ient
Ġgu est
Ġhas nt
Ġtwitter ed
Ġtwitter ers
Ġtwitter ena
Ġ( &
ven s
ven ient
Ġse p
Ġse ction
Ġcl am
Ġcl ap
Ġcl ip
Ġcl ark
Ġfa ire
Ġgreat er
tw ee
tw ilight
Ġlast night
Ġsor rry
Ġ' m
Ġsleep s
Ġsleep over
Ġwould a
Ġsa ga
Ġsa il
Ġsa cr
Ġsa uce
Ġco f
Ġco ding
Ġco incidence
Ġwa ves
Ġwa gon
Ġcon an
Ġcon ce
Ġcon rad
Ġcon text
Ġpro ve
Ġpro lly
Ġpro cr
Ġph ase
Ġph rase
Ġph enomen
Ġcould a
Ġsad den
Ġte ased
res p
pl es
pl aced
Ġen ga
Ġen viron
Ġsun da
Ġsun gl
Ġwhy yyy
xt on
Ġwait ed
Ġ4 2
Ġman ic
Ġmay day
Ġmay he
Ġover come
Ġshow in
od a
od el
od ontist
Ġpe ed
Ġpe as
Ġpe ps
Ġbr is
Ġbr anch
Ġbr ooke
for ms
pic t
Ġthem es
Ġthem selves
Ġmon ies
Ġmon ica
Ġgr in
Ġgr am
Ġgr ind
Ġgr rrrr
Ġgr umble
Ġjo g
Ġjo h
Ġjo ker
Ġ: *
ang ed
Ġqu al
Ġqu es
Ġqu ad
Ġqu izz
Ġqu itting
Ġqu eries
ach er
ud ing
Ġro bert
Ġhead in
Ġhead phones
ass es
Ġdown er
ys ter
ys unday
ber g
Ġsc if
ip ment
ip hone
Ġcar r
Ġcar ri
Ġcar pet
Ġcar amel
Ġche w
Ġche ating
Ġsw ings
ag u
ag ing
ag an
ag ree
Ġtr ent
Ġtr op
Ġtr um
Ġtr ash
Ġtr ade
Ġtr iste
ft op
Ġx p
Ġpre view
Ġpre gn
Ġpre dic
ub b
Ġpr is
Ġpr ide
Ġpr ank
Ġpr ops
Ġmothers day
Ġad e
Ġad o
Ġad ap
Ġsom atic
Ġdr unken
Ġhim ym
Ġfl ip
Ġfl ats
Ġfl ush
Ġfl av
ug ging
ma tic
Ġsuck ing
Ġtweet up
Ġac ct
Ġac qu
Ġsomet hin
iz a
og s
Ġpart ied
Ġmad d
Ġmad ness
Ġmad die
Ġbor ders
Ġpo em
Ġpo inting
Ġpo ppins
Ġear n
Ġear rings
ment al
Ġapp art
Ġapp lies
Ġapp rent
Ġhur ric
Ġgl am
Ġgl ue
ci ans
Ġur ge
Ġur ban
Ġnever mind
Ġwr iter
Ġ@ __
ta h
ta co
Ġhey a
Ġhi ber
Ġhi ii
Ġhi king
per er
per ating
per ature
Ġsick ness
ac y
ac tive
Ġsm ith
Ġ5 8
Ġ* -*
pt oms
int egr
Ġom el
ather ine
eeee ep
Ġbig gie
ah olic
Ġmin imum
Ġdi ving
Ġdi ana
wh ite
wh ile
wh atever
ph ic
Ġold s
Ġread in
ious ly
Ġinter n
Ġinter nal
Ġever r
Ġhard ware
Ġtri ck
Ġtri cky
Ġbit ing
Ġbit tersweet
Ġact ress
Ġbir ming
Ġtra vis
Ġtra gic
Ġtra vell
Ġtra umati
Ġdis ab
Ġdis agree
get ting
Ġag ent
Ġsomething s
el a
Ġcr u
Ġcr am
Ġcr ashing
bl r
bl ing
bl ue
Ġbro dy
Ġcomp s
Ġcomp are
sh r
sh ot
sh ips
sh irts
Ġpar ade
Ġpar alle
ond a
Ġreal ise
Ġreal izing
Ġrun ny
Ġrun nin
Ġomg osh
ath ise
Ġwar ren
Ġwar rant
Ġguess ed
Ġ, ,
Ġkind s
Ġamaz e
Ġamaz in
Ġ6 5
Ġ6 00
Ġper th
Ġper man
Ġmar ch
Ġmar ia
Ġmar ley
Ġmar gar
Ġmar iah
Ġrem o
Ġrem ove
Ġrem eber
Ġda w
Ġda isy
Ġser ve
la ws
ank y
Ġworld s
Ġthr illed
Ġdri p
Ġnothing s
ss a
ss sss
Ġ; (
Ġya o
Ġsound ed
co z
co ffee
Ġ10 1
Ġ10 2
Ġamazing ly
no ld
Ġparty in
Ġ= >
Ġ8 2
Ġ8 8
Ġbel ive
Ġmean ie
Ġcra b
Ġcra wl
Ġcold play
Ġpoor ly
Ġfree way
Ġfree ze
Ġdrink in
Ġtre ated
Ġsk l
Ġsk ill
Ġsk ool
Ġsk irt
Ġmum m
Ġcoff e
Ġboo hoo
de ad
Ġem b
Ġpain ted
Ġmusic al
Ġz o
Ġz zzz
Ġke ith
if ied
Ġroom ie
Ġdes perate
Ġmess y
Ġmess enger
Ġcry in
Ġtheir s
Ġplace ment
br idge
Ġcho ices
Ġdream t
the art
Ġhol s
Ġhol es
Ġop tions
Ġrest ing
Ġrest ed
Ġclean er
Ġsoooo oooooo
Ġdel ish
Ġdel ays
Ġsn eez
Ġsn eezing
Ġsn ickers
Ġfail s
but t
me x
Ġrec y
Ġrec on
Ġrec ital
ese lf
Ġatt ach
Ġatt ended
Ġatt racted
Ġperson ality
te am
Ġ9 6
Ġ$ .
Ġchar les
Ġchar ming
Ġchar ging
Ġchar ges
Ġhand ed
Ġhand bag
Ġca f
Ġca ve
Ġhor rid
Ġhor ribly
Ġblog tv
Ġconc rete
app le
Ġmeet s
Ġelse where
gr ade
Ġve h
Ġve gan
Ġmid day
Ġsaturday s
Ġed die
Ġbo il
Ġga hh
Ġcoll ab
Ġcoll eagues
Ġchill y
Ġchill axing
Ġhigh way
Ġheart burn
Ġstr ing
Ġstr ugg
con y
ik u
ik ini
Ġfall s
Ġfall en
Ġfall ow
Ġbum p
Ġbum ps
Ġbum ping
Ġbum ped
Ġpack age
Ġpast ors
Ġcook er
Ġ) :
Ġjon es
Ġslow est
Ġgrad er
bo ards
Ġbar ack
Ġbar ry
Ġbar be
Ġpost p
???? ??
Ġbra id
Ġbra ces
Ġgrand e
Ġart work
Ġart ists
Ġpass ion
Ġred o
Ġred head
-- ->
sw ine
Ġbank rupt
Ġexce ption
Ġleg o
Ġleg end
Ġstudy in
Ġcur ve
Ġres er
Ġres ult
Ġres cu
Ġres ched
Ġres cue
Ġrelax in
mo on
ton y
Ġhmm mm
Ġdra ft
Ġconf ig
Ġcare er
Ġtour ist
Ġvis ual
Ġvis ible
Ġter ra
Ġter ms
Ġpres chool
Ġlink edin
amp ire
Ġfil ming
Ġpark ed
aw s
aw an
go v
fr ont
fr idge
Ġdou bles
Ġdou bled
Ġbless ings
ey e
ey es
Ġty ra
ower ing
ici ent
Ġload ed
Ġext end
Ġext ended
fl ies
ib ition
ib ility
oint ed
Ġwater ed
Ġfair ly
Ġgra pe
Ġgra ham
Ġgra pes
Ġdear ly
Ġcele bs
Ġcol in
Ġcol ours
Ġ15 0
Ġ15 00
Ġcomment ing
Ġcomment ary
Ġcont rib
Ġcont ribut
Ġdam aged
Ġrepl ay
Ġrepl acing
Ġblock ing
Ġunfortun ate
Ġunfortun atly
ping ing
Ġta o
Ġta ught
Ġsam berg
Ġbur st
Ġbur bank
Ġdie ing
Ġins urance
Ġste pped
Ġsub mitted
Ġass es
Ġps hh
Ġunderstand s
ipp in
Ġsim on
Ġcount y
Ġlight ing
Ġind ul
Ġind ians
Ġind ivid
Ġev idence
Ġev olution
Ġclub bing
!!!!!!!! !!!
follow ing
Ġmed ical
Ġdress er
Ġdress es
Ġstand ard
Ġfact or
Ġfact ory
Ġgradu ate
Ġmmm mmmm
Ġjack ie
Ġjack man
how ever
Ġmen u
Ġhar sh
Ġeff in
Ġref use
Ġearli est
uff in
Ġsal t
Ġsal on
Ġms gs
Ġdist ant
Ġtwee ties
Ġstud ied
Ġanswer ed
Ġtal es
Ġtal ks
Ġna tive
Ġproject s
Ġhold s
Ġgarden ing
wa iting
wa ves
wa uk
Ġdepress ion
Ġvo e
Ġvo cal
Ġvo cab
bb c
Ġtum blr
Ġmass ac
Ġbug gy
Ġbug ging
Ġpri x
Ġfab ric
Ġarri ves
Ġarri val
Ġ200 7
cal i
mon day
Ġble ed
Ġble ch
Ġpay ed
Ġpay check
Ġpool s
Ġgig gle
Ġgig antic
Ġeach other
Ġdeal ing
Ġtrans form
Ġpaper work
Ġfour teen
Ġgen eva
Ġdy ed
Ġdy lan
Ġcost a
Ġlat ers
Ġexp o
........ ...
Ġmark ed
da ve
min us
Ġ> _
Ġaud rey
Ġmis ter
Ġmis placed
Ġholl a
Ġpiss es
Ġpol iti
Ġprod uction
Ġrecord ed
par anoid
Ġpu ke
Ġpop corn
Ġob ject
Ġinde x
Ġrel ay
Ġroll ed
Ġbox ers
Ġpower ful
Ġra ised
Ġimp ati
cr im
cr oss
Ġ0 5
Ġsqu ad
Ġsqu eeze
Ġwol f
Ġdire ctions
Ġmach ines
Ġstick s
Ġstick y
Ġstick ing
Ġself ish
Ġtrail s
Ġrecommend ed
mar ley
oid s
Ġten nis
Ġsand which
ayl ee
Ġhahah ha
Ġphil osop
Ġscr ub
Ġscr ambled
Ġmas tered
Ġpan era
Ġpot atoes
Ġpot ential
oop ers
Ġshin ning
Ġscream ed
Ġdisc ount
cri be
cri pt
Ġnick y
Ġmention ing
Ġthrow down
Ġbac teria
Ġfre ck
Ġcap s
Ġcap tain
Ġdoc ument
Ġ13 2
Ġspell ed
Ġmod em
Ġroad s
Ġtravel ing
Ġteach ers
iv al
Ġpat rick
Ġjam s
Ġjam ba
Ġchrist ine
Ġchrist ina
Ġtan ning
Ġahhhh hhh
Ġport able
Ġport land
Ġfol k
Ġden mark
Ġyo ga
Ġreco very
Ġsum thin
Ġ40 4
Ġswe ats
Ġinterview s
Ġdesign ed
Ġdesign ers
Ġentire ly
Ġreturn s
Ġrandom s
Ġhom ies
Ġanim ation
Ġawe ful
Ġvi ral
Ġexpl os
Ġexpl ode
Ġspam ming
Ġfeed ing
Ġdirect ory
ja va
Ġfresh man
ature ly
Ġele v
Ġele ment
Ġsol ution
Ġval ue
Ġpleas ant
Ġpleas eee
sm ile
sup r
sup er
Ġly rics
umbl ing
umbl es
Ġlead er
Ġlead ership
Ġconst ruction
Ġconvers ations
Ġswee theart
Ġcolor ful
Ġver onica
Ġneck lace
Ġbase ment
Ġlim ited
Ġland line
Ġleno vo
Ġint entionally
Ġevent ful
Ġstor ms
Ġvan essa
Ġbrand on
eeeeeeee ee
Ġstrong er
Ġconsider ed
Ġneighb our
Ġneighb ours
Ġahaha ha
Ġwood y
Ġmist akes
Ġhay es
Ġhost ed
Ġbal d
Ġbal ance
Ġbal cony
Ġyess s
Ġyess ssss
Ġroo ftop
Ġrich mond
Ġmajor ly
Ġbright er
Ġsched uled
Ġhugh es
3333 3
Ġenter ing
Ġiron y
Ġiron ing
Ġign oring
Ġhm ph
Ġhall mark
Ġbun nies
Ġbill ion
Ġcud dling
Ġlak er
Ġ:- /
je an
sl ist
Ġhat ers
Ġfield s
Ġcree k
Ġcree ped
Ġform at
Ġheaven ly
Ġstate ment
Ġtrad ing
Ġspeed ing
yyyyyyyy yyyyyyyy
Ġgener ally
Ġtechn ical
good night
Ġir re
Ġir ish
Ġaha h
Ġmatt ress
Ġbat hing
Ġgas p
Ġvict or
Ġcontin ues
Ġbabys itter
uuuu u
cu it
Ġut i
Ġut ah
Ġnet ball
Ġmal ays
Ġmig r
Ġbon us
Ġbon jour
Ġber lin
Ġpress ure
Ġrese arching
Ġscen es
Ġpret ending
Ġcrack ing
Ġaddic tive
kkkk kkkk
Ġcamp us
Ġdistra ctions
Ġscratch y
bu ild
pol i
wr iter
wor th
word safter
Ġsus pect
Ġder by
Ġreach ed
Ġsoci ology
Ġgold en
Ġspread ing
Ġtons ils
Ġprice less
Ġdrum mer
Ġcraving s
Ġsweat shirt
Ġinspir ing
Ġinspir ational
cent er
ho ly
Ġmer ch
Ġmer lin
Ġmat rix
Ġbrown ie
Ġpj s
Ġfur ious
Ġfur ther
Ġgoooo od
Ġdom ain
Ġdom inos
Ġcir cle
Ġcab in
Ġlif ting
Ġarch ie
Ġarch uleta
Ġalas ka
Ġdeb ate
Ġblank et
Ġblank ets
Ġswitch ed
Ġidiot at
Ġmush y
Ġrestaur ants
Ġpati ent
Ġdevelop ers
Ġdevelop ment
may be
Ġsour ce
Ġment al
tis ing
Ġgir ly
Ġcoo ol
ett es
Ġequ als
Ġequ ipment
Ġros es
Ġros ie
Ġfru its
Ġvol ume
Ġspo iled
Ġcock tail
Ġphys ics
Ġphys ically
Ġtemp ting
Ġadmit ting
Ġappear ance
Ġclear ly
Ġpaul o
Ġentertain ment
Ġinvol ves
Ġcustom ers
200 9
fing ers
po or
po ints
Ġest ate
Ġtac os
Ġnat alie
Ġss d
Ġmir ror
Ġmir anda
Ġpush ed
Ġgeek y
Ġcast le
Ġloo ong
Ġloo ool
Ġopp os
Ġfore cast
Ġforum s
Ġrout ine
Ġlog ies
Ġstalk er
Ġstalk ers
Ġarg ument
Ġtele com
Ġadop t
Ġadop ted
Ġpartic ip
Ġbroad way
Ġrelative ly
Ġsteph en
Ġcorre ction
Ġmotor cycle
dam n
tra in
watch ing
Ġwand ering
Ġdest roy
Ġyell ed
Ġham ilton
Ġell e
Ġell en
Ġram en
Ġlov ato
Ġheal ing
Ġsteal th
Ġplant ed
Ġplug ging
Ġvin tage
Ġvanc ity
Ġprem i
Ġprem aturely
Ġcris ps
Ġbelong s
Ġsubscri ption
bud url
des ign
enz o
Ġilove y
Ġilove you
Ġhul k
tit ude
Ġbrows ing
Ġfool ish
Ġdre ary
Ġcrow ds
Ġcub a
Ġwhis perer
Ġsoph ie
Ġlogic al
Ġblond e
Ġscot tish
hey hey
Ġbush es
Ġcraz iness
Ġcomplain ing
Ġaudition s
Ġrelation ships
(((( ((((
Ġportug uese
Ġmushroom s
cat book
mag ic
sun day
Ġicon s
Ġnas al
Ġnas car
Ġnig gas
Ġaid en
Ġaid an
Ġmol ar
Ġbry an
Ġpony tail
oura ge
Ġobs essed
Ġolive s
Ġja va
Ġjew el
Ġwithdra wl
Ġdogg ie
Ġath ens
Ġfrick en
Ġfrick in
Ġtem perature
Ġafr ica
Ġafr ican
Ġground ed
iped ia
Ġawesom eness
Ġapplic ations
Ġcraig slist
Ġsniff le
Ġeduc ation
Ġpublish ed
Ġregis ter
Ġdistur b
Ġbasket ball
Ġannounce ment
aud io
somet imes
Ġwre ck
Ġwrest ler
Ġmut ual
orr idge
Ġdos ent
Ġcig ar
Ġlor raine
Ġinj ured
Ġjell y
Ġawa iting
Ġfunction ing
Ġlemon ade
Ġquin to
Ġgrabb ing
Ġgrabb ed
Ġindust ry
Ġindust rial
Ġinvit ation
Ġrefresh ed
Ġcirc us
Ġcirc umstances
Ġautomatic ally
chinese learn
tri p
uar ysunday
Ġtig er
Ġnh l
Ġwu v
Ġmater ial
Ġhind i
Ġpwn s
Ġpuff s
Ġpedic ure
Ġfid dler
Ġdunk in
Ġciv ic
Ġciti zens
Ġlooo ong
Ġyog urt
Ġox ford
Ġopt im
Ġinvest ment
Ġemm a
Ġeag les
Ġwhe at
Ġrez nor
Ġreject ed
Ġrang ers
Ġshr imp
Ġkr ist
Ġkit ties
Ġkore an
Ġsty lish
Ġark ham
Ġknack ered
beat witty
Ġbron chitis
Ġpros per
health y
laugh s
Ġzach ary
Ġvegg ie
Ġmetall ica
Ġregre tting
Ġcontro ls
Ġpoli tics
Ġbene fit
Ġpractic ally
Ġdatab ase
Ġformul a
sanct uarysunday
Ġelectric ity
Ġreinst all
bbl twt
dire ct
hun ter
sor ry
song s
Ġtub es
Ġtty l
Ġnause ous
Ġnint endo
Ġmill er
Ġthous ands
Ġhord e
Ġpand ora
Ġfal se
Ġfas cin
Ġfang irl
Ġfuzz ball
Ġgain ing
Ġdess ert
Ġdud es
Ġdup er
Ġhairst yle
Ġhawa ii
Ġinno cent
Ġbean ie
Ġbecom es
Ġreee ally
Ġshat ner
Ġfro zen
Ġmorris ons
Ġalter native
Ġamong st
Ġvine gar
Ġexh ibition
Ġleop ard
Ġguin ea
Ġ(**** )
Ġenc ourage
Ġoverwhe l
Ġbru ised
Ġbrook lyn
udg ens
Ġswamp ed
Ġappro aching
Ġappli ed
Ġdisconne cted
Ġagen cies
Ġcrim inal
Ġhairdress er
Ġembar r
Ġrepub lic
Ġstrang er
Ġconfirm ation
Ġinspe ction
Ġassist ant
Ġsimps ons
Ġimpro ve
prod uctive
Ġridiculous ly
Ġhayfe ver
Ġsusp ended
Ġtatto os
Ġpsych ology
Ġkardash ian
gared packet
hopp usday
Ġtup ac
Ġire land
Ġicar ly
imaver a
Ġaven ue
incl uding
Ġwick ed
Ġhous es
Ġbip olar
Ġbree zy
Ġbicy cle
Ġgad get
Ġdrows y
Ġinform ation
Ġwhaaa at
Ġshamp oo
Ġkaw awa
Ġkav ya
Ġhelm et
Ġamster dam
Ġnightmar es
Ġsleee p
Ġspagh etti
Ġmohaw k
Ġunem ploy
Ġorient ation
Ġsacr amento
Ġprocr ast
Ġsadden ed
Ġsungl asses
Ġmayhe m
Ġpeps i
Ġquizz es
Ġscif i
Ġpregn ant
Ġapprent ice
Ġhurric ane
Ġbirming ham
Ġwarrant y
Ġmargar itas
Ġstrugg ling
Ġcontrib ute
Ġpoliti cians
wordsafter sex
beatwitty party
! *
! .....
! ~~
# @
% $
% .
% ),
& &
' ?
) ?
* '
* ...
, ..
/ ****
0 2
2 10
2 000
3 2
3 4
3 00
4 1
4 9
4 00
5 1
5 4
5 8
7 2
7 5
8 2
8 6
8 7
9 00
: '
: -
; ;
< /
? ,
? ...
@ #
^ ^
_ .
` (
` ..
` ?!
a is
a ire
a ired
a ves
a usted
a els
a uce
b d
b g
b i
b os
b is
b il
b ff
b ake
b ys
b ub
b ble
b ooo
b bit
b ugs
b ones
b ics
b oop
b ikes
b lock
b bles
b eth
b etter
b aker
c b
c g
c m
c q
c x
c ck
c ch
c ant
c il
c atch
c od
c ase
c ass
c ree
c ac
c ance
c les
c ongr
c ines
c tiv
c ising
c illa
c alled
c law
d f
d z
d in
d ed
d as
d ro
d ess
d ig
d uck
d ace
d em
d get
d ated
d io
d vd
d igg
d ancing
e q
e on
e er
e ly
e ur
e ff
e ww
e my
e ction
e ons
f h
f is
f am
f ur
f ie
f il
f act
f resh
f ically
f iles
f oster
g f
g p
g q
g al
g um
g ard
g ies
g ans
g ance
g url
g ated
g by
g ary
g ence
g ory
g mail
g led
g ury
g igg
g ularly
h es
h um
h ough
h ost
h og
h att
h ics
h oria
i y
i ar
i in
i tive
i ou
i om
i as
i ight
i qu
i ies
i ors
i als
i ya
j d
j m
j n
j x
j in
j ay
j un
j az
j aw
j pg
j yb
k b
k g
k im
k art
k at
k ir
k ate
k ong
k ah
k itty
k itchen
k imb
l on
l os
l at
l ay
l oo
l ad
l ter
l am
l ab
l ak
l ub
l ia
l az
l unch
l ots
l eno
l vet
m d
m i
m v
m os
m ad
m ir
m ea
m um
m atch
m oney
m ama
m ills
m ont
m aking
m illion
m aker
m odel
m acher
n b
n j
n m
n q
n u
n w
n ant
n ish
n na
n ge
n ick
n ip
n ne
n ity
n oth
n ash
n ds
n ik
n orm
n ana
n asty
n kp
n osis
o q
o v
o ct
o tion
o hh
o fo
o ze
p i
p z
p on
p os
p at
p ay
p ur
p ink
p ri
p ong
p ers
p hh
p ain
p age
p ages
p any
p ops
p opped
p anda
q e
q h
q v
q y
q ht
r h
r ou
r re
r om
r ome
r ine
r ang
r ass
r ens
r ank
r ash
r ated
r ents
r pr
r pm
r ina
r idge
r fc
r ument
s x
s er
s oo
s et
s ur
s ig
s ame
s qu
s ug
s ci
s cc
s ley
s ized
s vd
s ending
s vs
s ru
s ounds
t b
t l
t im
t al
t an
t ot
t ly
t am
t est
t oy
t ear
t urn
t able
t les
t ches
t ears
t cot
u q
u y
u er
u ed
u ke
u hh
u ge
u io
u ary
u ya
v w
v ar
v im
v on
v ant
v ish
v ard
v ol
v ah
v ail
v ian
v ana
v ves
v ender
w f
w k
w m
w ent
w re
w ks
w ie
w ook
w est
w ol
w ag
w ash
w ock
w eal
w ik
w eeps
w ered
w ij
x p
x z
x ter
x cited
y g
y v
y os
y an
y et
y ard
y aa
y up
y pe
y les
z s
z t
z le
z one
z ac
z em
Ġ ]
Ġ }
Ġ xt
Ġ !!!!!!!!
Ġ eeeee
Ġ eeeeeee
Ġ !!!!!!!!!
en n
en os
en ha
en ade
en ey
en gers
en cer
Ġxx xxx
ent h
ent on
Ġt f
Ġt k
Ġt t
Ġt in
Ġt ay
Ġt as
Ġt ir
Ġt ant
Ġt iss
Ġt ess
Ġt ul
Ġt ies
Ġt ang
Ġt ys
Ġt to
Ġt ah
Ġt ale
Ġt uc
Ġt ina
Ġt tf
Ġt iv
Ġt uh
Ġt roll
Ġt una
Ġt shirt
Ġt nx
Ġt shirts
ar b
ar in
ar ing
ar is
ar ant
ar ie
ar ia
Ġi b
Ġi k
Ġi q
Ġi ight
Ġi am
Ġi ra
Ġi pt
Ġi get
Ġi gl
Ġi hate
Ġi wonder
Ġn os
Ġn un
Ġn ab
Ġn ain
Ġn ag
Ġn anna
Ġn ute
Ġn ich
Ġn arn
Ġn ike
Ġn ancy
Ġn ano
Ġn iam
Ġn iley
im o
im ed
im ul
im ited
end ar
end on
end ys
end rix
art ed
art ers
art ney
art icle
tart ing
entiment al
Ġa j
Ġa ve
Ġa er
Ġa ga
Ġa ol
Ġa pr
Ġa ots
Ġa aaaaaaaa
Ġa aaaaa
Ġa ero
Ġa chy
Ġa ston
Ġa uction
Ġa xe
Ġa argh
ve land
ve lled
Ġs b
Ġs es
Ġs ri
Ġs ard
Ġs ak
Ġs ia
Ġs ans
Ġs ank
Ġs ats
Ġs ash
Ġs bs
Ġs ons
Ġs ike
Ġs ana
Ġs ars
Ġs uss
Ġs gt
Ġs ides
Ġs ista
Ġs aints
in z
in ated
in ary
in fect
in ternet
Ġne d
Ġne tt
Ġne ice
Ġne kk
Ġne mo
Ġne eed
Ġw d
Ġw s
Ġw im
Ġw ut
Ġw an
Ġw es
Ġw ot
Ġw id
Ġw ld
Ġw ro
Ġw ong
Ġw ard
Ġw oss
Ġw we
Ġw akes
Ġw aaa
Ġw anda
Ġw aaaaa
Ġw bu
Ġw ango
Ġw ierd
Ġw aaah
Ġw endys
Ġm b
Ġm os
Ġm ga
Ġm it
Ġm ck
Ġm un
Ġm ack
Ġm and
Ġm oth
Ġm ash
Ġm ik
Ġm ills
Ġm wa
Ġm ered
Ġm una
Ġm tn
Ġm hm
Ġm ander
Ġm wah
Ġm ickey
Ġth i
Ġth m
Ġth ot
Ġth ir
Ġth ud
Ġth ts
Ġth irst
Ġth igh
Ġth ier
Ġth ng
Ġth ames
Ġth nx
Ġth nks
Ġth reat
Ġth reee
Ġh in
Ġh et
Ġh atch
Ġh ers
Ġh ick
Ġh oooo
Ġh ip
Ġh og
Ġh ater
Ġh ats
Ġh dd
Ġh te
Ġh eee
Ġh eeeee
Ġh iring
Ġh udgens
Ġh endrix
ut ted
ut iful
ut ley
ti r
ti er
ti le
ti ous
ti ans
ti fy
al u
al al
al ing
al er
al ll
al one
al og
al ign
al icious
Ġb d
Ġb h
Ġb ou
Ġb ld
Ġb ould
Ġb ish
Ġb atch
Ġb ol
Ġb aa
Ġb row
Ġb ind
Ġb ose
Ġb ach
Ġb ia
Ġb age
Ġb az
Ġb if
Ġb ail
Ġb ale
Ġb ball
Ġb ots
Ġb aaaaaaaa
Ġb itten
Ġb sc
Ġb ien
Ġb ooooo
Ġb sg
Ġb atty
Ġb usting
Ġb coz
Ġp b
Ġp om
Ġp us
Ġp ra
Ġp eel
Ġp ard
Ġp oll
Ġp ist
Ġp itt
Ġp ag
Ġp ms
Ġp ens
Ġp ats
Ġp ale
Ġp eak
Ġp uk
Ġp ester
Ġp itty
Ġp ffffffff
Ġp orridge
tive s
on ight
on to
ing itis
Ġto k
Ġto re
Ġto ll
Ġto ro
Ġto mor
Ġto rr
Ġto ward
Ġto aster
Ġto ured
Ġto moz
Ġto otha
Ġf ll
Ġf ic
Ġf ir
Ġf ack
Ġf and
Ġf aa
Ġf ion
Ġf url
Ġf att
Ġf ier
Ġf its
Ġf fa
Ġf ears
Ġf kn
Ġf ucc
er ie
er ved
er ina
er va
er ica
er min
er uns
or ning
or ary
or gan
Ġg b
Ġg q
Ġg in
Ġg ur
Ġg own
Ġg ap
Ġg url
Ġg ord
Ġg ina
Ġg oooooooo
Ġg fs
Ġg ender
Ġg pu
Ġg aah
Ġg omez
Ġd b
Ġd w
Ġd or
Ġd ow
Ġd ot
Ġd as
Ġd ant
Ġd aa
Ġd ind
Ġd ion
Ġd ull
Ġd ash
Ġd uu
Ġd ale
Ġd uc
Ġd any
Ġd ots
Ġd ucks
Ġd uk
Ġd ips
Ġd oooooo
Ġd sl
Ġd ito
Ġd ns
Ġd aaay
Ġd arts
Ġd ota
ou red
Ġc p
Ġc es
Ġc ld
Ġc one
Ġc um
Ġc na
Ġc ys
Ġc age
Ġc ens
Ġc aut
Ġc ents
Ġc ert
Ġc nn
Ġc ope
Ġc oooooooo
Ġc ider
Ġc ze
Ġc isco
Ġl c
Ġl f
Ġl g
Ġl k
Ġl l
Ġl s
Ġl v
Ġl os
Ġl an
Ġl ee
Ġl us
Ġl ice
Ġl ool
Ġl ite
Ġl ind
Ġl ous
Ġl itt
Ġl ure
Ġl ance
Ġl ime
Ġl ng
Ġl ames
Ġl uff
Ġl ara
Ġl oooooo
Ġl una
Ġl urve
Ġl umber
.. ****
os o
os en
os ure
os its
os ition
at on
at ers
at me
at ley
at omy
at lan
an z
an ti
an as
an th
an ny
an ime
an berry
an uts
an xi
an atomy
Ġy i
Ġy on
Ġy day
Ġy est
Ġy ol
Ġy aa
Ġy ach
Ġy ip
Ġy uck
Ġy arn
Ġy uu
Ġy ipp
Ġy uk
Ġy ooooooo
Ġy aaaaaay
re m
re z
re ver
re dd
re asing
re bel
re cord
re uters
Ġo as
Ġo tt
Ġo ooo
Ġo oooooooo
Ġo oc
Ġo vi
Ġo yster
Ġo atme
ay or
ga ble
ga sp
ll e
ll ly
it n
it in
it os
it ating
it ters
it als
it ments
it zer
it agg
om it
om ile
om ore
Ġnega tivity
es es
es ful
ed i
ed dar
oo ps
Ġan o
Ġan nn
Ġan ita
Ġan aly
Ġha un
Ġha ci
Ġha mp
Ġha bbo
Ġha iku
ow een
ot ts
ot he
Ġyou s
Ġyou uu
Ġyou uuuu
is a
is is
is ha
is ting
is per
Ġit t
Ġit agg
Ġmy s
Ġmy y
Ġmy ka
as d
as her
as co
as ites
as web
as cript
Ġand d
Ġand dd
Ġin n
Ġin o
Ġin er
Ġin ten
Ġin hal
Ġin flu
Ġin habit
us se
et ers
et own
et he
et ooth
ly nn
Ġon ions
Ġon wards
Ġon tar
Ġon td
Ġon eself
Ġis t
Ġis is
Ġis ab
Ġis aa
Ġbe a
Ġbe f
Ġbe j
Ġbe ck
Ġbe ha
Ġbe ware
Ġbe gins
Ġu i
Ġu u
Ġu pp
Ġu ff
Ġu uu
Ġu ggg
Ġu lan
Ġfor d
Ġfor th
Ġfor real
Ġfor sure
Ġof icially
ad ee
ad am
ad ays
ad illa
ad ryl
Ġe z
Ġe hh
Ġe col
Ġe bt
ck p
ch o
ch at
ch it
ch ap
ch uck
ch amp
ch elle
ch arge
!! ...
Ġj t
Ġj or
Ġj ee
Ġj ur
Ġj eep
Ġj od
Ġj ip
Ġj up
Ġj em
Ġj az
Ġj el
Ġj uz
Ġj bs
Ġj ets
Ġj ared
Ġj av
Ġj ai
Ġj jj
Ġj ager
Ġj alan
Ġj eremy
Ġj edi
le tic
... *
... :
Ġwh ar
Ġwh er
Ġwh os
Ġwh ee
Ġwh ack
Ġwh ate
Ġwh il
Ġwh ine
Ġwh ip
Ġwh oot
Ġwh aat
Ġwh ales
Ġwh istle
Ġre e
Ġre v
Ġre x
Ġre ts
Ġre ds
Ġre fl
Ġre act
Ġre hab
Ġre boot
Ġre char
Ġme in
Ġme at
Ġme ow
Ġme me
Ġme ester
Ġme asure
Ġme agan
id al
id ance
Ġso x
Ġso ck
Ġso ap
Ġso aps
Ġso aked
Ġso das
ke es
ke lly
ic ing
ic er
ic it
ic ity
ic ating
ic ides
Ġgo v
Ġgo al
Ġgo vt
Ġr s
Ġr t
Ġr end
Ġr ut
Ġr ust
Ġr ol
Ġr oy
Ġr ag
Ġr he
Ġr az
Ġr ss
Ġr ash
Ġr ated
Ġr ating
Ġr ange
Ġr app
Ġr ott
Ġr ails
Ġr ays
Ġr sm
Ġr owing
Ġr ushing
Ġr ode
Ġr iley
Ġr rod
Ġr asp
Ġr eruns
ver ing
ver bs
ust ers
Ġlo ic
Ġlo tion
Ġlo ft
Ġlo pe
Ġlo lll
Ġlo bby
ight on
ter a
ter m
ter n
ter y
ter ms
ter bury
am ing
am ed
am as
am less
am azing
Ġsh h
Ġsh o
Ġsh y
Ġsh or
Ġsh ay
Ġsh ld
Ġsh oooo
Ġsh own
Ġsh ure
Ġsh ore
Ġsh if
Ġsh ark
Ġsh atter
Ġsh oud
Ġsh ucks
Ġsh ield
Ġsh ipping
Ġsh ades
Ġsh aked
Ġsh ifts
Ġsh redd
un o
un til
un te
Ġk b
Ġk in
Ġk es
Ġk ee
Ġk am
Ġk ry
Ġk ra
Ġk od
Ġk ans
Ġk irst
Ġk az
Ġk ah
Ġk ath
Ġk ash
Ġk bs
Ġk ings
Ġk oh
Ġk esh
Ġk reme
Ġk etch
Ġk dg
Ġk atherine
Ġhe ir
Ġhe ff
Ġhe ap
Ġhe ather
Ġhe ath
Ġhe yyyy
Ġhe ls
Ġhe idi
Ġwe igh
Ġwe alth
Ġwe gm
Ġwe eding
ood y
ood ness
Ġli ll
Ġli am
Ġli ber
Ġli zz
Ġli bby
Ġst ash
Ġst ead
Ġst ations
Ġst ings
Ġst amp
Ġst oned
Ġst inging
Ġst acey
Ġst opping
Ġst adium
Ġst anky
Ġst imul
Ġdo e
Ġdo cks
Ġdo zen
Ġnot t
Ġnot orious
Ġat om
Ġwor m
Ġwor n
Ġwor cester
Ġwas her
Ġwas ss
Ġfr os
Ġfr an
Ġfr own
Ġfr act
Ġfr enz
Ġfr agr
Ġfr inge
Ġcan na
Ġcan dace
Ġcan terbury
op c
op es
op us
op le
op ened
Ġget tt
Ġget cha
ur ge
ur red
ur ger
ir o
ir an
ir ting
ir its
ir vana
Ġar c
Ġar d
Ġar re
Ġar un
Ġar ab
Ġar rr
Ġar bit
Ġar nold
Ġup town
Ġgood ies
Ġgood byes
Ġout ing
Ġout let
Ġout fits
Ġout dated
Ġall ian
Ġall ey
Ġall ison
Ġall eg
Ġall llllllll
ce es
ce let
Ġch k
Ġch u
Ġch ing
Ġch ow
Ġch ad
Ġch am
Ġch and
Ġch ol
Ġch lo
Ġch ats
Ġch ica
Ġch ester
Ġch opped
Ġch av
Ġch ino
Ġch arts
Ġch eeks
Ġch omp
Ġch unky
Ġch eddar
tt r
Ġwork k
Ġnow adays
ack er
ack et
Ġsu k
Ġsu l
Ġsu ite
Ġsu ites
Ġtw id
Ġtw enty
Ġtw ikini
Ġno d
Ġno e
Ġno ice
Ġno la
Ġno ises
Ġno kia
ha ir
ha il
ha wn
ha aaaa
ha aaa
th y
th ree
th ouse
th ese
Ġlove y
Ġlove eeee
Ġlove lies
ant z
ant om
ant ed
Ġlike wise
Ġmor t
Ġmor ing
Ġmor gen
Ġgot o
Ġal r
Ġal t
Ġal ike
Ġ- --
Ġ- ----
ast on
Ġthan xx
Ġ_ __
Ġ_ ________
Ġdon ate
Ġdon ation
Ġdon ny
ea a
ea h
ea gle
ea gue
Ġtoo ls
ate ur
ate gic
Ġam a
Ġam e
Ġam i
Ġam ar
Ġam ors
Ġam mo
Ġam used
Ġam anda
Ġam ateur
ink i
ro ad
ro ke
ro ys
ro bl
ro cks
ro bert
Ġma ps
Ġma aaa
Ġtoday y
ie fs
Ġkn w
Ġkn it
Ġkn ife
Ġkn otts
il ig
il ating
il ove
Ġtim eee
Ġaw wh
Ġaw are
iss ey
st a
st m
st s
st y
st le
st own
st ore
st opp
st ock
st aying
st yle
st ru
st aff
st een
ra g
ra z
ra ch
ra vel
ra ises
Ġsee k
Ġim s
Ġim iss
Ġim ple
Ġim pr
Ġim ages
Ġim prom
ri a
ri p
ri ate
ri ved
ri ana
ri ties
ri gu
ri osis
Ġab er
Ġab by
Ġab uzz
Ġab bre
Ġab iding
Ġab ility
Ġab road
**** -
se l
se at
se ll
Ġwhat t
Ġwhat so
Ġas p
Ġas us
Ġas ks
Ġas ide
Ġas hing
Ġas sh
Ġas ham
Ġas ians
Ġas soci
Ġas wel
ess ss
com pany
ook ed
ook ie
Ġback k
Ġback s
Ġback round
Ġback order
Ġback yard
Ġknow www
Ġmiss us
ong o
Ġde ed
Ġde ff
Ġde fe
Ġde od
Ġde bit
Ġde xter
and ed
and ra
Ġpl a
Ġpl ot
Ġpl ce
Ġpl ates
Ġpl eee
Ġpl ague
um ed
um ph
um ents
um dog
um bus
Ġv p
Ġv ic
Ġv ast
Ġv og
Ġv arn
Ġv ars
Ġv ouch
Ġv iet
Ġv ending
Ġv cr
Ġv iny
Ġv fc
Ġv ado
Ġv log
Ġv ampire
Ġv center
our ce
our se
our cing
ff ield
Ġthere fore
Ġwill y
na p
na ppy
Ġfin na
Ġfin est
ct on
ct ose
Ġnew ly
Ġnew ish
Ġnew sp
Ġnew ark
Ġnew bie
oun ting
Ġoff end
Ġoff ense
Ġoff ices
Ġoff icer
ard i
Ġhad nt
est r
est ra
est roy
Ġany th
Ġany how
Ġany thin
Ġex port
ab oo
ab urger
hh ig
.... !
ol a
ol o
ol is
ol as
ol iver
ice an
ice mail
ig e
ig y
ig ne
ig ner
ig rade
Ġhome b
Ġhome made
Ġnight ly
Ġnight tt
Ġnight life
ge ar
ge le
ge ist
Ġcom b
Ġcom fort
Ġsl o
Ġsl im
Ġsl ot
Ġsl ide
Ġsl ater
Ġsl ush
Ġsl ides
Ġsl ices
Ġsl eeeeeee
Ġsl iver
Ġsl eeeeep
Ġsl aves
Ġsl umdog
aa o
Ġthey ve
Ġgre ml
Ġgre tel
Ġsti r
Ġsti les
Ġsp a
Ġsp f
Ġsp ar
Ġsp ay
Ġsp ed
Ġsp ur
Ġsp ra
Ġsp ice
Ġsp ite
Ġsp ree
Ġsp ank
Ġsp ork
Ġsp ike
Ġsp ots
Ġsp iel
Ġsp rain
Ġsp iders
Ġsp iced
Ġsp illing
Ġsp encer
Ġsp irits
ul z
ul ties
Ġmo g
Ġmo j
Ġmo ck
Ġmo ist
Ġmo ore
Ġmo pping
Ġmo cha
Ġmo jo
ite ment
?? )
?? ,
?? ???
?? !!?
ame i
ak in
ak as
row ave
Ġtwit ta
Ġtwit ties
!!! )
Ġfun k
Ġfun nn
ine m
Ġbl ok
Ġbl air
Ġbl unt
Ġbl erg
Ġbl ades
Ġbl ender
Ġwell ington
Ġwhen s
Ġoh my
Ġle y
Ġle ms
Ġle xi
Ġle xing
Ġle ighton
Ġun ite
Ġun int
Ġun ity
Ġun ix
Ġun load
Ġun fort
Ġun real
Ġun like
Ġun ni
Ġun kn
Ġun belie
Ġun cool
Ġun paid
Ġun holy
Ġun healthy
Ġun opened
Ġmom ies
ist ent
ist an
Ġor i
Ġor al
Ġor ac
Ġor ph
Ġor eg
Ġor ders
Ġor eos
Ġgu e
Ġgu ard
Ġgu ap
Ġhas h
Ġtwitter fon
Ġtwitter bugs
Ġ( ?)
Ġse o
Ġse x
Ġse z
Ġse al
Ġse ed
Ġse ven
Ġse iz
Ġse ating
Ġse vent
Ġse min
Ġse ctions
Ġse lves
Ġse perate
Ġse vere
Ġse amless
Ġcl one
Ġcl og
Ġcl ancy
qu is
qu est
qu ered
qu iao
Ġgreat ly
Ġgreat ness
tw o
tw as
tw pp
Ġsor ts
Ġsor cha
ost s
Ġshe ll
Ġshe zz
Ġshe lves
Ġshe ffield
Ġton igh
ire s
Ġsa o
Ġco x
Ġco ated
Ġco ord
Ġco aches
Ġwa x
Ġwa z
Ġwa com
Ġwa ved
Ġwa ffles
Ġwa vves
mm ot
Ġcon v
Ġcon cept
Ġcon venient
Ġcon quered
Ġph ar
Ġph ob
Ġph antom
Ġlook out
ous ly
ous tic
Ġsad der
Ġsad do
Ġbad dd
Ġby eeeee
Ġte qu
Ġte he
Ġte asing
Ġyea a
Ġyea ah
Ġyea aaah
Ġsay now
res hing
pl us
pl ain
pl ane
Ġen ought
Ġen erg
Ġen core
Ġen emy
Ġbet ting
Ġsun be
Ġsun screen
Ġwhy s
ap h
ap art
ap at
ap se
ap est
ap ho
ap hone
ap ova
ap olis
Ġyes h
Ġyes y
Ġwait ress
Ġ3 3
Ġ3 4
Ġ3 8
Ġ3 30
Ġ3 000
Ġ3 65
Ġ4 09
Ġman g
Ġman ia
Ġman hatt
be en
be ar
be ck
be ars
be lly
be ij
Ġover load
Ġover due
Ġshow ers
od ge
od icean
Ġpe g
Ġpe l
Ġpe ppers
Ġpe anuts
Ġbr um
Ġbr oth
Ġbr idge
Ġbr ushing
Ġbr ief
Ġbr acket
pic ious
pic ture
ile aks
Ġshould ve
Ġmon k
Ġmon te
Ġmon cton
Ġway yy
Ġway ne
Ġtry ed
Ġgr oo
Ġgr id
Ġgr ans
Ġgr ouch
alk y
Ġjo an
Ġjo kes
Ġok c
Ġ: '
Ġ: @
Ġ: **
Ġ: ::
ang s
Ġafter all
Ġqu id
Ġqu ery
Ġqu ilt
ud der
ud ia
ud ged
Ġro han
Ġhead line
Ġhead lin
ass s
ass y
ass edly
Ġdown s
Ġdown ed
ts ville
ys hop
ys sey
Ġsch ol
Ġsch uh
Ġsch oool
ber ger
Ġsc i
Ġsc re
Ġsc ra
Ġsc um
Ġsc ion
Ġsc ents
Ġsc ones
Ġsc ores
Ġsc rap
ip op
Ġcome back
Ġcar o
Ġcar p
Ġcar ing
Ġcar ne
Ġcar la
Ġcar bs
Ġcar ls
Ġcar son
Ġcar bon
Ġche at
Ġsw eep
Ġsw itzer
ag ra
ag na
Ġtr end
Ġtr ough
Ġtr unk
Ġtr ump
Ġtr oopers
Ġfe b
Ġfe y
Ġfe ast
Ġfe line
Ġfe min
Ġx bl
Ġx mas
Ġpre c
Ġpre jud
Ġpre prom
Ġpre cious
ub a
ub untu
ub arb
Ġschool ers
Ġpr oo
Ġpr ime
Ġpr ices
Ġpr iced
Ġdays sss
Ġad a
Ġad t
Ġad em
Ġad just
Ġad min
Ġad ium
Ġad riana
Ġdr u
Ġdr at
Ġdr ill
Ġdr ops
Ġfl op
Ġfl ame
Ġfl ap
Ġfl ag
Ġfl ags
Ġfl ippin
he at
he ard
ma x
ma z
ma gazine
Ġsoon ish
Ġrain in
Ġrain bow
Ġrain forest
Ġmak er
Ġsuck er
Ġtweet en
Ġtweet in
to a
to e
Ġac ed
Ġac tiv
Ġac tions
Ġac oustic
iz er
iz ation
iz abeth
Ġbest friend
my w
my self
my pict
Ġ` `
Ġ` ****
Ġgirl ies
og y
Ġmad ly
Ġmad ison
Ġmad dies
Ġpo v
Ġpo et
Ġpo ly
Ġpo ke
Ġpo ia
Ġpo ison
Ġpo ked
Ġpo ker
Ġpo ppin
Ġla x
Ġla ws
Ġla zing
Ġla cro
Ġla fay
Ġla vender
Ġla ctose
Ġla odicean
ans en
ans on
Ġear ned
Ġear bud
up date
Ġapp ly
Ġapp la
Ġapp eal
Ġapp ears
Ġapp lying
Ġapp rop
Ġapp eti
Ġhur tin
Ġhur dle
Ġhur rah
Ġgl oss
Ġgl ory
Ġgl itch
Ġgl owing
ci ano
Ġur s
Ġur ls
ort ed
Ġwr ang
Ġcool io
Ġ@ -)
ne ys
ne ws
Ġhi hi
Ġhi atus
ny t
Ġsick y
Ġsick er
ac les
ac ular
ac tions
em ily
em ote
em ark
Ġ? .
Ġwhere ver
Ġstar ring
Ġ< -
Ġfriends hip
lo ves
Ġour selves
Ġfind s
pt u
pt on
pt ons
Ġom e
Ġom w
Ġom lette
Ġlot r
Ġlot t
rr ry
Ġ! ?
lp hia
eeee et
pe y
pe anut
pe ctive
pe ople
Ġmin ut
Ġmin is
Ġmin ne
Ġmin nea
Ġdi al
Ġdi as
Ġdi ab
Ġdi ag
Ġdi ary
Ġdi ane
Ġdi ppin
wh in
wh ats
wh isper
ph p
ph ere
ph il
Ġold est
Ġold ies
Ġread s
ich i
Ġlea h
Ġlea k
Ġlea fs
Ġinter up
Ġinter face
Ġinter web
Ġever rr
tic o
Ġtri o
Ġtri ple
Ġtri pped
Ġtri cked
Ġtri pping
Ġtri via
Ġtri umph
Ġid ent
Ġid eal
Ġbit es
Ġbit chy
Ġthought ful
Ġhell l
Ġhell oooo
Ġhell otxt
Ġact s
Ġyay yy
Ġtra ged
Ġtra itor
Ġdis k
Ġdis band
Ġdis mal
Ġdis crim
Ġdis pos
Ġdis infect
Ġugh hhhhhhhh
ï¿½ !
Ġag u
Ġhot ter
Ġhot ness
Ġhot dog
Ġbu h
Ġbu is
Ġbu ilt
Ġbu uuut
Ġbu enos
Ġcr s
Ġcr ust
Ġcr um
Ġcr ane
Ġcr utches
dy ed
gg gh
Ġsucks ss
Ġsucks sss
bl ess
bl ame
bl essed
Ġbro k
Ġfam il
Ġready yy
Ġcomp ute
Ġcomp ens
Ġcomp lex
Ġcomp osition
Ġexc ed
Ġexc urs
Ġexc itement
sh m
sh ut
sh it
sh ed
sh ould
sh ine
sh ire
sh ots
sh ield
sh ipping
sh attered
sh opping
Ġpar l
Ġpar ody
Ġpar cs
Ġpar asites
ond s
Ġreal istic
Ġbreak ie
Ġrun ners
ell ing
ath om
Ġwar med
Ġwar ham
Ġkind le
Ġkind erg
haha h
Ġbus iest
Ġamaz ed
Ġ6 7
Ġper ry
Ġper vs
Ġper cent
Ġper mission
Ġkid dies
aaaa at
aaaa an
Ġmar ks
Ġmar ie
Ġmar vel
Ġmar ines
Ġmar shm
Ġrem ber
Ġrem ote
Ġrem ains
Ġrem inis
Ġrem edies
Ġput er
Ġsin s
Ġda ws
Ġend ure
Ġstuff ier
Ġtell y
ens es
Ġser ved
la ine
Ġworld wide
Ġdri ed
Ġdri zz
Ġbirthday y
Ġ; ;
Ġtak ers
Ġboy le
Ġboy stown
Ġbored d
Ġbored ddd
Ġbored dddd
Ġmus so
Ġmus cles
Ġsound ing
Ġsound tr
co e
Ġsit s
Ġ10 3
no on
Ġ7 1
Ġ7 7
Ġhun d
Ġhun k
Ġhun tsville
Ġprob ob
Ġhair s
Ġ= .
Ġbaby girl
sp am
sp ark
sp ray
Ġbel ated
Ġcle veland
Ġmean n
Ġmust er
Ġmust aches
Ġcra bs
ount ain
li est
li ving
Ġcold s
Ġcold er
ps on
Ġfar ro
Ġpoor er
by picture
ord s
Ġgod da
Ġgod father
Ġfree zes
Ġtre ating
Ġtre mend
Ġsk ies
Ġsk ank
Ġsk ipping
Ġsk ipped
Ġsk etch
Ġdin ing
Ġdin er
Ġdin ners
Ġclass ics
Ġclass ical
Ġgame boy
Ġgive away
Ġweather s
Ġboo z
Ġboo ze
Ġboo boo
Ġlunch es
Ġawww h
Ġawww www
de al
de fin
Ġel im
Ġel ite
Ġel bow
Ġel ses
Ġel izabeth
aut o
Ġbook ing
Ġbook mar
Ġbook bag
Ġeverything s
ange l
Ġem ily
Ġem inem
Ġdef end
Ġdef ense
Ġdef rag
Ġplan ter
Ġz u
Ġz um
Ġz une
Ġz oom
Ġz emote
Ġke l
Ġke an
Ġsuper b
Ġsuper star
if er
if ull
if ier
Ġwel ts
Ġwel sh
Ġadd in
Ġadd ict
Ġsing er
Ġsing ers
Ġsing les
Ġwin s
Ġsupp orter
Ġmove ment
Ġdes per
Ġdes igner
Ġinst ru
Ġinst rument
Ġmess ing
Ġplace ments
Ġexam ple
Ġcho c
Ġcho ked
Ġunder wood
Ġsweet s
Ġill ness
Ġhit man
Ġdream in
Ġdream width
Ġdream bears
the arts
??? !!
Ġpers pective
ieve ment
man ia
Ġho bo
Ġho bby
Ġrest ric
Ġclean in
Ġdel ic
Ġdel hi
Ġsn ugg
Ġsn eeze
Ġsur ve
Ġsur real
Ġsur vi
Ġsur gury
Ġgi vin
Ġrep ost
Ġrep ier
Ġokay y
30 6
30 9
me ow
me ir
me gan
me garedpacket
Ġrock star
Ġrec all
Ġrec oup
Ġrec ession
Ġkill en
pr in
pr ot
pr int
pr ism
pr imavera
te c
Ġ9 30
Ġchar m
Ġchar s
Ġchar ley
kk ie
Ġhand les
Ġca using
ew orm
Ġtick led
Ġhor s
Ġhor rors
Ġhor ses
Ġhor rific
Ġcam pa
Ġcam bod
cl ed
cl ad
cl ick
cl oth
vers ity
vers ial
Ġblog gers
Ġwalk in
Ġpa o
Ġpa u
Ġpa ws
Ġconc ur
Ġconc erts
Ġap a
Ġap ar
Ġap athe
eee en
Ġshopp ed
Ġfinal y
hhhh hh
hhhh hhh
app ing
cc a
press ed
Ġwind ing
Ġwind oze
Ġwind shield
Ġspe cially
yyyy yyy
eal ing
gr l
gr and
gr oup
Ġve ts
Ġve lvet
Ġdec or
Ġdec iding
Ġdec reasing
vis iting
Ġmid st
Ġmid way
Ġmid dles
Ġmid terms
Ġcard board
Ġcard iff
Ġown s
Ġown ers
Ġfull est
Ġremember ing
Ġed dy
Ġed ward
Ġed mon
Ġed wards
Ġhal ey
Ġbo ld
Ġbo ise
Ġbo bo
Ġbo ba
Ġbo iled
Ġga hhh
Ġga wd
Ġga uge
Ġcoll ins
Ġcoll eague
Ġchill en
Ġhigh er
Ġhigh school
ever note
Ġheart break
Ġheart bro
Ġstr ud
Ġstr ings
Ġstr ict
Ġstr uct
Ġstr uggle
Ġstr ategic
Ġstr anded
con fer
con cept
con sin
ught ers
Ġfall out
zz ly
zz zz
zz zzz
Ġbum s
Ġpast y
Ġpast or
fri ed
we g
Ġmil it
Ġmil wauk
Ġann ual
Ġblack s
Ġinternet s
less on
Ġent hus
Ġbar on
Ġbar ak
Ġpost al
Ġmac s
Ġmac aron
Ġmac adam
Ġbra ve
Ġbra un
Ġbra gg
Ġbra celet
Ġcou gar
Ġshort y
Ġgrand ad
Ġgrand kids
Ġart h
Ġart s
Ġart icles
Ġice cream
Ġcuz z
Ġdead lines
Ġpass engers
Ġcal cut
Ġcal cul
Ġred bull
Ġdefin ition
Ġbank ing
Ġce iling
Ġce bu
Ġcur ves
Ġres et
Ġer m
Ġer mm
Ġer rr
Ġer nie
Ġes pl
Ġmet re
ale bnation
Ġfavor ites
Ġrelax ed
mo bypicture
Ġdra in
Ġdra ke
Ġdra wn
Ġdra ined
Ġdra gging
Ġclose ly
Ġconf us
Ġconf use
Ġconf usion
Ġconf idence
Ġprom ote
ual s
Ġvis ited
Ġvis its
Ġtext books
Ġfell as
Ġfell ows
Ġter ri
Ġter aby
Ġter ribly
Ġav id
Ġcour thouse
Ġflu ids
uc ing
Ġtop shop
Ġtop gear
Ġfil thy
its ucks
ade lphia
Ġchr onic
67 14
aw esome
eak ing
Ġones ies
Ġeng ines
fr on
fr an
fr om
fr ench
nd i
nd rome
ok a
ok o
ok ing
ok ee
Ġnear est
Ġpub lis
Ġdou g
Ġdou ch
Ġdou che
Ġty ing
Ġreason s
lol ol
Ġwoo f
Ġwoo ow
Ġwoo ps
Ġcat walk
Ġload ers
Ġext rem
Ġlaugh s
Ġnap a
Ġnap s
Ġwater fall
Ġwater front
Ġfast est
Ġfair ness
Ġgra f
Ġgra be
Ġgra cious
Ġju ga
Ġcomm ing
Ġcomm and
Ġcomm ands
Ġcomm itments
Ġcolle ctive
Ġcele bra
Ġsy ndrome
Ġcol a
Ġcol ors
Ġcol bert
Ġcol umbus
Ġcup board
Ġreg ion
Ġreg ions
Ġcont r
Ġwake y
Ġband wag
Ġtom morrow
Ġtom atoes
Ġret ro
Ġret reat
Ġchick s
Ġafterno ons
Ġjealous y
act ually
Ġsent ences
Ġhon ored
Ġdam age
Ġdam nnn
Ġaren a
Ġunfortun atley
Ġreply s
Ġdiffer nt
ping pong
Ġta i
Ġta fe
Ġta ipe
Ġsam ee
Ġsam my
Ġbur y
Ġbur ied
Ġins tit
Ġins anity
Ġste vie
Ġsub mit
Ġsub tle
Ġsub tly
Ġass igne
Ġbud apest
Ġppl s
Ġpap i
Ġpap as
Ġpap ers
ont ane
Ġ11 0
Ġunderstand ing
Ġunderstand able
Ġcourse work
Ġlaptop s
bum ps
gy kd
Ġsim pl
Ġind ie
Ġev ans
Ġweird o
Ġweird est
Ġchat ted
Ġdownload s
66 6
66 9
Ġmed iter
Ġlady bug
astic s
Ġinv iting
Ġinv ites
Ġabs ent
Ġjohn son
Ġjohn athan
Ġpoint y
Ġpoint less
Ġgradu ated
Ġgradu ates
Ġwi v
Ġgard ens
Ġcor ona
Ġcor porate
Ġcor resp
Ġjack s
Ġjack ed
Ġcheese y
Ġcheese cakes
Ġcheese burger
Ġappreci ation
Ġagree ment
Ġmen ingitis
Ġhar i
Ġhar ley
Ġhar old
Ġhar low
Ġhar vard
Ġfreak y
Ġfreak ed
Ġeff y
Ġeff ed
Ġeff orts
Ġref s
Ġref und
Ġref reshing
tr u
uk u
uff y
Ġsal vation
Ġthro bb
Ġdist rac
Ġdist ances
Ġdist ribut
Ġalbum s
just in
Ġtal aga
Ġna e
Ġna i
Ġna o
Ġna ww
Ġna tie
Ġna vy
Ġdun n
osh ed
ump tion
Ġvac a
Ġvac ations
Ġvac cines
Ġproject or
Ġhold in
Ġouch ie
Ġner ve
Ġner dy
Ġner ves
Ġpur rr
Ġfoot y
Ġfoot print
Ġgut en
Ġcy n
Ġcy ber
Ġcos play
Ġlu vin
Ġran ch
Ġchild hood
Ġchild rens
Ġvo id
Ġvo ices
Ġprof ound
Ġprof iles
Ġappar antly
Ġpresent ing
Ġpresent ations
10 1
Ġtum or
Ġtum ors
Ġbre ed
Ġbre ast
Ġbre eding
Ġball erina
Ġbug les
Ġpri ze
Ġpri zes
Ġfab re
Ġcent ury
Ġcent igrade
Ġcre at
Ġcre ate
Ġcre ating
Ġword press
olog ist
tweet s
,, ,,
mon k
mon y
mon key
ren ee
Ġet a
Ġet hn
Ġet han
Ġet hics
Ġwom p
Ġwom ens
Ġbas ic
Ġble eding
Ġpay day
Ġfish y
Ġfish es
Ġgig gling
Ġhahahaha h
Ġtrans ition
Ġtrans par
Ġsky ping
Ġsurpr ises
09 81
bur st
Ġtouch in
Ġtouch ing
Ġge off
Ġge org
Ġge omet
Ġdy nasty
Ġcost co
Ġlat in
Ġposs essed
Ġposs ibility
Ġstress in
Ġexp ired
Ġexp ans
Ġexp ense
Ġexp enses
........ ........
........ .........
Ġspr ink
Ġspr ite
Ġspr ings
Ġcons tit
Ġmark ets
Ġwife y
da ughter
Ġ> <
Ġ> >
Ġq i
Ġq s
Ġq ot
Ġnon ethe
Ġaud i
Ġaud it
Ġmis ery
Ġbag uio
Ġpol ish
Ġpol icy
Ġdig est
Ġdig gin
Ġ14 3
Ġscreen ing
12 1
12 3
12 8
par is
par ks
Ġsigh s
alth ough
Ġfant a
Ġfant asy
Ġger ms
Ġcop enha
eek y
Ġrel ate
Ġrel ig
Ġroll er
Ġshop aholic
Ġkick in
Ġkick ing
rac ing
Ġkey ed
Ġkey chain
Ġpc d
Ġjay s
Ġjay cees
Ġra id
Ġra ft
Ġra imi
Ġshall ow
Ġimp erson
head ing
head ed
Ġboyfriend s
Ġdisappoint ment
gar ia
Ġ0 4
Ġ0 6
Ġhos ting
Ġhum our
Ġhum ble
Ġhum mmmm
Ġhum idity
Ġben jam
Ġben adryl
Ġbath s
Ġbeh alf
Ġshirt less
Ġten en
Ġlow est
Ġmel ting
Ġrub s
Ġrub ber
Ġrub bing
Ġphil adelphia
Ġteam s
do ba
lin ux
Ġmas c
Ġmas se
Ġmas cul
Ġpan el
Ġpan tera
Ġpot us
Ġdanc es
Ġdanc ed
oop y
Ġrele gated
Ġsouth end
Ġsouth land
Ġtwilight guy
Ġimag inary
Ġscream in
Ġcheer ed
Ġdisc re
Ġcongrat ss
Ġnick ed
Ġmic rowave
Ġthrow ing
Ġfre es
Ġfre ee
Ġcap e
Ġcap tion
Ġcap acity
Ġlad ie
Ġyoung ster
Ġdoc uments
Ġsugg ested
star r
Ġmod est
Ġtravel s
Ġteach es
Ġeye brows
Ġpublic ly
fa ire
gre gor
iv an
old er
Ġtee thing
Ġmich aels
Ġpal ace
Ġpink y
Ġpink pop
Ġfit z
Ġooo ps
Ġooo hhh
Ġwebs ites
Ġprin ting
Ġprin ts
Ġprin cet
Ġchrist op
can ucks
pro ject
Ġtan ia
Ġtan ner
Ġnoooo oo
Ġaff ili
Ġmix er
Ġreco vered
Ġshar p
Ġshar on
Ġshar es
Ġliving room
Ġsum one
Ġsum time
Ġscrew ing
Ġswe eney
Ġdesign s
ex p
ex per
ex cited
Ġsan ity
Ġmu a
Ġmu hahaha
Ġhom ee
Ġhom etown
Ġhil ton
Ġanim ating
Ġvi be
Ġvi br
Ġvi vid
Ġ16 0
Ġspam mer
Ġblast ing
Ġcover ing
Ġcover age
Ġque er
Ġque ue
Ġfeed s
Ġproud ly
Ġdirect or
hoo ting
ja x
pa x
Ġnic er
Ġnic est
Ġnic eee
Ġnic eeeee
Ġaut or
Ġaut ograph
Ġmam m
Ġmam ma
Ġhy pe
Ġhy ped
Ġban ner
Ġban ned
Ġbri tish
Ġlm k
Ġlay in
Ġlay down
Ġow t
Ġinsp ite
Ġinsp ire
Ġele ction
Ġele gance
Ġrequ ired
Ġsol ve
Ġsol ving
Ġsol ved
Ġka ties
Ġhealth care
Ġstat ue
Ġplac ed
Ġval ent
Ġval id
Ġvie wing
Ġconta cting
Ġconne cting
Ġsmell ing
Ġdeser ves
Ġprogram mer
gu ys
ka tie
let on
let ter
sm h
sm ith
sm iles
Ġay o
Ġwer nt
Ġwall s
Ġwall ace
Ġmatch ing
Ġbak a
Ġly nne
Ġlam er
Ġug gh
Ġje an
Ġlead ing
Ġinstall ing
Ġhands ome
Ġalex i
Ġalex is
boy stell
fin al
Ġver mont
Ġba iley
Ġtor ta
Ġtor ture
Ġgar eth
Ġgar bage
Ġdeep er
Ġdum bo
Ġcell phone
Ġlim b
Ġland ed
Ġoops ie
Ġange la
Ġint ro
Ġint ake
Ġint ended
Ġint rigu
Ġevent ually
Ġevent hough
Ġrece iving
Ġstor age
ffff ff
Ġbrand y
Ġmont anna
Ġrob ins
Ġrob ina
eeeeeeee eee
eeeeeeee eeeeeee
Ġstrong ly
Ġhonest y
11 6
eas y
off ice
off icially
Ġnam ing
Ġnam an
Ġnam bu
Ġnam ask
Ġahaha h
Ġahaha hahahaha
Ġsna ke
Ġsna pping
Ġsession s
Ġwood stock
Ġhost s
Ġhost age
Ġbal ancing
Ġbal tim
Ġlab or
Ġlab el
Ġyess ir
Ġbegin ing
Ġrich ie
Ġrich ard
Ġbutter cup
Ġargh hh
Ġbright on
Ġsched ules
twitter take
Ġflo ors
Ġspring steen
light s
some one
Ġign orant
Ġhm v
Ġhall s
Ġhall way
Ġhall uc
Ġhall oween
Ġhoney moon
Ġdish was
Ġcud ve
Ġloud ly
Ġepic ent
Ġlie k
Ġimport ed
Ġimport antly
Ġdrop ed
Ġdisco ver
Ġstrange ly
14 4
boo ts
down load
fy ing
je ff
je ans
oc aching
sl ow
uh s
Ġsix th
Ġwra ps
Ġwra pping
Ġbang ing
Ġtoast ing
Ġdar l
Ġdar ren
Ġcas ino
Ġform al
Ġheaven s
Ġstri ped
Ġstri kes
Ġstri pey
Ġdep ot
Ġdep osits
Ġscar es
Ġscar red
Ġtrad er
Ġsmooth ly
Ġsmooth ies
Ġspeed s
Ġspeed y
Ġtechn ique
Ġstatus es
Ġhusband s
girl s
girl friend
girl stell
su it
su icides
vo icemail
wx l
Ġtur tles
Ġir c
Ġnom s
Ġnom atter
Ġaaa h
Ġaaa w
Ġaaa hhh
Ġaaa www
Ġpin ched
Ġstep mom
Ġchanne ls
Ġcontin ually
ubs cribe
Ġadv il
Ġadv anced
Ġpainting s
uuuu uu
uuuu uuu
Ġdoubt ful
Ġtax es
mus ings
Ġut ter
Ġos car
Ġess ays
Ġsea world
Ġnet book
Ġmal am
Ġmal aria
Ġmig raines
Ġbon nie
Ġbatter ies
Ġpoo ping
Ġpoo fy
Ġlar ry
Ġven us
Ġven ice
Ġoffer ing
Ġscen ie
Ġscen ario
peti tive
Ġemo tions
Ġ90 210
kkkk k
Ġavoid ing
Ġdistra ction
Ġbathroom s
Ġsandwich es
Ġscratch es
Ġinclud es
Ġinclud ed
Ġrespond ing
cin cinnati
fg xd
lies boystell
lies girlstell
mom ent
wr ong
wor ks
Ġsar castic
Ġsus an
Ġsus pected
Ġsus picious
Ġwis consin
Ġmart ini
Ġhook ah
Ġtoy ota
Ġdc d
Ġder bys
Ġdread ed
Ġtheat ers
Ġretweet s
Ġretweet ed
Ġgolf ing
Ġko be
Ġalcohol ic
Ġlear nt
Ġsaving s
Ġflick r
hahaha h
Ġmarath i
Ġemp athise
Ġdiffic ulties
Ġinsane ly
Ġfabulous ly
Ġlmfa oooo
Ġlangu ages
cer ies
dra g
nic ole
Ġtut oring
Ġtat ami
Ġtis dale
Ġtab s
Ġtab lo
Ġtab les
Ġtab lets
Ġsym ptoms
Ġmer ced
Ġmat te
Ġbull ied
Ġbrown ies
Ġpill ows
Ġgro ceries
Ġdut ch
Ġdut ies
Ġdom estic
Ġdub bed
Ġdub ai
Ġcin cinnati
Ġcir cuit
Ġlon ley
Ġuna vail
Ġrent ed
Ġrose mary
Ġshoo ter
Ġship ment
Ġship wre
Ġkay a
Ġkay leigh
Ġatm os
Ġarch ety
Ġupgr ades
Ġsuff er
Ġdeb ating
Ġdeb ussy
Ġdeb ugging
Ġprocess ing
Ġswitch ing
Ġcrush ed
Ġsitu ations
Ġboot camp
Ġpati o
Ġpati ence
Ġboard ing
Ġhahahahaha h
Ġdiscuss ed
Ġdiscuss ions
Ġdevelop ing
Ġdevelop ed
Ġmcdonal d
mark ed
ns yl
sn jen
Ġsi xt
Ġsi ya
Ġsil ent
Ġsour ces
Ġment or
Ġmike y
Ġhills ong
Ġbub ba
Ġtow els
Ġtooth brush
Ġcoo ool
Ġcine mas
Ġlas er
Ġlas agna
Ġoper ation
Ġanna polis
Ġhaw t
Ġhaw th
Ġummm nnn
Ġequ ival
Ġros coe
Ġmax im
Ġmax ed
Ġvol unte
Ġvirt ually
Ġcompeti ton
Ġspo tify
Ġphys io
Ġphys ical
Ġteen age
Ġteen ager
Ġtemp orary
Ġquot ed
Ġrofl mao
Ġswed es
Ġprefer red
Ġadam s
Ġappear ed
Ġsmok es
Ġentertain ed
Ġtermin al
Ġbottom s
Ġdye ing
Ġpopular ity
200 8
cup s
cup cakes
jc f
list ed
ni qht
she esh
Ġtar mac
Ġnat al
Ġsens ation
Ġsens ible
Ġmir rors
Ġmul ch
Ġpen gu
Ġpen nsyl
Ġdu et
Ġdu vet
Ġdiss app
Ġcher ry
Ġcher ish
Ġcast ing
omet riosis
Ġmyster ious
Ġult ra
Ġult ras
Ġsoft ball
Ġrom an
Ġrach ael
Ġmag net
compl ete
ument hal
Ġgreet ing
Ġfunn ier
Ġcla im
Ġcla ude
Ġcla udia
Ġclos es
Ġclos eness
Ġadop tion
Ġpartic ular
Ġbroad cast
iii in
Ġdraw er
Ġprofession als
Ġaudio boo
music monday
Ġmotor bike
every one
every thing
every body
sv m
Ġtattoo ed
Ġnut ri
Ġnood le
Ġsoul ja
Ġwire s
Ġboooo ooo
Ġfo am
Ġdest roys
Ġlis ting
Ġyell ing
Ġoz zy
Ġocc up
Ġocc ured
Ġanth rop
Ġham burger
Ġbey once
Ġell iot
Ġjump ed
Ġrac ers
Ġrac ism
Ġstream line
Ġfrog s
haw t
haw ks
Ġplant ing
Ġvin cent
Ġspl ash
Ġspin ach
Ġbuzz ed
Ġcris is
Ġcris py
Ġcris pies
ific ent
Ġerr ors
Ġcourt ney
Ġburr itos
Ġmedic ation
Ġincre ase
Ġincre ased
Ġbeginning s
Ġcondition ing
Ġsubscri be
Ġsubscri bers
Ġsubscri bed
bea utiful
bud dy
des erved
gra ce
pre tty
ql jyb
enz ie
Ġtun er
Ġtun ed
Ġic ant
Ġic urve
Ġnurs es
Ġaun ts
Ġmillion aire
Ġht c
Ġhen rie
Ġbi atch
Ġbs b
Ġbrew ing
Ġpit as
Ġfox y
Ġfold ing
Ġcart oons
Ġcri cket
Ġcub icle
Ġcub bies
Ġcult ural
Ġinf ested
Ġjum ps
Ġwhis key
Ġrehears als
Ġsoph ia
Ġsoph omore
Ġlock er
Ġsher bert
Ġarr ggh
Ġarr anged
ste ve
ste in
ste ph
Ġimo vie
Ġdemo cra
Ġexer cising
Ġslee eep
Ġblond ing
Ġclimb ing
Ġsaus ages
bell e
Ġscot ts
Ġscot land
Ġaccompl ish
Ġborrow ing
Ġlaunch ed
Ġcraz ii
Ġemploy er
prom otion
Ġapolog ize
Ġveget able
Ġedit ors
Ġcomplain ts
Ġresist ance
Ġmeth od
Ġtypic ally
!!!!!!!!!!!!!!!! !!!!!!!!!!!!!!!!
Ġcorn wall
Ġ?????? ???
Ġjournal ists
Ġvirgin ia
Ġvirgin ity
Ġaccept ed
27 5
bon us
hal f
mother s
pet er
ucc ino
war ming
Ġnig gu
Ġaly ssa
Ġach ievement
Ġsow wy
Ġsow wie
Ġnegle ct
Ġhood ie
Ġbry ant
Ġbul garia
Ġpunch ing
Ġfi asco
Ġcord s
Ġcord ova
Ġluc y
Ġobs er
Ġobs ession
Ġanx ious
asy lm
Ġinvent or
Ġinvent ed
Ġinvent ion
Ġfort un
Ġfort une
Ġrb lp
Ġrab ies
Ġrick baker
Ġkl utz
Ġken ny
Ġwithdra w
Ġdogg y
Ġath letic
Ġcha os
Ġaband oning
Ġgree k
Ġspark ling
Ġblow out
Ġunl imited
Ġorgan ized
Ġorgan izing
Ġsees mic
Ġtem pt
Ġscott y
Ġcarl ile
Ġadm ir
Ġadm ire
Ġadm itted
Ġadver t
Ġadver tise
Ġadver tising
Ġlah iran
nnnn nnnn
Ġeduc ated
Ġpublish ing
Ġsyn c
Ġsyn ced
Ġsyn cing
Ġregard less
Ġtransl ate
Ġruin ing
Ġviol ated
Ġviol ently
Ġelect ron
Ġangel ina
Ġeconom ics
Ġauthor ity
dis k
mond s
ran jan
rid ges
somet hing
week end
Ġtap eworm
Ġnin ja
Ġster oids
Ġwre cked
Ġfuck kk
Ġfog gy
Ġgil more
Ġgil bert
Ġgum s
Ġgum bo
Ġgab ba
Ġdamp en
Ġcer tific
Ġcel tic
Ġod yssey
omor phic
Ġinj ury
Ġugg gh
Ġjul ie
Ġjell o
Ġwhit ney
Ġrug by
Ġki is
Ġki yos
Ġkal oka
Ġtwi iter
Ġtwin z
Ġali ens
Ġknox ville
Ġknock ing
Ġawa its
Ġ199 5
Ġunfollow ed
Ġshel by
Ġcoco a
Ġconver ting
Ġconver ted
Ġsuns et
Ġgran ny
Ġquin n
Ġads ense
Ġsmack ed
Ġsmack down
Ġcompan ion
Ġparent al
Ġwarning s
Ġperfor med
Ġcamer on
Ġcamer as
Ġpair s
Ġmilks hakes
Ġpassword s
Ġesc ape
Ġinvit ations
Ġexperien ces
Ġauto follow
Ġwitness ing
00000000 00000000
Ġemotion ally
Ġcowork ers
cord on
doll house
feel ing
har ry
iw oe
lis a
tor onto
tri ck
Ġou i
Ġxxxxxx xx
Ġtx ting
Ġtig ers
Ġaaaaa aaa
Ġwing stop
Ġwack y
Ġmur der
Ġmur ray
Ġmater nity
Ġthor ough
Ġpg pm
Ġpant ry
Ġpac man
Ġpac quiao
Ġpedic ures
Ġfer ry
Ġfid dle
Ġcad dy
Ġcad bury
Ġcurl ing
Ġlen ny
Ġlou ise
Ġopt ed
Ġeag le
Ġreun ion
Ġreun ited
Ġrack et
Ġrib ena
Ġsha ved
Ġsha anxi
Ġkore ans
Ġkris py
Ġdod ger
stud ent
stud ying
ffe ine
Ġwilliam s
Ġblu ed
Ġblu etooth
Ġclar ks
Ġprov ider
Ġprovid ing
Ġprovid ers
Ġphill ip
Ġbron cos
Ġfel ted
Ġprep ared
Ġprote in
Ġprote ct
Ġflood ing
soci ety
phot o
phot ography
Ġdisg usted
Ġdisg usting
Ġcramp ing
black berry
Ġexcl usive
Ġexcl amation
Ġ,,, ,,
Ġkell ie
Ġkell ey
Ġdescri be
Ġdescri ption
Ġvegg ies
Ġcalor ie
Ġcalor ies
Ġmetall ic
Ġgraph ics
Ġceleb rities
Ġcolour ing
Ġcontro versial
Ġevry one
Ġpoli tical
Ġdigg nation
Ġsquirre l
Ġsquirre ls
Ġxoxox o
Ġpractic ing
Ġdissap ointed
sanct uary
Ġrabbit s
Ġreinst alled
Ġcommercial s
/. /.
bab ies
cas m
det ox
goo gle
met al
mil k
pop ular
start rek
soul ja
van ia
Ġtack le
Ġnapp ing
Ġnatural ly
Ġairl ine
Ġairl ines
Ġsink ing
Ġwik ipedia
Ġmour ning
Ġheeee y
Ġbast os
Ġboun ce
Ġboun cing
Ġbod ies
Ġbod yshop
Ġbuck et
Ġbond ing
Ġpil ot
Ġpum ps
Ġpier cing
Ġpops icle
Ġtomm y
Ġfon z
Ġfon ts
Ġfis ch
Ġfuk n
Ġfuk in
Ġgent leman
Ġgather ing
Ġgoooooo od
Ġdim ple
Ġdur in
Ġdough nuts
Ġdaz ed
Ġcot ton
Ġcere al
Ġcere mony
Ġcind y
Ġyeeee ah
Ġoli ver
Ġinfect ed
Ġofc ourse
Ġjos iah
Ġjill ian
Ġrear rang
Ġreti ring
Ġgover n
Ġrh ubarb
Ġrot ation
Ġshak y
Ġkle mm
Ġstro ke
Ġalo ha
Ġalp ha
Ġ-. -
Ġdecl ined
Ġvoy ager
Ġtwiter fon
Ġblis ters
Ġleon ardo
Ġsatis fied
Ġsunn iest
Ġoverhe ating
Ġgrump y
Ġrobb ed
Ġrobb ie
Ġchel sey
Ġplayoff s
Ġprepar ing
Ġpartyyyy y
Ġdipl oma
Ġendless ly
Ġaccid ents
Ġaccid ently
Ġskate board
Ġawwwwwww www
Ġwelcom ed
Ġcharl eston
Ġspeci fically
Ġcomplet ing
Ġmacar ons
Ġmacar ena
Ġconflic t
Ġmcm uffin
Ġcontempl ate
Ġcontempl ating
Ġinsul ting
Ġindo ors
Ġrefer ring
Ġrefer ences
Ġproduc ers
Ġdiscoura ging
Ġdiscoura ged
Ġrespons es
Ġaffect ed
Ġrequire ments
Ġtroubles hooting
Ġstraighten er
Ġeuro vision
Ġjenn ifer
Ġashleigh hh
Ġtutor ials
Ġrepeated ly
Ġlifes aver
Ġsilver light
Ġoccasion ally
Ġincreasing ly
Ġbamboo zle
Ġanticip ation
apl er
cli ent
jon asweb
kiss es
lou ise
sim mons
say in
Ġxxxxxxxxxx xxxxxxxx
Ġtid y
Ġizz ard
Ġnort hern
Ġnik o
Ġsou ls
Ġneuro anatomy
Ġwip er
Ġwiz ard
Ġmim is
Ġmuse um
Ġhic cups
Ġpor to
Ġpas o
Ġtourn ey
Ġfond ue
Ġfanc lub
Ġfif th
Ġfift een
Ġfern anda
Ġfirm ware
Ġgor illa
Ġgri zzly
Ġgour met
Ġdere k
Ġcate gory
Ġloooo ong
Ġlug gage
Ġlanc aster
Ġyaaaa aaay
Ġyorks hire
otta wa
Ġinves tig
Ġiniti al
Ġbever age
Ġforbid den
Ġeup horia
challen ged
Ġjane iro
Ġreck on
Ġreje ction
Ġrul er
Ġrsv p
Ġshit ttt
unfortun ately
unfollow ed
Ġket tle
Ġstam ina
Ġdolp hin
Ġnotting ham
Ġfrapp uccino
Ġcanad ian
Ġcandid ate
Ġarrest ed
Ġcheet o
Ġsupr isingly
Ġnovel s
Ġnotific ations
Ġmorr issey
Ġalab ama
Ġ-_ -
Ġamb ul
Ġmaaa an
Ġmagn ificent
rich ards
Ġweee k
Ġplat form
Ġslipp ers
Ġspect acular
Ġeveryon eeeee
Ġorch estra
Ġorth odontist
Ġconce pts
Ġphenomen on
Ġenga ged
Ġenviron ment
Ġsunda e
Ġgram mar
Ġcarri ers
agu irre
Ġtrop ical
Ġtrum ps
Ġpredic ting
Ġpris cilla
Ġpoem s
Ġappart ment
Ġhiber nate
Ġomel ette
Ġtravell ing
Ġtraumati zed
Ġdisab led
Ġcru ising
Ġparalle ls
Ġperman ently
Ġremo ved
Ġskill z
Ġsneez ed
mex ico
Ġveh icle
Ġbarbe que
Ġpostp oned
swine flu
Ġbankrupt cy
Ġresched ule
Ġpreschool er
Ġindul gence
Ġindivid ual
Ġvoe gele
Ġmassac re
cali fornia
Ġtransform ers
Ġ>_ >
Ġimpati ent
Ġfreck les
Ġexplos ion
Ġirre gularly
Ġmalays ia
poli tico
Ġoppos ite
Ġpremi ere
Ġilovey out
Ġcrowds ourcing
Ġdisturb ance
Ġcigar ette
Ġkrist in
Ġencourage ment
Ġoverwhel med
Ġembarr ased
Ġunemploy ed
bub ble
cac a
eer rrr
fact ory
gigg les
kir k
kitchen fire
kimb alicious
loo pt
lak ers
noth in
norm al
rass ed
rash id
ser iously
sig jeans
sug ar
uke tic
wol verine
wock eez
weal th
Ġtuc son
Ġttf n
Ġtiv o
Ġigl oo
Ġnute lla
Ġnich olas
Ġniam h
Ġapr il
Ġsash imi
Ġnett les
Ġnekk id
Ġwoss y
Ġmered ith
Ġthigh s
Ġheee y
Ġbld g
Ġbould er
Ġbish op
Ġbol t
Ġbage l
Ġpeel ing
Ġpitt s
Ġpuk ed
Ġtorr ent
Ġtootha che
Ġfion a
Ġfurl ough
Ġdind in
Ġcys tic
Ġcaut ious
Ġcoooooooo ol
Ġcze ch
Ġlous y
Ġlames auce
Ġlumber jack
atlan tic
Ġyach t
Ġoas is
Ġott awa
Ġoatme al
Ġanaly tics
Ġinten se
Ġinflu ence
Ġontar io
Ġisaa c
Ġbeha ved
Ġjel ous
Ġjav ascript
Ġwhate v
Ġwhil st
Ġrefl ux
Ġrating s
Ġrott en
Ġrsm v
Ġrasp berry
Ġlope z
Ġshield s
Ġkra ken
Ġkaz im
Ġkesh ia
Ġketch up
Ġhels inki
Ġwegm ans
Ġliber ty
Ġwasss up
Ġallian z
Ġalleg ra
Ġchand ler
Ġamors ote
robl uketic
Ġmaaaa an
Ġimple ment
Ġimprom ptu
Ġabbre vi
Ġwhatso ever
Ġashing ton
Ġassh oles
Ġasham ed
Ġdeod orant
Ġvars ity
Ġviet nam
Ġviny l
Ġnewsp aper
hhig d
Ġspiel burg
Ġblok es
Ġlems ip
Ġlexing ton
Ġunkn own
Ġunbelie v
Ġorac le
Ġorph an
Ġoreg on
Ġsevent h
Ġenerg ized
Ġmanhatt an
beij ing
Ġheadlin ing
Ġswitzer land
Ġtrump et
Ġprejud ice
Ġactiv ities
Ġlacro ix
Ġlafay ette
Ġappla ud
Ġapprop riate
Ġminnea polis
Ġtraged y
Ġdiscrim ination
Ġdispos able
Ġcompens ate
Ġexcurs ion
Ġwarham mer
Ġmarvel ous
Ġreminis cing
Ġdaws on
Ġsoundtr ack
Ġprobob ly
defin itely
Ġbookmar ks
Ġsurvi ving
Ġrepier ced
Ġcampa ign
Ġcambod ian
Ġapathe tic
Ġedmon ton
Ġheartbro ken
confer ence
Ġmilwauk ee
Ġmacadam ia
Ġcalcut ta
Ġteraby te
Ġchronic les
Ġpublis hers
Ġdouche bag
Ġcelebra tion
Ġbandwag on
Ġtaipe i
Ġinstit ute
Ġcorresp ond
Ġthrobb ing
Ġdistrac ting
Ġdistribut ion
Ġtranspar ency
Ġgeorg ia
Ġgeomet ry
Ġnonethe less
Ġcopenha gen
Ġimperson al
Ġbenjam in
Ġmascul inity
Ġprincet on
Ġnamask ar
Ġbaltim ore
twittertake over
Ġdishwas her
Ġderbys hire
Ġunavail able
Ġshipwre cked
Ġequival ent
Ġpennsyl vania
Ġultras ound
Ġanthrop omorphic
Ġdemocra tic
Ġkiyos aki
Ġrearrang ing
jonasweb cast
