{"<s>":0,"<pad>":1,"</s>":2,"<unk>":3,"xxxSTART":4,"xxxSENTIMENT":5,"xxxEND":6,"!":7,"\"":8,"#":9,"$":10,"%":11,"&":12,"'":13,"(":14,")":15,"*":16,"+":17,",":18,"-":19,".":20,"/":21,"0":22,"1":23,"2":24,"3":25,"4":26,"5":27,"6":28,"7":29,"8":30,"9":31,":":32,";":33,"<":34,"=":35,">":36,"?":37,"@":38,"A":39,"B":40,"C":41,"D":42,"E":43,"F":44,"G":45,"H":46,"I":47,"J":48,"K":49,"L":50,"M":51,"N":52,"O":53,"P":54,"Q":55,"R":56,"S":57,"T":58,"U":59,"V":60,"W":61,"X":62,"Y":63,"Z":64,"[":65,"\\":66,"]":67,"^":68,"_":69,"`":70,"a":71,"b":72,"c":73,"d":74,"e":75,"f":76,"g":77,"h":78,"i":79,"j":80,"k":81,"l":82,"m":83,"n":84,"o":85,"p":86,"q":87,"r":88,"s":89,"t":90,"u":91,"v":92,"w":93,"x":94,"y":95,"z":96,"{":97,"|":98,"}":99,"~":100,"¡":101,"¢":102,"£":103,"¤":104,"¥":105,"¦":106,"§":107,"¨":108,"©":109,"ª":110,"«":111,"¬":112,"®":113,"¯":114,"°":115,"±":116,"²":117,"³":118,"´":119,"µ":120,"¶":121,"·":122,"¸":123,"¹":124,"º":125,"»":126,"¼":127,"½":128,"¾":129,"¿":130,"À":131,"Á":132,"Â":133,"Ã":134,"Ä":135,"Å":136,"Æ":137,"Ç":138,"È":139,"É":140,"Ê":141,"Ë":142,"Ì":143,"Í":144,"Î":145,"Ï":146,"Ð":147,"Ñ":148,"Ò":149,"Ó":150,"Ô":151,"Õ":152,"Ö":153,"×":154,"Ø":155,"Ù":156,"Ú":157,"Û":158,"Ü":159,"Ý":160,"Þ":161,"ß":162,"à":163,"á":164,"â":165,"ã":166,"ä":167,"å":168,"æ":169,"ç":170,"è":171,"é":172,"ê":173,"ë":174,"ì":175,"í":176,"î":177,"ï":178,"ð":179,"ñ":180,"ò":181,"ó":182,"ô":183,"õ":184,"ö":185,"÷":186,"ø":187,"ù":188,"ú":189,"û":190,"ü":191,"ý":192,"þ":193,"ÿ":194,"Ā":195,"ā":196,"Ă":197,"ă":198,"Ą":199,"ą":200,"Ć":201,"ć":202,"Ĉ":203,"ĉ":204,"Ċ":205,"ċ":206,"Č":207,"č":208,"Ď":209,"ď":210,"Đ":211,"đ":212,"Ē":213,"ē":214,"Ĕ":215,"ĕ":216,"Ė":217,"ė":218,"Ę":219,"ę":220,"Ě":221,"ě":222,"Ĝ":223,"ĝ":224,"Ğ":225,"ğ":226,"Ġ":227,"ġ":228,"Ģ":229,"ģ":230,"Ĥ":231,"ĥ":232,"Ħ":233,"ħ":234,"Ĩ":235,"ĩ":236,"Ī":237,"ī":238,"Ĭ":239,"ĭ":240,"Į":241,"į":242,"İ":243,"ı":244,"Ĳ":245,"ĳ":246,"Ĵ":247,"ĵ":248,"Ķ":249,"ķ":250,"ĸ":251,"Ĺ":252,"ĺ":253,"Ļ":254,"ļ":255,"Ľ":256,"ľ":257,"Ŀ":258,"ŀ":259,"Ł":260,"ł":261,"Ń":262,"xx":263,"en":264,"Ġxx":265,"Ġxxx":266,"ent":267,"Ġxxxs":268,"Ġt":269,"ar":270,"Ġi":271,"Ġn":272,"im":273,"end":274,"art":275,"tart":276,"iment":277,"entiment":278,"Ġxxxend":279,"Ġxxxstart":280,"Ġxxxsentiment":281,"Ġa":282,"ve":283,"Ġs":284,"in":285,"Ġne":286,"Ġw":287,"Ġm":288,"Ġth":289,"Ġh":290,"ut":291,"ti":292,"al":293,"Ġb":294,"Ġp":295,"tive":296,"on":297,"ing":298,"Ġto":299,"Ġf":300,"er":301,"or":302,"Ġg":303,"Ġd":304,"ral":305,"ou":306,"Ġc":307,"Ġneut":308,"Ġneutral":309,"Ġl":310,"..":311,"Ġthe":312,"os":313,"at":314,"an":315,"Ġy":316,"re":317,"Ġo":318,"ay":319,"Ġpos":320,"Ġposi":321,"ga":322,"Ġpositive":323,"ll":324,"it":325,"om":326,"Ġnega":327,"Ġnegative":328,"es":329,"ed":330,"oo":331,"Ġan":332,"Ġha":333,"ow":334,"ee":335,"ot":336,"Ġyou":337,"is":338,"Ġit":339,"Ġmy":340,"as":341,"Ġand":342,"Ġin":343,"us":344,"et":345,"ly":346,"Ġon":347,"gh":348,"Ġis":349,"Ġbe":350,"Ġu":351,"Ġfor":352,"Ġof":353,"ad":354,"Ġe":355,"ck":356,"ch":357,"!!":358,"Ġj":359,"le":360,"...":361,"Ġwh":362,"Ġre":363,"**":364,"Ġme":365,"id":366,"Ġso":367,"Ġthat":368,"ke":369,"ght":370,"ome":371,"ic":372,"Ġgo":373,"Ġr":374,"ver":375,"ust":376,"Ġlo":377,"Ġhave":378,"ld":379,"ight":380,"ter":381,"am":382,"Ġsh":383,"un":384,"Ġk":385,"Ġday":386,"Ġhe":387,"ith":388,"Ġbut":389,"ere":390,"day":391,"pp":392,"Ġjust":393,"Ġwith":394,"Ġwe":395,"ood":396,"Ġli":397,"Ġst":398,"Ġdo":399,"Ġnot":400,"Ġat":401,"Ġwor":402,"Ġwas":403,"Ġfr":404,"Ġcan":405,"ĠĠ":406,"op":407,"Ġget":408,"ur":409,"ir":410,"one":411,"Ġar":412,"Ġup":413,"her":414,"Ġgood":415,"Ġout":416,"ally":417,"Ġall":418,"ce":419,"ill":420,"Ġch":421,"tt":422,"Ġwork":423,"Ġnow":424,"Ġthis":425,"ack":426,"ry":427,"Ġsu":428,"Ġtw":429,"Ġno":430,"ould":431,"ha":432,"th":433,"Ġlove":434,"ant":435,"Ġlike":436,"Ġmor":437,"Ġare":438,"Ġgot":439,"ks":440,"Ġal":441,"Ġ-":442,"ast":443,":/":444,"Ġthan":445,"out":446,"ttp":447,"://":448,"Ġ_":449,"Ġhttp":450,"Ġdon":451,"ea":452,"Ġtoo":453,"ate":454,"Ġhapp":455,"Ġam":456,"Ġyour":457,"ink":458,"ro":459,"Ġ2":460,"other":461,"Ġma":462,"Ġtoday":463,"ie":464,"ish":465,"Ġkn":466,"il":467,"Ġtim":468,"Ġaw":469,"iss":470,"st":471,"Ġgoing":472,"very":473,"ra":474,"Ġsee":475,"Ġsome":476,"Ġim":477,"ri":478,"Ġab":479,"****":480,"se":481,"Ġwhat":482,"ting":483,"Ġas":484,"ess":485,"com":486,"Ġ****":487,"eep":488,"ook":489,"Ġfrom":490,"Ġwant":491,"Ġback":492,"Ġwee":493,"Ġlol":494,"Ġtime":495,"Ġhappy":496,"Ġknow":497,"Ġone":498,"Ġmiss":499,"ong":500,"Ġde":501,"and":502,"eel":503,"Ġpl":504,"um":505,"Ġv":506,"Ġ1":507,"our":508,"ff":509,"Ġdid":510,"Ġthere":511,"Ġwill":512,"all":513,"Ġfeel":514,"na":515,"ning":516,"Ġreally":517,"Ġfin":518,"ct":519,"Ġnew":520,"oun":521,"Ġoff":522,"ard":523,"atch":524,"tion":525,"Ġhad":526,"est":527,"Ġany":528,"Ġthink":529,"ers":530,"Ġweek":531,"Ġex":532,"ab":533,"hh":534,"....":535,"Ġabout":536,"ol":537,"ice":538,"ig":539,"Ġhome":540,"Ġnight":541,"ge":542,"Ġcom":543,"Ġits":544,"Ġsl":545,"oll":546,"Ġhop":547,"ough":548,"ick":549,"aa":550,"Ġif":551,"Ġmother":552,"ool":553,"Ġthey":554,"Ġgre":555,"Ġsti":556,"Ġsp":557,"mor":558,"ul":559,"Ġhaha":560,"Ġmo":561,"Ġhow":562,"ite":563,"??":564,"ame":565,"ak":566,"row":567,"Ġneed":568,"Ġtwit":569,"!!!":570,"uch":571,"Ġfun":572,"Ġ&":573,"ving":574,"ine":575,"Ġstill":576,"Ġbl":577,"Ġwatch":578,"Ġhope":579,"Ġmore":580,"Ġwell":581,"Ġus":582,"eet":583,"Ġwhen":584,"ain":585,"Ġoh":586,"Ġle":587,"Ġun":588,"Ġmom":589,"ist":590,"Ġthanks":591,"Ġmuch":592,"Ġevery":593,"Ġor":594,"Ġhere":595,"Ġgu":596,"ound":597,"Ġhas":598,"Ġtwitter":599,"Ġ(":600,"ake":601,"Ġwish":602,"ven":603,"Ġse":604,"Ġher":605,"Ġcl":606,"Ġfa":607,"Ġmorning":608,"ww":609,"qu":610,"Ġgreat":611,"tw":612,"Ġlast":613,"Ġsor":614,"Ġstu":615,"ost":616,"Ġ'":617,"Ġ#":618,"ind":619,"Ġshe":620,"oy":621,"Ġton":622,"Ġsleep":623,"oooo":624,"ollow":625,"Ġwould":626,"ire":627,"Ġsa":628,"Ġco":629,"morrow":630,"Ġwa":631,"ady":632,"mm":633,"Ġcon":634,"ies":635,"Ġpro":636,"Ġtomorrow":637,"Ġph":638,"ide":639,"Ġthen":640,"Ġlook":641,"Ġbeen":642,"ous":643,"Ġcould":644,"Ġsad":645,"Ġbad":646,"Ġby":647,"Ġte":648,"Ġonly":649,"Ġfri":650,"Ġyea":651,"fe":652,"Ġsay":653,"own":654,"res":655,"gain":656,"Ġwon":657,"pl":658,"Ġen":659,"Ġfollow":660,"Ġbet":661,"Ġsun":662,"Ġwhy":663,"Ġright":664,"Ġfriend":665,"xt":666,"Ġagain":667,"hing":668,"Ġthing":669,"Ġtonight":670,"ap":671,"Ġyes":672,"Ġdidn":673,"use":674,"Ġwait":675,"Ġ3":676,"Ġsorry":677,"Ġ4":678,"Ġaf":679,"Ġman":680,"be":681,"Ġmay":682,"Ġover":683,"Ġmake":684,"Ġshow":685,"ation":686,"od":687,"Ġpe":688,"Ġbr":689,"for":690,"pic":691,"ile":692,"ause":693,"ear":694,"Ġshould":695,"Ġthem":696,"Ġnice":697,"Ġmon":698,"Ġway":699,"Ġtry":700,"way":701,"Ġgr":702,"Ġgon":703,"ose":704,"alk":705,"itt":706,"ase":707,"Ġjo":708,"Ġok":709,"Ġwho":710,"Ġ:":711,"Ġvery":712,"ang":713,"ion":714,"Ġafter":715,"!!!!":716,"Ġyeah":717,"der":718,"Ġbed":719,"yy":720,"Ġthough":721,"Ġqu":722,"ach":723,"Ġgonna":724,"ud":725,"Ġro":726,"Ġhead":727,"ass":728,"iday":729,"Ġweekend":730,"Ġdown":731,"ts":732,"ys":733,"Ġsch":734,"ber":735,"Ġsc":736,"ip":737,"Ġbetter":738,"Ġcome":739,"Ġcar":740,"Ġche":741,"Ġsw":742,"Ġstart":743,"Ġeven":744,"Ġ...":745,"ag":746,"Ġgetting":747,"Ġpeop":748,"Ġdoes":749,"Ġtr":750,"Ġplay":751,"Ġfe":752,"ft":753,"twit":754,"Ġpeople":755,"Ġnext":756,"Ġhour":757,"Ġx":758,"Ġpre":759,"ful":760,"uck":761,"ub":762,"ree":763,"Ġschool":764,"ue":765,"vie":766,"Ġlong":767,"ble":768,"ive":769,"Ġpr":770,"irl":771,"ure":772,"Ġdays":773,"Ġmothers":774,"Ġad":775,"ought":776,"Ġwatching":777,"00":778,"twitpic":779,"Ġsom":780,"Ġwere":781,"Ġdr":782,"Ġdont":783,"Ġhim":784,"Ġfl":785,"Ġpic":786,"Ġbec":787,"ug":788,"Ġcall":789,"he":790,"ma":791,"Ġsoon":792,"Ġrain":793,"Ġmak":794,"ace":795,"Ġsuck":796,"Ġtweet":797,"to":798,"Ġhate":799,"Ġawes":800,"ull":801,"ia":802,"Ġac":803,"thing":804,"Ġsomet":805,"iz":806,"Ġbest":807,"my":808,"Ġ.":809,"Ġ`":810,"Ġgirl":811,"og":812,"Ġple":813,"Ġawesome":814,"Ġpart":815,"Ġyear":816,"Ġhaving":817,"Ġthank":818,"ired":819,"Ġmad":820,"Ġbor":821,"Ġpo":822,"anna":823,"Ġbeing":824,"ittle":825,"Ġla":826,"ans":827,"Ġlittle":828,"Ġear":829,"ment":830,"up":831,"Ġlet":832,"Ġapp":833,"Ġhur":834,"Ġgl":835,"lf":836,"urn":837,"ci":838,"Ġur":839,"Ġnever":840,"ort":841,"Ġlist":842,"Ġworking":843,"Ġtake":844,"Ġwr":845,"Ġcool":846,"ways":847,"Ġ@":848,"Ġtired":849,"ta":850,"reak":851,"Ġhey":852,"irst":853,"ne":854,"Ġhi":855,"Ġhis":856,"ouse":857,"ny":858,"per":859,"ater":860,"Ġsick":861,"Ġtalk":862,"Ġeat":863,"ress":864,"Ġbecause":865,"ac":866,"Ġsm":867,"Ġdone":868,"em":869,"Ġ5":870,"Ġ?":871,"Ġwhere":872,"Ġstar":873,"Ġ<":874,"Ġfirst":875,"Ġbab":876,"Ġfeeling":877,"ooks":878,"Ġsure":879,"Ġfriends":880,"Ġplease":881,"Ġ*":882,"ream":883,"age":884,"Ġfriday":885,"Ġalre":886,"Ġeveryone":887,"Ġwanna":888,"lo":889,"Ġour":890,"Ġanother":891,"Ġdoing":892,"Ġfind":893,"az":894,"pt":895,"so":896,"int":897,"Ġom":898,"Ġcant":899,"Ġalready":900,"Ġlot":901,"ity":902,"Ġlife":903,"rr":904,"Ġ!":905,"ather":906,"Ġmovie":907,"lp":908,"Ġot":909,"eeee":910,"ually":911,"Ġhouse":912,"Ġbig":913,"Ġhours":914,"ah":915,"pe":916,"Ġmin":917,"Ġalways":918,"Ġdoesn":919,"Ġdi":920,"wh":921,"Ġyet":922,"fore":923,"ute":924,"ph":925,"Ġsong":926,"Ġold":927,"Ġread":928,"ich":929,"ious":930,"Ġlea":931,"Ġinter":932,"Ġbefore":933,"Ġever":934,"Ġkeep":935,"Ġhard":936,"tic":937,"Ġphone":938,"Ġtrying":939,"Ġtri":940,"Ġid":941,"Ġbit":942,"ooo":943,"Ġguys":944,"joy":945,"tin":946,"Ġthought":947,"tty":948,"Ġother":949,"Ġhell":950,"Ġact":951,"Ġbir":952,"Ġyay":953,"Ġtra":954,"Ġdis":955,"Ġugh":956,"Ġpretty":957,"get":958,"ms":959,"¿½":960,"ï¿½":961,"Ġag":962,"Ġhot":963,"self":964,"Ġsomething":965,"el":966,"Ġbu":967,"Ġcr":968,"Ġenjoy":969,"dy":970,"Ġinto":971,"Ġlive":972,"gg":973,"Ġwent":974,"Ġhelp":975,"Ġsucks":976,"Ġmade":977,"bl":978,"bit":979,"Ġbro":980,"Ġfam":981,"Ġready":982,"Ġaway":983,"Ġfinally":984,"Ġcomp":985,"ner":986,"unch":987,"Ġexc":988,"sh":989,"Ġpar":990,"ond":991,"Ġreal":992,"Ġsame":993,"Ġbreak":994,"Ġrun":995,"Ġleft":996,"Ġfinish":997,"ily":998,"Ġsomeone":999,"Ġomg":1000,"ell":1001,"ath":1002,"Ġlisten":1003,"Ġwar":1004,"Ġguess":1005,"Ġ,":1006,"Ġlooks":1007,"Ġkind":1008,"haha":1009,"Ġlooking":1010,"Ġmonday":1011,"Ġjob":1012,"Ġluck":1013,"ance":1014,"Ġmaybe":1015,"Ġcheck":1016,"wn":1017,"Ġbus":1018,"Ġlate":1019,"oth":1020,"Ġamaz":1021,"Ġ6":1022,"Ġwow":1023,"Ġper":1024,"Ġwhile":1025,"Ġkid":1026,"Ġactually":1027,"aaaa":1028,"ited":1029,"Ġsuch":1030,"Ġmar":1031,"ore":1032,"url":1033,"are":1034,"til":1035,"Ġrem":1036,"Ġearly":1037,"Ġput":1038,"Ġsin":1039,"Ġda":1040,"Ġend":1041,"Ġhear":1042,"Ġstuff":1043,"Ġtell":1044,"Ġbirth":1045,"Ġ..":1046,"ens":1047,"Ġser":1048,"oss":1049,"la":1050,"ank":1051,"Ġworld":1052,"?!":1053,"Ġthr":1054,"Ġdri":1055,"Ġnothing":1056,"ĠĠĠ":1057,"Ġmissed":1058,"Ġbirthday":1059,"night":1060,"ss":1061,"side":1062,"Ġ;":1063,"Ġtak":1064,"Ġboy":1065,"Ġya":1066,"Ġtwo":1067,"ix":1068,"Ġbored":1069,"ward":1070,"Ġuntil":1071,"Ġmus":1072,"book":1073,"Ġsound":1074,"terday":1075,"co":1076,"opp":1077,"Ġsit":1078,"Ġthose":1079,"Ġalso":1080,"Ġyesterday":1081,"Ġdad":1082,"Ġlater":1083,"Ġ10":1084,"Ġsaw":1085,"Ġglad":1086,"ats":1087,"ash":1088,"ody":1089,"Ġamazing":1090,"no":1091,"Ġ7":1092,"Ġhun":1093,"Ġface":1094,"Ġprob":1095,"Ġparty":1096,"oke":1097,"Ġhair":1098,"able":1099,"Ġsaid":1100,"Ġ=":1101,"Ġfound":1102,"ated":1103,"Ġbaby":1104,"Ġsince":1105,"io":1106,"sp":1107,"Ġ8":1108,"ise":1109,"oney":1110,"Ġbel":1111,"ox":1112,"Ġgone":1113,"Ġcle":1114,"Ġmean":1115,"most":1116,"Ġmust":1117,"Ġcra":1118,"Ġaround":1119,"ount":1120,"Ġfew":1121,"Ġacc":1122,"tiny":1123,"li":1124,"nt":1125,"Ġanything":1126,"Ġcoming":1127,"Ġstay":1128,"Ġcold":1129,"Ġphot":1130,"ps":1131,"Ġfar":1132,"ign":1133,"Ġthings":1134,"Ġpoor":1135,"by":1136,"ted":1137,"ord":1138,"Ġmyself":1139,"Ġgod":1140,"Ġgotta":1141,"Ġmight":1142,"Ġfree":1143,"Ġthats":1144,"Ġdrink":1145,"Ġfamily":1146,"ock":1147,"zy":1148,"Ġtre":1149,"Ġsk":1150,"Ġmum":1151,"Ġdin":1152,"Ġlost":1153,"Ġclass":1154,"Ġwonder":1155,"Ġmakes":1156,"tinyurl":1157,"Ġgame":1158,"Ġgive":1159,"ating":1160,"Ġweather":1161,"Ġalmost":1162,"Ġcoff":1163,"Ġtill":1164,"Ġsat":1165,"Ġmost":1166,"Ġtho":1167,"Ġwaiting":1168,"Ġmaking":1169,"Ġboo":1170,"Ġlunch":1171,"ason":1172,"Ġawww":1173,"hhh":1174,"Ġsunday":1175,"Ġleave":1176,"de":1177,"ary":1178,"Ġhang":1179,"Ġel":1180,"Ġsumm":1181,"Ġleast":1182,"aut":1183,"ents":1184,"ime":1185,"ork":1186,"ates":1187,"iting":1188,"Ġpict":1189,"les":1190,"Ġbook":1191,"anc":1192,"Ġmonth":1193,"Ġexcited":1194,"ence":1195,"ert":1196,".....":1197,"Ġeverything":1198,"Ġhurts":1199,"Ġcoffee":1200,"ange":1201,"Ġem":1202,"Ġdef":1203,"Ġplan":1204,"Ġthinking":1205,"Ġuse":1206,"load":1207,"Ġpain":1208,"ĠĠĠĠ":1209,"Ġaww":1210,"ably":1211,"Ġmusic":1212,"come":1213,"pid":1214,"Ġz":1215,"Ġke":1216,"Ġstop":1217,"urk":1218,"Ġsuper":1219,"Ġhappen":1220,"Ġthrough":1221,"if":1222,"Ġmoney":1223,"Ġtot":1224,"Ġwel":1225,"Ġstupid":1226,"Ġadd":1227,"Ġsummer":1228,"dd":1229,"ple":1230,"Ġsing":1231,"Ġwin":1232,"Ġfood":1233,"Ġbeaut":1234,"Ġforward":1235,"Ġsupp":1236,"Ġwanted":1237,"Ġanyone":1238,"Ġmove":1239,"Ġroom":1240,"line":1241,"Ġdes":1242,"Ġinst":1243,"Ġvide":1244,"Ġfav":1245,"Ġlistening":1246,"ail":1247,"Ġmess":1248,"Ġcry":1249,"Ġtheir":1250,"Ġplace":1251,"Ġexam":1252,"Ġbuy":1253,"net":1254,"uz":1255,"Ġhu":1256,"Ġcause":1257,"Ġmissing":1258,"ully":1259,"Ġfinished":1260,"Ġdinner":1261,"br":1262,"Ġcho":1263,"bs":1264,"body":1265,"Ġwoke":1266,"Ġhaven":1267,"ets":1268,"Ġunder":1269,"Ġsweet":1270,"Ġill":1271,"Ġhit":1272,"Ġdream":1273,"Ġcute":1274,"Ġisn":1275,"the":1276,"iful":1277,"Ġhol":1278,"ory":1279,"Ġtimes":1280,"???":1281,"33":1282,"igh":1283,"Ġpers":1284,"Ġop":1285,"Ġwhich":1286,"ieve":1287,"Ġwants":1288,"Ġfunny":1289,"Ġmany":1290,"man":1291,"Ġho":1292,"Ġrest":1293,"Ġprobably":1294,"Ġclean":1295,"Ġwelcome":1296,"Ġbeautiful":1297,"nn":1298,"Ġsoooo":1299,"ote":1300,"Ġdel":1301,"plurk":1302,"ude":1303,"Ġplaying":1304,"Ġbelieve":1305,"ds":1306,"got":1307,"ild":1308,"Ġtea":1309,"Ġsn":1310,"Ġboth":1311,"Ġoutside":1312,"Ġfail":1313,"Ġdidnt":1314,"arn":1315,"Ġsur":1316,"Ġmine":1317,"Ġgi":1318,"Ġrep":1319,"Ġask":1320,"Ġokay":1321,"Ġkids":1322,"Ġ;)":1323,"30":1324,"but":1325,"ction":1326,"ian":1327,"me":1328,"red":1329,"Ġenough":1330,"Ġrock":1331,"Ġeating":1332,"osed":1333,"Ġrec":1334,"Ġdog":1335,"Ġupd":1336,"Ġsays":1337,"ache":1338,"Ġturn":1339,"ese":1340,"Ġkill":1341,"Ġatt":1342,"Ġwasn":1343,"Ġsounds":1344,"Ġperson":1345,"pr":1346,"te":1347,"Ġ9":1348,"ins":1349,"Ġwithout":1350,"Ġweeks":1351,"fully":1352,"ii":1353,"land":1354,"uu":1355,"Ġ$":1356,"Ġchar":1357,"Ġseen":1358,"Ġfollowers":1359,"cial":1360,"Ġtotally":1361,"ect":1362,"ger":1363,"kk":1364,"ness":1365,"Ġhand":1366,"Ġca":1367,"Ġhahaha":1368,"Ġmoms":1369,"Ġstuck":1370,"ew":1371,"Ġtick":1372,"Ġsend":1373,"Ġhor":1374,"Ġcam":1375,"oot":1376,"Ġtook":1377,"Ġproble":1378,"cl":1379,"vent":1380,"Ġsooo":1381,"Ġthese":1382,"vers":1383,"Ġgoodnight":1384,"Ġblog":1385,"Ġsec":1386,"Ġwhole":1387,"ember":1388,"Ġholiday":1389,"Ġwalk":1390,"Ġpa":1391,"www":1392,"Ġconc":1393,"Ġyears":1394,"Ġago":1395,"Ġtaking":1396,"ently":1397,"Ġap":1398,"eee":1399,"Ġshopp":1400,"ither":1401,"Ġlovely":1402,"Ġfinal":1403,"hhhh":1404,"app":1405,"cc":1406,"press":1407,"ugh":1408,"Ġwind":1409,"Ġmeet":1410,"Ġcame":1411,"urday":1412,"Ġoffice":1413,"Ġspe":1414,"ube":1415,"Ġcatch":1416,"more":1417,"yyyy":1418,"Ġsitting":1419,"Ġelse":1420,"eal":1421,"gr":1422,"Ġve":1423,"Ġtv":1424,"eeting":1425,"Ġseems":1426,"Ġdec":1427,"Ġcomput":1428,"Ġtrek":1429,"Ġvideo":1430,"gle":1431,"vis":1432,"Ġname":1433,"Ġsis":1434,"Ġmid":1435,"Ġcard":1436,"Ġown":1437,"Ġforgot":1438,"Ġheadache":1439,"Ġsaturday":1440,"inks":1441,"Ġfull":1442,"ors":1443,"Ġless":1444,"Ġyum":1445,"Ġlik":1446,"Ġspend":1447,"Ġfollowing":1448,"mail":1449,"Ġbroke":1450,"Ġkinda":1451,"Ġremember":1452,"Ġshopping":1453,"gry":1454,"rs":1455,"Ġed":1456,"Ġset":1457,"Ġhal":1458,"Ġbo":1459,"Ġga":1460,"Ġcoll":1461,"Ġrela":1462,"une":1463,"Ġchill":1464,"Ġawake":1465,"Ġguy":1466,"Ġbrother":1467,"Ġquite":1468,"Ġtweets":1469,"Ġhigh":1470,"phone":1471,"Ġidea":1472,"Ġhello":1473,"ead":1474,"ever":1475,"fm":1476,"time":1477,"Ġ+":1478,"vel":1479,"Ġwed":1480,"Ġmind":1481,"ush":1482,"Ġheart":1483,"Ġstr":1484,"Ġloved":1485,"Ġcompl":1486,"fect":1487,"con":1488,"ep":1489,"ik":1490,"ught":1491,"Ġtil":1492,"Ġah":1493,"Ġfall":1494,"Ġonce":1495,"irt":1496,"Ġalone":1497,"Ġhopefully":1498,"where":1499,"zz":1500,"Ġbum":1501,"Ġpack":1502,"Ġpast":1503,"Ġcook":1504,"ley":1505,"Ġable":1506,"ongr":1507,"Ġcalled":1508,"Ġwrong":1509,"ney":1510,"Ġtalking":1511,"Ġlots":1512,"Ġwars":1513,"Ġbusy":1514,"fri":1515,"not":1516,"we":1517,"ym":1518,"Ġ)":1519,"ved":1520,"Ġmil":1521,"att":1522,"Ġann":1523,"Ġjon":1524,"Ġwear":1525,"ope":1526,"Ġgets":1527,"outube":1528,"Ġanymore":1529,"Ġslow":1530,"Ġblack":1531,"Ġgrad":1532,"view":1533,"Ġinternet":1534,"Ġdrive":1535,"bo":1536,"col":1537,"less":1538,"Ġent":1539,"Ġ!!":1540,"Ġbar":1541,"Ġcongr":1542,"Ġpost":1543,"Ġey":1544,"Ġmac":1545,"????":1546,"Ġstarting":1547,"Ġdiff":1548,"Ġrunning":1549,"Ġserious":1550,"Ġinstead":1551,"Ġcomputer":1552,"Ġbra":1553,"Ġbtw":1554,"Ġfan":1555,"Ġcou":1556,"Ġshort":1557,"ations":1558,"Ġgrand":1559,"izz":1560,"Ġfacebook":1561,"ken":1562,"ues":1563,"Ġart":1564,"ark":1565,"Ġice":1566,"tie":1567,"Ġpick":1568,"orm":1569,"Ġcut":1570,"Ġcuz":1571,"Ġ****.":1572,"Ġdead":1573,"Ġused":1574,"fort":1575,"Ġevening":1576,"ugs":1577,"ling":1578,"vin":1579,"Ġiphone":1580,"Ġpass":1581,"Ġfig":1582,"Ġcal":1583,"Ġonline":1584,"Ġeither":1585,"Ġred":1586,"ird":1587,"Ġcouldn":1588,"Ġwont":1589,"Ġtrue":1590,"Ġtrip":1591,"Ġtried":1592,"Ġperfect":1593,"Ġdefin":1594,"Ġopen":1595,"--":1596,"ding":1597,"sw":1598,"top":1599,"Ġ....":1600,"imes":1601,"Ġbank":1602,"atter":1603,"itch":1604,"Ġbeach":1605,"Ġep":1606,"Ġhehe":1607,"Ġexce":1608,"Ġleg":1609,"Ġmommy":1610,"Ġstudy":1611,"Ġhurt":1612,"Ġpicture":1613,"mer":1614,"Ġair":1615,"Ġgoo":1616,"Ġdude":1617,"Ġce":1618,"Ġcur":1619,"rew":1620,"Ġres":1621,"ama":1622,"Ġseeing":1623,"fast":1624,"ier":1625,"med":1626,"Ġer":1627,"Ġes":1628,"Ġmet":1629,"ale":1630,"Ġgoin":1631,"unk":1632,"ried":1633,"Ġfeels":1634,"Ġhungry":1635,"Ġfavor":1636,"Ġconcert":1637,"Ġrelax":1638,"mo":1639,"pm":1640,"ton":1641,"Ġsoo":1642,"Ġhmm":1643,"ons":1644,"ings":1645,"Ġdra":1646,"ppy":1647,"Ġchange":1648,"Ġfine":1649,"Ġnews":1650,"Ġwatched":1651,"Ġclose":1652,"Ġconf":1653,"Ġcare":1654,"Ġprom":1655,"Ġgirls":1656,"Ġcrazy":1657,"friend":1658,"__":1659,"ball":1660,"ike":1661,"ject":1662,"ual":1663,"ures":1664,"you":1665,"Ġmc":1666,"utes":1667,"Ġtour":1668,"Ġyoutube":1669,"Ġvis":1670,"Ġtext":1671,"Ġfell":1672,"Ġboring":1673,"Ġter":1674,"Ġav":1675,"ines":1676,"iness":1677,"Ġpres":1678,"Ġcour":1679,"Ġlink":1680,"ete":1681,"amp":1682,"pped":1683,"ately":1684,"Ġneeds":1685,"Ġflu":1686,"mao":1687,"Ġhalf":1688,"uc":1689,"Ġburn":1690,"Ġtop":1691,"Ġfil":1692,"its":1693,"ade":1694,"Ġchr":1695,"Ġloves":1696,"rible":1697,"Ġ12":1698,"Ġhoping":1699,"Ġmoment":1700,"Ġshower":1701,"Ġminutes":1702,"Ġpark":1703,"/~":1704,"67":1705,"aw":1706,"go":1707,"Ġtest":1708,"Ġsign":1709,"ana":1710,"ott":1711,"Ġforget":1712,"Ġheard":1713,"eak":1714,"ult":1715,"Ġheading":1716,"ages":1717,"blip":1718,"Ġphoto":1719,"Ġchocol":1720,"Ġfigure":1721,"ible":1722,"port":1723,"work":1724,"Ġsite":1725,"Ġtold":1726,"Ġlmao":1727,"estion":1728,"ows":1729,"Ġones":1730,"Ġeas":1731,"ters":1732,"Ġlil":1733,"itely":1734,"Ġeng":1735,"Ġraining":1736,"Ġsometimes":1737,"Ġbreakfast":1738,"Ġaccount":1739,"Ġsecond":1740,"fr":1741,"ls":1742,"nd":1743,"oh":1744,"ok":1745,"ves":1746,"ina":1747,"Ġnear":1748,"Ġpub":1749,"Ġdou":1750,"oud":1751,"any":1752,"isod":1753,"Ġemail":1754,"cted":1755,"Ġbless":1756,"oooooooo":1757,"Ġwriting":1758,"Ġwonderful":1759,"Ġtickets":1760,"Ġepisod":1761,"ey":1762,"Ġty":1763,"Ġfly":1764,"Ġlap":1765,"Ġreason":1766,"Ġsleeping":1767,"Ġbring":1768,"Ġ@_":1769,"Ġmonths":1770,"Ġdefinitely":1771,"Ġfavorite":1772,"lol":1773,"Ġnite":1774,"Ġwoo":1775,"Ġbb":1776,"Ġcat":1777,"ane":1778,"ower":1779,"Ġjune":1780,"ici":1781,"Ġgoes":1782,"Ġload":1783,"Ġext":1784,"Ġcomes":1785,"Ġlearn":1786,"Ġsaying":1787,"Ġlaugh":1788,"Ġphotos":1789,"Ġproblem":1790,"dle":1791,"fl":1792,"ib":1793,"oint":1794,"vice":1795,"vies":1796,"ars":1797,"Ġnap":1798,"Ġwater":1799,"als":1800,"Ġpizz":1801,"Ġfast":1802,"aying":1803,"esting":1804,"ops":1805,"Ġseason":1806,"Ġfair":1807,"Ġjoin":1808,"Ġspecial":1809,"Ġcouple":1810,"Ġchocolate":1811,"leep":1812,"ared":1813,"Ġthree":1814,"Ġbought":1815,"Ġfix":1816,"era":1817,"Ġgra":1818,"oup":1819,"ouch":1820,"Ġju":1821,"Ġups":1822,"Ġupload":1823,"ills":1824,"Ġdear":1825,"Ġcomm":1826,"akes":1827,"Ġsore":1828,"Ġleaving":1829,"Ġlucky":1830,"Ġcolle":1831,"fortun":1832,"Ġcele":1833,"hn":1834,"ten":1835,"Ġahh":1836,"Ġsy":1837,"Ġside":1838,"Ġcol":1839,"Ġcup":1840,"read":1841,"Ġjeal":1842,"Ġreg":1843,"Ġmeans":1844,"uring":1845,"Ġ15":1846,"Ġanyway":1847,"Ġcomment":1848,"aaa":1849,"Ġmovies":1850,"Ġcont":1851,"Ġstarted":1852,"Ġsupposed":1853,"lish":1854,"va":1855,"Ġnum":1856,"Ġwake":1857,"Ġband":1858,"Ġtom":1859,"Ġfing":1860,"Ġdang":1861,"ots":1862,"!!!!!":1863,"Ġret":1864,"Ġchick":1865,"Ġseem":1866,"Ġasleep":1867,"Ġmoving":1868,"Ġafterno":1869,"ized":1870,"Ġdrinking":1871,"Ġjealous":1872,"act":1873,"Ġny":1874,"Ġsent":1875,"Ġhon":1876,"uth":1877,"ones":1878,"Ġdam":1879,"Ġcity":1880,"reen":1881,"Ġrepl":1882,"Ġaren":1883,"stand":1884,"Ġblood":1885,"Ġblock":1886,"Ġunfortun":1887,"Ġ30":1888,"Ġwarm":1889,"Ġreply":1890,"Ġapart":1891,"Ġdiffer":1892,"Ġseriously":1893,"gin":1894,"gic":1895,"lic":1896,"oes":1897,"ping":1898,"Ġta":1899,"Ġip":1900,"Ġsam":1901,"Ġmood":1902,"Ġbur":1903,"Ġtoget":1904,"Ġdie":1905,"Ġcream":1906,"Ġyep":1907,"Ġins":1908,"Ġrevis":1909,"Ġste":1910,"Ġsub":1911,"Ġass":1912,"Ġsongs":1913,"Ġpictures":1914,"Ġhuge":1915,"Ġpizza":1916,"Ġafternoon":1917,"ced":1918,"ition":1919,"Ġbud":1920,"Ġps":1921,"Ġppl":1922,"Ġpap":1923,"ont":1924,"Ġdate":1925,"Ġansw":1926,"uss":1927,"Ġ11":1928,"berry":1929,"Ġwrite":1930,"Ġdied":1931,"Ġreading":1932,"Ġunderstand":1933,"Ġgave":1934,"Ġgoogle":1935,"Ġcourse":1936,"Ġlaptop":1937,"Ġtogether":1938,"bum":1939,"gt":1940,"gy":1941,"ipp":1942,"lt":1943,"ng":1944,"Ġ/":1945,"Ġ!!!":1946,"ention":1947,"Ġsim":1948,"Ġwww":1949,"Ġbout":1950,"Ġdue":1951,"Ġcount":1952,"Ġlight":1953,"reci":1954,"Ġind":1955,"Ġuk":1956,"Ġev":1957,"ching":1958,"ames":1959,"Ġweird":1960,"Ġchat":1961,"Ġchance":1962,"Ġ20":1963,"Ġknew":1964,"Ġvote":1965,"Ġwishing":1966,"Ġclub":1967,"Ġsadly":1968,"!!!!!!!!":1969,"Ġdownload":1970,"Ġxd":1971,"ucks":1972,"Ġpics":1973,"Ġinteresting":1974,"Ġtrain":1975,"Ġbroken":1976,"Ġhappened":1977,"Ġcomplete":1978,"Ġipod":1979,"66":1980,"follow":1981,"ied":1982,"ming":1983,"tf":1984,"ense":1985,"Ġive":1986,"Ġmed":1987,"Ġgym":1988,"Ġdress":1989,"Ġcake":1990,"Ġlady":1991,"osing":1992,"llll":1993,"astic":1994,"Ġinv":1995,"Ġwhite":1996,"Ġstra":1997,"Ġstand":1998,"urs":1999,"Ġchang":2000,"Ġ--":2001,"Ġabs":2002,"eeps":2003,"Ġusing":2004,"Ġorder":2005,"Ġfact":2006,"Ġbye":2007,"Ġjohn":2008,"Ġpoint":2009,"ondon":2010,"Ġdriving":2011,"Ġgradu":2012,"ba":2013,"Ġwi":2014,"Ġmmm":2015,"ties":2016,"Ġgard":2017,"Ġcor":2018,"Ġjack":2019,"Ġride":2020,"Ġstre":2021,"Ġsunsh":2022,"Ġcheese":2023,"Ġappreci":2024,"Ġdisapp":2025,"Ġagree":2026,"Ġenjoying":2027,"Ġexams":2028,"Ġcleaning":2029,"Ġsister":2030,"how":2031,"led":2032,"Ġmen":2033,"Ġmile":2034,"Ġmeeting":2035,"Ġhar":2036,"Ġtown":2037,"Ġfreak":2038,"ital":2039,"Ġeff":2040,"Ġref":2041,"ider":2042,"ica":2043,"Ġrather":2044,"Ġwhats":2045,"Ġplus":2046,"ffic":2047,"Ġeverybody":2048,"Ġwishes":2049,"Ġearli":2050,"cially":2051,"Ġhorrible":2052,"Ġliked":2053,"Ġannoy":2054,"air":2055,"ging":2056,"tr":2057,"uk":2058,"uff":2059,"vd":2060,"Ġsal":2061,"Ġms":2062,"Ġthro":2063,"Ġhub":2064,"Ġdist":2065,"Ġcous":2066,"Ġlondon":2067,"Ġstore":2068,"Ġtwee":2069,"Ġalbum":2070,"Ġ100":2071,"Ġoffici":2072,"rown":2073,"Ġstud":2074,"Ġsave":2075,"Ġsmall":2076,"Ġparents":2077,"Ġremind":2078,"Ġjonas":2079,"Ġupset":2080,"Ġanswer":2081,"just":2082,"Ġtal":2083,"Ġna":2084,"Ġbday":2085,"Ġdun":2086,"osh":2087,"ester":2088,"Ġweb":2089,"Ġstory":2090,"Ġworth":2091,"Ġcance":2092,"room":2093,"ump":2094,"Ġvac":2095,"Ġgreen":2096,"Ġwouldn":2097,"Ġproject":2098,"ize":2099,"Ġhold":2100,"Ġwedding":2101,"Ġcongrats":2102,"Ġcelebr":2103,"Ġgarden":2104,"Ġsunshine":2105,"burn":2106,"cle":2107,"now":2108,"ty":2109,"wa":2110,"Ġouch":2111,"Ġner":2112,"Ġwtf":2113,"Ġpur":2114,"Ġpage":2115,"Ġfoot":2116,"ery":2117,"Ġgut":2118,"Ġduring":2119,"Ġcy":2120,"Ġcos":2121,"Ġlu":2122,"lly":2123,"Ġbeer":2124,"Ġran":2125,"Ġshame":2126,"Ġchild":2127,"Ġdepress":2128,"Ġplans":2129,"Ġvo":2130,"Ġexper":2131,"Ġspent":2132,"aking":2133,"Ġneeded":2134,"Ġprof":2135,"Ġsunny":2136,"Ġquestion":2137,"ips":2138,"Ġstarts":2139,"Ġappar":2140,"rrrr":2141,"Ġhanging":2142,"Ġexcept":2143,"Ġpresent":2144,"Ġepisode":2145,"Ġunfortunately":2146,"Ġabsol":2147,"Ġearlier":2148,"10":2149,"bb":2150,"iet":2151,"vid":2152,"well":2153,"xxxx":2154,"Ġtum":2155,"Ġson":2156,"Ġmr":2157,"Ġmass":2158,"Ġbre":2159,"Ġball":2160,"Ġbug":2161,"Ġbott":2162,"Ġpri":2163,"Ġfight":2164,"Ġfab":2165,"Ġdm":2166,"Ġcent":2167,"Ġcre":2168,"Ġohh":2169,"Ġhavent":2170,"ised":2171,"adio":2172,"Ġword":2173,"Ġarri":2174,"illy":2175,"Ġamer":2176,"Ġ200":2177,"ession":2178,"olog":2179,"tweet":2180,"Ġlooked":2181,"Ġquick":2182,"pecially":2183,"Ġdoesnt":2184,"what":2185,"Ġboys":2186,"Ġcamera":2187,"Ġeyes":2188,"Ġthroat":2189,",,":2190,"cy":2191,"cal":2192,"fly":2193,"ml":2194,"mon":2195,"ren":2196,"Ġet":2197,"ara":2198,"Ġnorm":2199,"Ġaust":2200,"Ġwom":2201,"tiv":2202,"tice":2203,"Ġbas":2204,"Ġble":2205,"Ġpay":2206,"Ġpool":2207,"Ġfish":2208,"Ġfire":2209,"Ġgig":2210,"gas":2211,"Ġeach":2212,"Ġmeant":2213,"Ġworst":2214,"Ġwords":2215,"ants":2216,"Ġdeal":2217,"Ġhahahaha":2218,"Ġtrans":2219,"Ġtraffic":2220,"Ġcompany":2221,"opped":2222,"Ġsky":2223,"Ġsurpr":2224,"Ġupdates":2225,"Ġpaper":2226,"Ġabsolute":2227,"09":2228,"bur":2229,"ift":2230,"ron":2231,"Ġsle":2232,"Ġthinks":2233,"Ġbes":2234,"Ġpull":2235,"Ġtouch":2236,"Ġfour":2237,"Ġge":2238,"Ġgen":2239,"Ġdy":2240,"Ġcost":2241,"Ġlat":2242,"Ġposs":2243,"ident":2244,"Ġstress":2245,"Ġnote":2246,"Ġworry":2247,"Ġexp":2248,"Ġexact":2249,"........":2250,"Ġspr":2251,"ular":2252,"Ġcloth":2253,"Ġcons":2254,"Ġshows":2255,"yyy":2256,"Ġplayed":2257,"Ġlonger":2258,"Ġsmile":2259,"Ġbusiness":2260,"Ġmark":2261,"ertain":2262,"Ġmiddle":2263,"Ġrelaxing":2264,"Ġnumber":2265,"Ġrevision":2266,"Ġwife":2267,"Ġapparently":2268,"Ġabsolutely":2269,"av":2270,"ces":2271,"da":2272,"fo":2273,"ience":2274,"mend":2275,"min":2276,"right":2277,"xy":2278,"Ġ>":2279,"Ġq":2280,"Ġï¿½":2281,"ench":2282,"Ġnon":2283,"Ġaud":2284,"Ġmis":2285,"Ġholl":2286,"Ġbag":2287,"Ġbike":2288,"Ġpiss":2289,"Ġpol":2290,"Ġfans":2291,"Ġdro":2292,"Ġdig":2293,"che":2294,"ics":2295,"Ġru":2296,"ille":2297,"ield":2298,"Ġ14":2299,"ards":2300,"Ġblue":2301,"Ġprod":2302,"Ġscreen":2303,"Ġdaught":2304,"Ġwondering":2305,"ails":2306,"Ġrecord":2307,"Ġchillin":2308,"Ġbrothers":2309,"Ġslept":2310,"12":2311,"ned":2312,"par":2313,"tv":2314,"ws":2315,"Ġtues":2316,"Ġnope":2317,"Ġsigh":2318,"Ġmath":2319,"Ġmama":2320,"Ġhug":2321,"alth":2322,"Ġpu":2323,"Ġpop":2324,"Ġfant":2325,"Ġger":2326,"Ġdance":2327,"Ġcop":2328,"Ġob":2329,"eek":2330,"Ġinc":2331,"Ġinde":2332,"used":2333,"Ġrel":2334,"Ġroll":2335,"usted":2336,"Ġloving":2337,"Ġshop":2338,"Ġkick":2339,"Ġate":2340,"Ġtweeting":2341,"Ġalong":2342,"Ġyours":2343,"Ġ25":2344,"rac":2345,"ries":2346,"Ġmomm":2347,"Ġclosed":2348,"Ġsunburn":2349,"Ġbabe":2350,"Ġkey":2351,"Ġupdate":2352,"Ġwindows":2353,"Ġespecially":2354,"Ġvisit":2355,"Ġeasy":2356,"Ġenglish":2357,"Ġcollege":2358,"Ġappreciate":2359,"Ġclothes":2360,"bile":2361,"cast":2362,"ged":2363,"ending":2364,"Ġwine":2365,"Ġbox":2366,"Ġpc":2367,"Ġpower":2368,"Ġcd":2369,"Ġline":2370,"Ġbeat":2371,"Ġjay":2372,"Ġrecom":2373,"Ġsold":2374,"Ġra":2375,"Ġradio":2376,"Ġshall":2377,"Ġshoes":2378,"urch":2379,"Ġworks":2380,"ilight":2381,"Ġimp":2382,"Ġsafe":2383,"resh":2384,"head":2385,"Ġrealized":2386,"Ġboyfriend":2387,"Ġhuh":2388,"Ġdreams":2389,"Ġgift":2390,"Ġchicken":2391,"Ġdisappoint":2392,"Ġhubby":2393,"cr":2394,"fb":2395,"gn":2396,"gar":2397,"nia":2398,"oe":2399,"Ġ0":2400,"Ġ~":2401,"Ġsqu":2402,"Ġwol":2403,"Ġhos":2404,"Ġhum":2405,"Ġben":2406,"Ġbath":2407,"orge":2408,"Ġdire":2409,"Ġlone":2410,"Ġinside":2411,"Ġbeh":2412,"Ġforever":2413,"Ġshirt":2414,"Ġstom":2415,"Ġdoct":2416,"Ġchurch":2417,"Ġworked":2418,"though":2419,"atever":2420,"Ġmach":2421,"Ġ****,":2422,"Ġvid":2423,"Ġexpe":2424,"Ġstick":2425,"Ġuni":2426,"Ġ(:":2427,"Ġself":2428,"ions":2429,"Ġtrack":2430,"ments":2431,"Ġapple":2432,"Ġtrail":2433,"bye":2434,"Ġmoved":2435,"Ġmessage":2436,"Ġproblems":2437,"Ġwalking":2438,"Ġyummy":2439,"Ġcali":2440,"Ġcompletely":2441,"Ġgraduation":2442,"Ġtuesday":2443,"Ġrecommend":2444,"!?":2445,"back":2446,"gan":2447,"mar":2448,"oid":2449,"ster":2450,"ville":2451,"eno":2452,"Ġten":2453,"Ġnor":2454,"Ġnone":2455,"Ġsand":2456,"Ġmatter":2457,"Ġthx":2458,"Ġther":2459,"Ġbooks":2460,"Ġbody":2461,"Ġpea":2462,"orts":2463,"Ġdvd":2464,"Ġlow":2465,"Ġlame":2466,"ayl":2467,"ased":2468,"Ġiss":2469,"Ġum":2470,"Ġmel":2471,"ides":2472,"ican":2473,"Ġrub":2474,"Ġstopped":2475,"Ġhappens":2476,"Ġspeak":2477,"Ġhahah":2478,"Ġphil":2479,"Ġteam":2480,"Ġgroup":2481,"Ġscr":2482,"Ġswine":2483,"Ġdrunk":2484,"ogra":2485,"Ġidk":2486,"Ġcross":2487,"aaaaaaaa":2488,"Ġsingle":2489,"Ġcrying":2490,"Ġbbq":2491,"Ġjuly":2492,"Ġexactly":2493,"Ġlonely":2494,"band":2495,"box":2496,"do":2497,"lin":2498,"ler":2499,"nes":2500,"over":2501,"Ġtast":2502,"Ġmas":2503,"Ġthurs":2504,"Ġpan":2505,"Ġpot":2506,"Ġfill":2507,"Ġdanc":2508,"Ġooh":2509,"Ġposted":2510,"oop":2511,"ada":2512,"cked":2513,"Ġrele":2514,"Ġsouth":2515,"Ġshin":2516,"Ġshare":2517,"Ġfrench":2518,"Ġtwilight":2519,"Ġalthough":2520,"outh":2521,"Ġ24":2522,"Ġsomewhere":2523,"Ġimag":2524,"Ġdem":2525,"Ġvot":2526,"Ġhomework":2527,"Ġsleepy":2528,"Ġscream":2529,"Ġcheer":2530,"Ġprop":2531,"Ġflight":2532,"Ġrainy":2533,"Ġlazy":2534,"eeeee":2535,"Ġdisc":2536,"Ġtaken":2537,"ĠĠĠĠĠĠĠĠ":2538,"Ġbummed":2539,"Ġpacking":2540,"Ġmiles":2541,"Ġwearing":2542,"Ġcongrat":2543,"Ġdifferent":2544,"Ġannoying":2545,"Ġcousin":2546,"Ġhosp":2547,"Ġbehind":2548,"((":2549,"20":2550,"cri":2551,"fer":2552,"Ġvers":2553,"Ġ????":2554,"arch":2555,"Ġnick":2556,"Ġahhh":2557,"Ġmic":2558,"Ġmention":2559,"Ġthrow":2560,"Ġbac":2561,"Ġfre":2562,"Ġcap":2563,"Ġcase":2564,"Ġlad":2565,"itar":2566,"Ġyoung":2567,"Ġmysp":2568,"Ġwhatever":2569,"ided":2570,"ict":2571,"ically":2572,"Ġshes":2573,"Ġkiss":2574,"Ġdoc":2575,"Ġworse":2576,"Ġsugg":2577,"Ġalright":2578,"star":2579,"Ġ****!":2580,"Ġ13":2581,"Ġspell":2582,"Ġmod":2583,"Ġmoon":2584,"mmm":2585,"Ġtech":2586,"Ġbrit":2587,"itty":2588,"Ġquiet":2589,"Ġroad":2590,"Ġothers":2591,"Ġtravel":2592,"Ġstaying":2593,"Ġmessages":2594,"Ġteach":2595,"Ġvegas":2596,"Ġeye":2597,"Ġbrain":2598,"Ġcurr":2599,"Ġpublic":2600,"Ġfingers":2601,"Ġstomach":2602,"Ġpeace":2603,").":2604,".'":2605,"15":2606,"bt":2607,"cess":2608,"fa":2609,"gre":2610,"iv":2611,"mit":2612,"old":2613,"wl":2614,"ya":2615,"Ġtee":2616,"Ġale":2617,"Ġwal":2618,"Ġmich":2619,"Ġtha":2620,"Ġhates":2621,"Ġpal":2622,"Ġpat":2623,"Ġpink":2624,"Ġpie":2625,"Ġfit":2626,"Ġooo":2627,"iter":2628,"owers":2629,"Ġincl":2630,"Ġeh":2631,"Ġjam":2632,"Ġresp":2633,"icle":2634,"icious":2635,"Ġrand":2636,"Ġround":2637,"verine":2638,"unes":2639,"Ġwebs":2640,"Ġgettin":2641,"Ġalot":2642,"Ġanytime":2643,"Ġguitar":2644,"Ġsexy":2645,"Ġclou":2646,"Ġbrought":2647,"Ġscary":2648,"Ġprin":2649,"Ġpray":2650,"Ġstarb":2651,"rrr":2652,"Ġended":2653,"Ġplanning":2654,"Ġsinging":2655,"Ġdesk":2656,"Ġvideos":2657,"Ġsnl":2658,"Ġfailed":2659,"Ġlegs":2660,"Ġfilm":2661,"Ġchrist":2662,"friday":2663,"Ġextra":2664,"Ġofficially":2665,"Ġtalent":2666,"Ġtummy":2667,"Ġfantastic":2668,"Ġcopy":2669,"Ġmachine":2670,"Ġmyspace":2671,"'.":2672,"),":2673,"99":2674,"can":2675,"dom":2676,"ham":2677,"pro":2678,"son":2679,"town":2680,"yle":2681,"ze":2682,"Ġ:/":2683,"Ġtan":2684,"Ġnoooo":2685,"Ġaff":2686,"Ġaint":2687,"Ġahhhh":2688,"Ġmix":2689,"Ġport":2690,"Ġfol":2691,"orn":2692,"Ġgames":2693,"Ġden":2694,"Ġyo":2695,"ays":2696,"lled":2697,"Ġjus":2698,"Ġreco":2699,"Ġmemor":2700,"Ġry":2701,"Ġshar":2702,"Ġshout":2703,"Ġliving":2704,"Ġfront":2705,"Ġsum":2706,"that":2707,"Ġima":2708,"Ġ18":2709,"Ġanyways":2710,"Ġexha":2711,"ulations":2712,"Ġusually":2713,"Ġfollower":2714,"Ġ40":2715,"form":2716,"!!!!!!":2717,"Ġscrew":2718,"Ġswe":2719,"Ġfelt":2720,"000":2721,"Ġbecome":2722,"Ġinterview":2723,"Ġbuild":2724,"Ġcrash":2725,"Ġenjoyed":2726,"Ġexciting":2727,"Ġservice":2728,"Ġmums":2729,"Ġdesign":2730,"Ġdecided":2731,"Ġwednes":2732,"Ġentire":2733,"Ġairport":2734,"Ġavail":2735,"Ġreturn":2736,"Ġluv":2737,"Ġdaughter":2738,"Ġgerman":2739,"Ġdisappointed":2740,"Ġthursday":2741,"Ġhospital":2742,"Ġrandom":2743,"don":2744,"ex":2745,"gd":2746,"here":2747,"ial":2748,"iot":2749,"mp":2750,"men":2751,"mber":2752,"vs":2753,"vious":2754,"Ġ[":2755,"Ġtayl":2756,"Ġsan":2757,"ino":2758,"Ġwaking":2759,"Ġmi":2760,"Ġmu":2761,"Ġmate":2762,"Ġhom":2763,"Ġhes":2764,"Ġhil":2765,"Ġhist":2766,"Ġhanna":2767,"till":2768,"Ġfb":2769,"Ġfat":2770,"Ġfeet":2771,"ern":2772,"Ġdry":2773,"oser":2774,"anne":2775,"Ġyr":2776,"omy":2777,"Ġanim":2778,"ising":2779,"Ġisnt":2780,"ical":2781,"Ġshut":2782,"Ġshot":2783,"Ġdoor":2784,"Ġworried":2785,"Ġgoodbye":2786,"Ġallow":2787,"Ġarea":2788,"Ġyourself":2789,"Ġawe":2790,"Ġvi":2791,"Ġ16":2792,"Ġexpl":2793,"Ġspam":2794,"Ġspace":2795,"Ġblast":2796,"ains":2797,"Ġeveryday":2798,"Ġcover":2799,"Ġque":2800,"Ġscared":2801,"Ġswim":2802,"Ġfeed":2803,"Ġxox":2804,"Ġproud":2805,"pty":2806,"Ġminute":2807,"Ġlately":2808,"Ġclasses":2809,"Ġempty":2810,"Ġsupport":2811,"Ġgiving":2812,"Ġticket":2813,"Ġpaid":2814,"board":2815,"Ġstudying":2816,"Ġvacation":2817,"Ġindeed":2818,"Ġwolverine":2819,"Ġdirect":2820,"Ġwebsite":2821,"Ġstarbucks":2822,"Ġwednesday":2823,"face":2824,"hoo":2825,"iest":2826,"ja":2827,"mys":2828,"nite":2829,"pa":2830,"ped":2831,"ural":2832,"wood":2833,"Ġ??":2834,"Ġnic":2835,"arth":2836,"Ġaut":2837,"Ġwat":2838,"Ġwit":2839,"Ġmam":2840,"Ġhy":2841,"Ġban":2842,"Ġbow":2843,"Ġbri":2844,"Ġbare":2845,"Ġprac":2846,"Ġfresh":2847,"Ġdan":2848,"Ġdark":2849,"Ġcats":2850,"Ġcertain":2851,"Ġlm":2852,"Ġlay":2853,"Ġlose":2854,"ature":2855,"Ġye":2856,"Ġow":2857,"ison":2858,"Ġitunes":2859,"Ġinsp":2860,"Ġele":2861,"Ġegg":2862,"ches":2863,"Ġrequ":2864,"Ġsol":2865,"und":2866,"under":2867,"Ġka":2868,"Ġhealth":2869,"Ġstat":2870,"Ġwash":2871,"Ġmagic":2872,"Ġdeath":2873,"Ġplac":2874,"ume":2875,"Ġval":2876,"Ġvie":2877,"......":2878,".......":2879,"Ġmobile":2880,"Ġmomma":2881,"Ġconta":2882,"Ġconne":2883,"Ġprogr":2884,"Ġfollowed":2885,"fornia":2886,"Ġcalling":2887,"Ġpleas":2888,"Ġsmell":2889,"Ġdisney":2890,"Ġtakes":2891,"Ġdaddy":2892,"Ġ80":2893,"Ġaccident":2894,"Ġdeser":2895,"Ġdrag":2896,"____":2897,"Ġmcfly":2898,"Ġburnt":2899,"Ġchris":2900,"Ġfixed":2901,"Ġnyc":2902,"Ġbloody":2903,"Ġchanged":2904,"Ġstreet":2905,"Ġmiley":2906,"Ġgutted":2907,"ology":2908,"Ġetc":2909,"Ġaustral":2910,"Ġdoctor":2911,"Ġcongratulations":2912,"Ġtaylor":2913,"Ġhistory":2914,"Ġhannah":2915,"Ġprogram":2916,"50":2917,"gu":2918,"iti":2919,"ka":2920,"let":2921,"of":2922,"ole":2923,"ros":2924,"ross":2925,"sm":2926,"sup":2927,"sigh":2928,"tle":2929,"wise":2930,"ena":2931,"arious":2932,"Ġay":2933,"vered":2934,"Ġsense":2935,"ined":2936,"Ġwer":2937,"Ġwall":2938,"Ġmatch":2939,"Ġhrs":2940,"Ġbak":2941,"Ġpig":2942,"Ġpeeps":2943,"ered":2944,"Ġgun":2945,"Ġdent":2946,"Ġdarn":2947,"Ġly":2948,"Ġlam":2949,"Ġyup":2950,"ret":2951,"Ġhav":2952,"Ġug":2953,"Ġoften":2954,"cks":2955,"Ġje":2956,"Ġreview":2957,"idge":2958,"Ġrid":2959,"ung":2960,"unt":2961,"Ġheat":2962,"Ġjustin":2963,"Ġlibr":2964,"Ġdoll":2965,"Ġchin":2966,"Ġchap":2967,"antly":2968,"Ġthanx":2969,"ili":2970,"Ġimpress":2971,"Ġknows":2972,"umbl":2973,"Ġ17":2974,"Ġfeelin":2975,"ulous":2976,"Ġlead":2977,"wwww":2978,"que":2979,"Ġtonite":2980,"oooooo":2981,"Ġcode":2982,"Ġconst":2983,"Ġconvers":2984,"Ġswee":2985,"Ġtrou":2986,"Ġ50":2987,"Ġmins":2988,"Ġkeeps":2989,"Ġkeeping":2990,"Ġhelping":2991,"Ġdavid":2992,"Ġaccess":2993,"Ġinstall":2994,"Ġdogs":2995,"Ġattem":2996,"Ġhands":2997,"Ġcaught":2998,"ushi":2999,"Ġblackberry":3000,"Ġmacbook":3001,"Ġexcell":3002,"Ġcolor":3003,"Ġapartment":3004,"Ġassign":3005,"Ġdunno":3006,"Ġcancelled":3007,"Ġvoice":3008,"Ġlatest":3009,"Ġholly":3010,"Ġproper":3011,"Ġversion":3012,"Ġalex":3013,"Ġavailable":3014,"-)":3015,"45":3016,"bers":3017,"boy":3018,"ca":3019,"fin":3020,"jor":3021,"nal":3022,"rd":3023,"ror":3024,"ux":3025,"Ġver":3026,"Ġsilly":3027,"Ġsushi":3028,"iny":3029,"Ġneck":3030,"Ġneigh":3031,"Ġhee":3032,"Ġhus":3033,"Ġba":3034,"Ġbase":3035,"Ġbgt":3036,"Ġtor":3037,"Ġfive":3038,"Ġgar":3039,"Ġgrow":3040,"Ġgorge":3041,"Ġdeep":3042,"Ġdum":3043,"Ġcell":3044,"Ġlim":3045,"Ġland":3046,"Ġlang":3047,"Ġlosing":3048,"Ġleno":3049,"real":3050,"Ġoops":3051,"omb":3052,"ooth":3053,"Ġange":3054,"Ġint":3055,"Ġinfo":3056,"eted":3057,"Ġevent":3058,"Ġearth":3059,"Ġrece":3060,"Ġsocial":3061,"key":3062,"Ġshift":3063,"pping":3064,"Ġstor":3065,"Ġdoin":3066,"Ġcannot":3067,"Ġtwice":3068,"Ġgotten":3069,"raid":3070,"anda":3071,"Ġvan":3072,"ffff":3073,"Ġnights":3074,"Ġslight":3075,"Ġusual":3076,"Ġcoz":3077,"Ġtex":3078,"play":3079,"Ġbetwe":3080,"Ġafraid":3081,"Ġbrand":3082,"ears":3083,"Ġmont":3084,"Ġrob":3085,"Ġcalls":3086,"Ġacross":3087,"Ġglo":3088,"Ġglass":3089,"eeeeeeee":3090,"Ġages":3091,"els":3092,"Ġbreaking":3093,"Ġchecked":3094,"Ġthru":3095,"ancy":3096,"Ġsuppose":3097,"Ġfavour":3098,"Ġwindow":3099,"Ġcatching":3100,"Ġlikes":3101,"Ġspending":3102,"Ġstrong":3103,"Ġfalling":3104,"Ġfinger":3105,"Ġhonest":3106,"Ġstraight":3107,"Ġnormal":3108,"Ġconsider":3109,"Ġtheres":3110,"ograph":3111,"Ġdancing":3112,"Ġimagine":3113,"Ġcurrently":3114,"Ġexhausted":3115,"Ġgermany":3116,"Ġplaces":3117,"Ġlibrary":3118,"Ġexcellent":3119,"Ġneighb":3120,"Ġgorgeous":3121,"Ġbetween":3122,"!'":3123,"11":3124,"cause":3125,"eas":3126,"hugs":3127,"iff":3128,"mas":3129,"off":3130,"py":3131,"pace":3132,"uce":3133,"zing":3134,"Ġnam":3135,"Ġahaha":3136,"Ġsna":3137,"Ġsale":3138,"Ġsession":3139,"Ġwood":3140,"Ġmist":3141,"Ġthird":3142,"Ġthunder":3143,"Ġhay":3144,"Ġhost":3145,"Ġbal":3146,"Ġboss":3147,"ona":3148,"Ġfml":3149,"oring":3150,"Ġgh":3151,"Ġdat":3152,"oul":3153,"Ġlab":3154,"Ġlaying":3155,"atural":3156,"ann":3157,"Ġyess":3158,"Ġyall":3159,"Ġyah":3160,"Ġbegin":3161,"Ġeast":3162,"Ġroo":3163,"Ġrace":3164,"Ġrich":3165,"Ġlocal":3166,"Ġbutter":3167,"Ġargh":3168,"rog":3169,"Ġ21":3170,"Ġmail":3171,"Ġmajor":3172,"Ġabt":3173,"ested":3174,"Ġanybody":3175,"Ġeverywhere":3176,"Ġorig":3177,"Ġsell":3178,"Ġcouldnt":3179,"Ġmanag":3180,"Ġbright":3181,"Ġsched":3182,"bert":3183,"Ġswear":3184,"Ġfever":3185,"twitter":3186,"Ġflo":3187,"ugust":3188,"Ġlets":3189,"love":3190,"Ġbird":3191,"sss":3192,"Ġhugh":3193,"3333":3194,"Ġdelicious":3195,"Ġturns":3196,"Ġattack":3197,"Ġsending":3198,"Ġbummer":3199,"Ġmilk":3200,"attle":3201,"Ġenter":3202,"Ġgrandma":3203,"uctive":3204,"Ġdouble":3205,"Ġordered":3206,"Ġchildren":3207,"Ġpriv":3208,"Ġarrived":3209,"Ġspring":3210,"Ġpuppy":3211,"Ġcalifornia":3212,"Ġrecover":3213,"Ġallowed":3214,"Ġcontact":3215,"!)":3216,"60":3217,"aven":3218,"car":3219,"cting":3220,"den":3221,"light":3222,"ru":3223,"sk":3224,"some":3225,"yf":3226,"Ġtable":3227,"arm":3228,"Ġiron":3229,"Ġign":3230,"Ġsen":3231,"Ġmrs":3232,"Ġhm":3233,"Ġhall":3234,"Ġhoney":3235,"Ġbc":3236,"Ġbun":3237,"Ġbill":3238,"Ġtopic":3239,"Ġfut":3240,"erg":3241,"Ġdet":3242,"Ġdish":3243,"Ġcud":3244,"Ġlak":3245,"Ġloud":3246,"ato":3247,"esh":3248,"Ġeur":3249,"Ġepic":3250,"Ġjk":3251,"Ġjour":3252,"Ġrip":3253,"Ġlie":3254,"Ġstorm":3255,"ĠĠĠĠĠ":3256,"Ġsucc":3257,"Ġnobody":3258,"happy":3259,"Ġmorn":3260,"Ġ22":3261,"Ġknee":3262,"Ġawful":3263,"Ġimport":3264,"Ġdeck":3265,"Ġvia":3266,"Ġgreg":3267,"Ġwatchin":3268,"Ġjoe":3269,"Ġ:-":3270,"Ġquiz":3271,"Ġcheers":3272,"Ġdrop":3273,"Ġhurting":3274,"Ġthoughts":3275,"Ġdisco":3276,"Ġlived":3277,"Ġtelling":3278,"wards":3279,"ances":3280,"nnn":3281,"Ġkilling":3282,"Ġkilled":3283,"Ġfinals":3284,"Ġcards":3285,"Ġstrange":3286,"Ġblessed":3287,"ippines":3288,"followfriday":3289,"Ġstraw":3290,"Ġfreaking":3291,"Ġexperience":3292,"Ġbottle":3293,"Ġladies":3294,"Ġhilarious":3295,"myspace":3296,"Ġaustralia":3297,"Ġdentist":3298,"Ġfavourite":3299,"13":3300,"14":3301,"af":3302,"ati":3303,"bar":3304,"boo":3305,"bra":3306,"cut":3307,"cing":3308,"down":3309,"fy":3310,"fic":3311,"gue":3312,"hi":3313,"hol":3314,"je":3315,"oc":3316,"ove":3317,"ption":3318,"ric":3319,"sl":3320,"uh":3321,"ule":3322,"vi":3323,"wing":3324,"ware":3325,"enty":3326,"Ġnd":3327,"Ġnails":3328,"arter":3329,"Ġsix":3330,"Ġwra":3331,"Ġwild":3332,"Ġhat":3333,"Ġhugs":3334,"Ġbay":3335,"Ġbang":3336,"Ġpants":3337,"Ġtoast":3338,"Ġff":3339,"Ġfield":3340,"ergy":3341,"Ġdar":3342,"Ġcas":3343,"Ġcoun":3344,"Ġcree":3345,"Ġcred":3346,"Ġcried":3347,"Ġlake":3348,"Ġoct":3349,"Ġohhh":3350,"ites":3351,"itting":3352,"owing":3353,"Ġbell":3354,"Ġuh":3355,"Ġform":3356,"cha":3357,"Ġjen":3358,"Ġjoy":3359,"Ġmex":3360,"Ġkate":3361,"Ġheaven":3362,"Ġstate":3363,"Ġstri":3364,"Ġwashing":3365,"Ġchea":3366,"Ġkno":3367,"Ġash":3368,"coming":3369,"Ġmisses":3370,"Ġdep":3371,"Ġvir":3372,"Ġ19":3373,"ours":3374,"morning":3375,"Ġhowever":3376,"rows":3377,"Ġclosing":3378,"itten":3379,"aches":3380,"Ġscar":3381,"Ġchem":3382,"Ġtrad":3383,"Ġadvice":3384,"Ġflowers":3385,"Ġtweetde":3386,"Ġlaur":3387,"Ġsmooth":3388,"loc":3389,"tics":3390,"Ġfinishing":3391,"aaaaa":3392,"ensive":3393,"Ġstayed":3394,"Ġawwww":3395,"Ġbooked":3396,"Ġadded":3397,"Ġwinter":3398,"they":3399,"Ġsurger":3400,"Ġrocks":3401,"Ġspeed":3402,"yyyyyyyy":3403,"Ġdecis":3404,"Ġmidnight":3405,"Ġsetting":3406,"Ġarticle":3407,"Ġpicked":3408,"itchen":3409,"Ġhmmm":3410,"Ġepisodes":3411,"Ġloads":3412,"ibly":3413,"Ġuploading":3414,"Ġsteve":3415,"Ġdepressing":3416,"Ġprofile":3417,"Ġwomen":3418,"Ġgener":3419,"Ġpossible":3420,"Ġdropped":3421,"Ġtrailer":3422,"Ġnorth":3423,"Ġphilippines":3424,"Ġsuggestion":3425,"Ġtechn":3426,"Ġteeth":3427,"Ġxoxo":3428,"Ġstatus":3429,"Ġweren":3430,"Ġhusband":3431,"Ġprivate":3432,"Ġtweetdeck":3433,"Ġsurgery":3434,"?'":3435,"aur":3436,"atic":3437,"bgt":3438,"dney":3439,"good":3440,"girl":3441,"gif":3442,"ky":3443,"lie":3444,"mr":3445,"mate":3446,"sc":3447,"su":3448,"vo":3449,"wx":3450,"wich":3451,"Ġtur":3452,"Ġtag":3453,"Ġir":3454,"Ġily":3455,"Ġnom":3456,"Ġnah":3457,"Ġaha":3458,"Ġage":3459,"Ġaaa":3460,"Ġaugust":3461,"Ġsoup":3462,"Ġwide":3463,"Ġwoot":3464,"Ġmall":3465,"Ġmatt":3466,"Ġhoo":3467,"uts":3468,"tian":3469,"Ġbf":3470,"Ġbat":3471,"Ġbee":3472,"Ġbother":3473,"Ġpin":3474,"Ġpet":3475,"Ġgas":3476,"Ġgah":3477,"Ġgosh":3478,"Ġlack":3479,"Ġloss":3480,"ator":3481,"Ġoce":3482,"Ġposting":3483,"eez":3484,"Ġital":3485,"using":3486,"Ġecon":3487,"Ġjer":3488,"Ġrice":3489,"verse":3490,"Ġshots":3491,"Ġheh":3492,"Ġstep":3493,"Ġwasnt":3494,"Ġgoodness":3495,"Ġoutta":3496,"Ġchic":3497,"Ġchanne":3498,"Ġsugar":3499,"Ġtweeps":3500,"Ġnotice":3501,"haps":3502,"this":3503,"roll":3504,"stem":3505,"Ġwanting":3506,"Ġdeli":3507,"Ġvict":3508,"Ġ&&":3509,"ists":3510,"Ġtwittering":3511,"Ġhero":3512,"Ġcontin":3513,"Ġshowing":3514,"Ġ:`":3515,"Ġquote":3516,"ucky":3517,"ubs":3518,"Ġadv":3519,"Ġdrinks":3520,"Ġflash":3521,"Ġacce":3522,"Ġbabys":3523,"Ġjobs":3524,"Ġputting":3525,"Ġplanned":3526,"Ġpainting":3527,"Ġholy":3528,"Ġdelay":3529,"Ġturned":3530,"uuuu":3531,"ground":3532,"Ġslowly":3533,"Ġconfused":3534,"Ġterrible":3535,"Ġfigured":3536,"Ġeasier":3537,"Ġdoubt":3538,"Ġsydney":3539,"Ġtax":3540,"Ġbuddy":3541,"Ġdownloaded":3542,"Ġfighting":3543,"Ġpissed":3544,"Ġrelease":3545,"Ġcloudy":3546,"Ġafford":3547,"Ġfolks":3548,"facebook":3549,"Ġbarely":3550,"Ġugly":3551,"Ġconversation":3552,"Ġtrouble":3553,"Ġattempt":3554,"ography":3555,"yfrog":3556,"Ġfuture":3557,"Ġcredit":3558,"))":3559,"25":3560,"40":3561,"68":3562,"::":3563,"`****":3564,"aks":3565,"bed":3566,"cu":3567,"dog":3568,"eg":3569,"fs":3570,"gs":3571,"gie":3572,"gers":3573,"give":3574,"ht":3575,"hin":3576,"ien":3577,"ient":3578,"ium":3579,"kes":3580,"live":3581,"mus":3582,"nl":3583,"nie":3584,"oon":3585,"tumbl":3586,"vous":3587,"Ġut":3588,"Ġos":3589,"Ġess":3590,"arching":3591,"Ġil":3592,"Ġnose":3593,"ended":3594,"Ġahead":3595,"Ġsea":3596,"Ġnet":3597,"Ġmal":3598,"Ġmig":3599,"Ġmouth":3600,"Ġbon":3601,"Ġber":3602,"Ġbatter":3603,"Ġbills":3604,"Ġpm":3605,"Ġpoo":3606,"Ġpress":3607,"Ġpages":3608,"Ġpaying":3609,"ony":3610,"Ġfancy":3611,"ored":3612,"Ġgear":3613,"Ġdnt":3614,"Ġcust":3615,"Ġcough":3616,"Ġlar":3617,"rest":3618,"Ġhavin":3619,"ism":3620,"aster":3621,"Ġonto":3622,"Ġrese":3623,"ids":3624,"ices":3625,"Ġri":3626,"Ġrow":3627,"Ġloc":3628,"Ġking":3629,"Ġkitchen":3630,"Ġbutton":3631,"Ġstock":3632,"Ġcanada":3633,"Ġarm":3634,"illa":3635,"Ġtweep":3636,"Ġalarm":3637,"iling":3638,"Ġawh":3639,"rib":3640,"Ġdev":3641,"ands":3642,"Ġven":3643,"Ġoffer":3644,"Ġgrey":3645,"Ġsem":3646,"Ġfave":3647,"Ġsort":3648,"aps":3649,"ittin":3650,"Ġjoke":3651,"Ġ:|":3652,"Ġbedtime":3653,"Ġscen":3654,"Ġpret":3655,"0000":3656,"Ġflor":3657,"Ġflat":3658,"myloc":3659,"Ġborn":3660,"Ġlaw":3661,"Ġhurry":3662,"new":3663,"Ġtalkin":3664,"eeeeeee":3665,"peti":3666,"Ġdiet":3667,"who":3668,"Ġideas":3669,"Ġcrack":3670,"athan":3671,"Ġperhaps":3672,"ssss":3673,"Ġ;-)":3674,"cohol":3675,"like":3676,"Ġhangover":3677,"Ġemo":3678,"Ġplane":3679,"Ġkeys":3680,"Ġaddic":3681,"Ġmessed":3682,"Ġbuying":3683,"Ġchoose":3684,"Ġsooooo":3685,"Ġdeleted":3686,"Ġgiven":3687,"Ġasking":3688,"Ġ90":3689,"Ġcharac":3690,"kkkk":3691,"Ġcamp":3692,"Ġcooking":3693,"Ġavoid":3694,"Ġjuice":3695,"Ġcountry":3696,"Ġfreakin":3697,"Ġdistra":3698,"Ġcelebrating":3699,"Ġnerd":3700,"Ġdepressed":3701,"Ġexpensive":3702,"Ġmarket":3703,"Ġproductive":3704,"Ġbathroom":3705,"Ġsandwich":3706,"Ġissue":3707,"Ġscratch":3708,"Ġinclud":3709,"Ġrespond":3710,"Ġsharing":3711,"Ġview":3712,"Ġdeserve":3713,"Ġsweetie":3714,"Ġslightly":3715,"Ġseni":3716,"Ġsuccess":3717,"tumblr":3718,"`.":3719,"ael":3720,"bu":3721,"cin":3722,"core":3723,"cakes":3724,"ders":3725,"fg":3726,"file":3727,"gree":3728,"hop":3729,"king":3730,"lies":3731,"mom":3732,"miss":3733,"pol":3734,"still":3735,"vr":3736,"vy":3737,"wr":3738,"wor":3739,"word":3740,"Ġ???":3741,"Ġtit":3742,"Ġtix":3743,"Ġtgif":3744,"veral":3745,"Ġsar":3746,"Ġsus":3747,"Ġsir":3748,"inal":3749,"ints":3750,"Ġneither":3751,"Ġwo":3752,"Ġwis":3753,"Ġwii":3754,"Ġmart":3755,"Ġhook":3756,"Ġtoy":3757,"Ġfather":3758,"ero":3759,"org":3760,"Ġdc":3761,"Ġder":3762,"Ġdread":3763,"Ġci":3764,"Ġtheat":3765,"Ġyu":3766,"Ġyork":3767,"reme":3768,"Ġodd":3769,"itter":3770,"ety":3771,"ette":3772,"Ġbear":3773,"Ġwhoo":3774,"Ġreach":3775,"Ġretweet":3776,"Ġsoci":3777,"Ġgold":3778,"Ġgolf":3779,"Ġring":3780,"ustr":3781,"ami":3782,"Ġko":3783,"Ġkitty":3784,"Ġheyy":3785,"Ġatl":3786,"Ġwaste":3787,"Ġarms":3788,"illion":3789,"Ġworkin":3790,"Ġnowhere":3791,"Ġalcohol":3792,"asty":3793,"iles":3794,"Ġsomebody":3795,"Ġsomehow":3796,"Ġbackground":3797,"Ġdevel":3798,"nation":3799,"tions":3800,"Ġspread":3801,"moro":3802,"Ġblah":3803,"Ġlear":3804,"Ġlevel":3805,"Ġunless":3806,"Ġuncle":3807,"Ġtons":3808,"Ġsaving":3809,"Ġcoast":3810,"Ġbadly":3811,"Ġenergy":3812,"ape":3813,"Ġshouldn":3814,"Ġ:]":3815,"!!!!!!!":3816,"ago":3817,"Ġprice":3818,"ured":3819,"Ġdrum":3820,"Ġflick":3821,"ugg":3822,"Ġgirlfriend":3823,"Ġsmh":3824,"Ġfinding":3825,"Ġinterested":3826,"Ġotherwise":3827,"Ġhella":3828,"Ġbuff":3829,"gged":3830,"hahaha":3831,"Ġmary":3832,"Ġmarath":3833,"?!?!":3834,"Ġpartying":3835,"Ġcraving":3836,"Ġskin":3837,"Ġmostly":3838,"Ġemp":3839,"uzz":3840,"Ġcleaned":3841,"Ġasked":3842,"Ġsecret":3843,"Ġholidays":3844,"Ġremembered":3845,"Ġpacked":3846,"Ġannoun":3847,"Ġdiffic":3848,"Ġpassed":3849,"Ġfellow":3850,"Ġengland":3851,"Ġnearly":3852,"Ġlaughed":3853,"Ġdifference":3854,"Ġinsane":3855,"ipping":3856,"Ġsimple":3857,"Ġevil":3858,"Ġtraining":3859,"Ġmsn":3860,"Ġnervous":3861,"Ġquestions":3862,"Ġmassage":3863,"Ġfabulous":3864,"Ġamerica":3865,"Ġbesides":3866,"Ġfourth":3867,"Ġobvious":3868,"Ġincred":3869,"Ġmommies":3870,"Ġexpected":3871,"Ġcrossed":3872,"Ġtaste":3873,"Ġshining":3874,"Ġbacon":3875,"Ġoooh":3876,"Ġmemories":3877,"Ġryan":3878,"Ġsweat":3879,"Ġpractice":3880,"Ġlmfa":3881,"Ġinspir":3882,"Ġchinese":3883,"Ġbaseball":3884,"Ġlangu":3885,"Ġlakers":3886,"Ġchannel":3887,"',":3888,"22":3889,"ai":3890,"bish":3891,"break":3892,"cent":3893,"cer":3894,"dra":3895,"fit":3896,"fox":3897,"gl":3898,"ho":3899,"jb":3900,"jo":3901,"lu":3902,"nic":3903,"oft":3904,"pack":3905,"ris":3906,"uly":3907,"via":3908,"wish":3909,"wars":3910,"Ġ^":3911,"Ġtut":3912,"Ġtat":3913,"Ġtis":3914,"Ġtab":3915,"Ġtiny":3916,"Ġaim":3917,"Ġain":3918,"Ġsig":3919,"Ġsym":3920,"ination":3921,"Ġwk":3922,"Ġmer":3923,"Ġmat":3924,"Ġthom":3925,"Ġbull":3926,"Ġbrown":3927,"Ġpj":3928,"Ġpad":3929,"Ġpill":3930,"Ġfur":3931,"Ġfully":3932,"orious":3933,"Ġgam":3934,"Ġgro":3935,"Ġgoooo":3936,"Ġgoss":3937,"Ġdut":3938,"Ġdom":3939,"Ġdub":3940,"Ġcin":3941,"Ġcir":3942,"Ġcab":3943,"Ġlon":3944,"anks":3945,"Ġposts":3946,"ito":3947,"Ġang":3948,"ises":3949,"Ġitem":3950,"ushing":3951,"usion":3952,"Ġuna":3953,"Ġjim":3954,"Ġjun":3955,"Ġrepe":3956,"Ġmeal":3957,"Ġrent":3958,"Ġrose":3959,"Ġshoo":3960,"Ġship":3961,"Ġshoot":3962,"Ġkay":3963,"Ġweight":3964,"Ġlif":3965,"Ġstack":3966,"Ġstyle":3967,"Ġatm":3968,"ury":3969,"Ġarch":3970,"Ġupgr":3971,"Ġsux":3972,"Ġsuff":3973,"Ġnotic":3974,"Ġalas":3975,"rol":3976,"Ġ26":3977,"ished":3978,"ils":3979,"sey":3980,"Ġasap":3981,"Ġdeb":3982,"Ġdece":3983,"Ġpls":3984,"Ġplenty":3985,"Ġanywhere":3986,"Ġspot":3987,"ults":3988,"Ġmotiv":3989,"Ġblank":3990,"Ġunf":3991,"ounds":3992,"Ġtwitters":3993,"Ġseat":3994,"Ġsearch":3995,"Ġseattle":3996,"Ġclick":3997,"Ġcloser":3998,"ooooo":3999,"Ġcond":4000,"Ġconvin":4001,"Ġprocess":4002,"Ġagainst":4003,"Ġquit":4004,"Ġroast":4005,"Ġheaded":4006,"Ġdowntown":4007,"Ġcars":4008,"Ġswitch":4009,"Ġprint":4010,"Ġpraying":4011,"Ġsucked":4012,"Ġlaund":4013,"Ġletting":4014,"Ġsmart":4015,"Ġfridays":4016,"pect":4017,"Ġidiot":4018,"Ġcrush":4019,"Ġperform":4020,"Ġmarried":4021,"Ġdaily":4022,"Ġ.....":4023,"Ġserver":4024,"ossible":4025,"Ġmush":4026,"Ġsitu":4027,"Ġdads":4028,"life":4029,"Ġboot":4030,"Ġrestaur":4031,"Ġteaching":4032,"Ġreport":4033,"ctions":4034,"Ġ$$":4035,"Ġcavs":4036,"Ġhorse":4037,"Ġpati":4038,"apps":4039,"Ġvet":4040,"Ġlesson":4041,"Ġboard":4042,"ikes":4043,"Ġcookie":4044,"Ġcookies":4045,"Ġpromise":4046,"Ġmcdon":4047,"Ġburned":4048,"Ġemails":4049,"Ġtype":4050,"Ġlaughing":4051,"Ġjoined":4052,"Ġsystem":4053,"Ġreplies":4054,"Ġreplace":4055,"Ġreplied":4056,"Ġblocked":4057,"airs":4058,"Ġsalad":4059,"Ġofficial":4060,"Ġstudent":4061,"Ġreminds":4062,"Ġpresentation":4063,"Ġamerican":4064,"Ġnormally":4065,"Ġwoman":4066,"Ġbasically":4067,"Ġhahahahaha":4068,"Ġsurprise":4069,"Ġissues":4070,"Ġvoting":4071,"Ġdiscuss":4072,"Ġdesktop":4073,"Ġbuilding":4074,"Ġswimming":4075,"Ġmistake":4076,"Ġfloor":4077,"Ġimportant":4078,"Ġcheap":4079,"Ġsuggestions":4080,"Ġchicago":4081,"Ġ:`(":4082,"Ġdevelop":4083,"Ġnoticed":4084,"Ġlaundry":4085,"Ġmcdonal":4086,"07":4087,"ative":4088,"bre":4089,"bay":4090,"dr":4091,"gb":4092,"gm":4093,"ius":4094,"kot":4095,"look":4096,"lves":4097,"mart":4098,"may":4099,"mark":4100,"ns":4101,"pting":4102,"rie":4103,"sg":4104,"sn":4105,"was":4106,"yi":4107,"zer":4108,"eness":4109,"Ġtips":4110,"imp":4111,"Ġsi":4112,"Ġsil":4113,"Ġsour":4114,"Ġnetw":4115,"Ġwest":4116,"Ġwif":4117,"Ġment":4118,"Ġmot":4119,"Ġmouse":4120,"Ġmount":4121,"Ġmike":4122,"Ġhills":4123,"tis":4124,"Ġbff":4125,"Ġbub":4126,"Ġtow":4127,"Ġtooth":4128,"Ġtough":4129,"Ġfyi":4130,"ering":4131,"Ġgir":4132,"Ġdj":4133,"Ġcu":4134,"Ġcoo":4135,"Ġcine":4136,"Ġlin":4137,"Ġlas":4138,"Ġliter":4139,"athe":4140,"Ġyrs":4141,"Ġoven":4142,"Ġoper":4143,"lll":4144,"eds":4145,"Ġanna":4146,"Ġangry":4147,"Ġhah":4148,"Ġhaw":4149,"asing":4150,"ett":4151,"Ġummm":4152,"Ġforgive":4153,"ades":4154,"Ġew":4155,"Ġequ":4156,"chy":4157,"Ġjb":4158,"Ġjes":4159,"Ġjud":4160,"Ġjosh":4161,"ida":4162,"iding":4163,"Ġros":4164,"Ġrude":4165,"tered":4166,"una":4167,"unity":4168,"Ġkar":4169,"Ġstates":4170,"Ġnotes":4171,"Ġfru":4172,"Ġfrustr":4173,"illed":4174,"ttt":4175,"Ġsubs":4176,"Ġlikely":4177,"Ġhappiness":4178,"Ġmax":4179,"Ġmain":4180,"Ġawards":4181,"raine":4182,"Ġdegree":4183,"eels":4184,"Ġvol":4185,"Ġvirt":4186,"ests":4187,"Ġexist":4188,"Ġcompeti":4189,"aaay":4190,"Ġspo":4191,"morow":4192,"aked":4193,"Ġtwitpic":4194,"Ġusa":4195,"Ġguil":4196,"Ġhasn":4197,"Ġcock":4198,"mme":4199,"Ġphys":4200,"Ġlookin":4201,"Ġteen":4202,"Ġtemp":4203,"ploy":4204,"Ġtheme":4205,"Ġquot":4206,"Ġrofl":4207,"Ġscore":4208,"Ġswed":4209,"Ġplayer":4210,"Ġprefer":4211,"Ġadam":4212,"Ġadmit":4213,"Ġdrank":4214,"Ġsometime":4215,"Ġears":4216,"Ġappear":4217,"Ġwrote":4218,"Ġsmok":4219,"Ġstarving":4220,"Ġbabies":4221,"Ġmini":4222,"Ġhardly":4223,"Ġhotel":4224,"ggg":4225,"Ġexcuse":4226,"ship":4227,"Ġrealize":4228,"elle":4229,"Ġchecking":4230,"Ġkidding":4231,"Ġdave":4232,"?!?":4233,"Ġclear":4234,"ocked":4235,"Ġtreat":4236,"Ġpainful":4237,"Ġtotal":4238,"Ġchoice":4239,"Ġsurv":4240,"Ġupdated":4241,"Ġattention":4242,"Ġpaul":4243,"Ġliking":4244,"Ġentertain":4245,"Ġbraz":4246,"fortable":4247,"Ġtermin":4248,"Ġlearned":4249,"Ġcollection":4250,"Ġrevising":4251,"Ġbudget":4252,"Ġsims":4253,"llllllll":4254,"Ġinvol":4255,"Ġstanding":4256,"Ġmmmm":4257,"Ġcousins":4258,"Ġtweetie":4259,"Ġstudio":4260,"Ġcelebrate":4261,"Ġmassive":4262,"Ġbottom":4263,"Ġcenter":4264,"Ġpulled":4265,"Ġdye":4266,"Ġstressed":4267,"Ġmiser":4268,"Ġpopular":4269,"Ġimpossible":4270,"Ġdemi":4271,"Ġmicros":4272,"Ġteacher":4273,"Ġpalm":4274,"Ġpiece":4275,"profile":4276,"Ġyeh":4277,"Ġchristian":4278,"Ġgunna":4279,"Ġimpressed":4280,"Ġmanaged":4281,"Ġschedule":4282,"Ġeurope":4283,"Ġocean":4284,"Ġbattery":4285,"Ġcustom":4286,"Ġawhile":4287,"Ġtitle":4288,"Ġwisdom":4289,"Ġtheatre":4290,"Ġlearning":4291,"Ġdifficult":4292,"Ġgossip":4293,"Ġnetwork":4294,"05":4295,"18":4296,"24":4297,"200":4298,"48":4299,"84":4300,"aff":4301,"again":4302,"cake":4303,"cup":4304,"did":4305,"een":4306,"fc":4307,"fing":4308,"fol":4309,"ges":4310,"http":4311,"jc":4312,"lm":4313,"lan":4314,"list":4315,"lake":4316,"mb":4317,"mins":4318,"ni":4319,"nam":4320,"natural":4321,"ober":4322,"po":4323,"phe":4324,"si":4325,"she":4326,"yea":4327,"Ġest":4328,"Ġtar":4329,"Ġtes":4330,"Ġtong":4331,"Ġtree":4332,"Ġtac":4333,"Ġnat":4334,"Ġnoo":4335,"Ġnug":4336,"Ġnooo":4337,"imb":4338,"ender":4339,"arts":4340,"Ġace":4341,"Ġss":4342,"Ġsens":4343,"Ġsittin":4344,"Ġwet":4345,"Ġwats":4346,"Ġmir":4347,"Ġmul":4348,"Ġmeeee":4349,"Ġthum":4350,"Ġhd":4351,"Ġbound":4352,"Ġbah":4353,"Ġbunch":4354,"Ġbugs":4355,"Ġpen":4356,"Ġpour":4357,"Ġpanc":4358,"Ġpush":4359,"Ġpump":4360,"erence":4361,"ores":4362,"Ġgeek":4363,"Ġdh":4364,"Ġdu":4365,"Ġdiss":4366,"Ġdies":4367,"Ġcow":4368,"Ġcher":4369,"Ġcast":4370,"Ġcash":4371,"Ġcakes":4372,"Ġloo":4373,"Ġlinks":4374,"ano":4375,"anut":4376,"Ġyard":4377,"Ġopp":4378,"lla":4379,"ita":4380,"omet":4381,"esy":4382,"edy":4383,"eday":4384,"edic":4385,"Ġank":4386,"Ġmyster":4387,"ask":4388,"Ġbelly":4389,"Ġbecoming":4390,"Ġult":4391,"Ġfore":4392,"Ġforum":4393,"ado":4394,"ched":4395,"chester":4396,"Ġjap":4397,"Ġsoft":4398,"Ġrom":4399,"Ġrout":4400,"Ġrach":4401,"Ġlog":4402,"amps":4403,"pper":4404,"Ġstalk":4405,"Ġsteak":4406,"Ġwore":4407,"Ġfrank":4408,"irts":4409,"Ġarg":4410,"Ġgoodmorning":4411,"Ġchi":4412,"Ġchest":4413,"Ġworkout":4414,"Ġsuit":4415,"have":4416,"anta":4417,"Ġgots":4418,"Ġmag":4419,"iled":4420,"Ġtimber":4421,"Ġawsome":4422,"ston":4423,"stop":4424,"rah":4425,"Ġaswell":4426,"compl":4427,"andy":4428,"Ġplz":4429,"ument":4430,"allen":4431,"Ġhadn":4432,"aby":4433,"igg":4434,"Ġgreet":4435,"Ġsports":4436,"Ġfunn":4437,"Ġfuner":4438,"Ġusb":4439,"Ġorange":4440,"Ġsearching":4441,"Ġcla":4442,"Ġclos":4443,"Ġfault":4444,"Ġgreatest":4445,"mmmm":4446,"Ġtele":4447,"Ġtears":4448,"Ġwaitin":4449,"ode":4450,"Ġgrr":4451,"Ġgross":4452,"Ġheads":4453,"Ġweekends":4454,"berries":4455,"Ġscri":4456,"Ġcarry":4457,"Ġfem":4458,"Ġxbox":4459,"Ġschools":4460,"Ġadop":4461,"Ġsomeday":4462,"Ġhimself":4463,"Ġmakin":4464,"Ġaction":4465,"izing":4466,"Ġparts":4467,"Ġpartic":4468,"Ġthankyou":4469,"Ġapps":4470,"Ġglorious":4471,"Ġtalked":4472,"lock":4473,"Ġbigger":4474,"why":4475,"gets":4476,"eless":4477,"Ġlives":4478,"bles":4479,"bled":4480,"blog":4481,"Ġbroad":4482,"Ġmondays":4483,"Ġ60":4484,"Ġseries":4485,"ashed":4486,"Ġhangin":4487,"Ġpaint":4488,"Ġzomb":4489,"Ġhappening":4490,"ifts":4491,"Ġadding":4492,"ddd":4493,"333":4494,"Ġsnack":4495,"Ġattend":4496,"iii":4497,"Ġdecide":4498,"Ġsisters":4499,"Ġlessons":4500,"Ġboom":4501,"Ġrelative":4502,"irty":4503,"web":4504,"attoo":4505,"Ġhehehe":4506,"Ġresults":4507,"Ġdraw":4508,"Ġterm":4509,"Ġflying":4510,"Ġwoop":4511,"Ġextreme":4512,"Ġuploaded":4513,"Ġcomments":4514,"Ġblocks":4515,"Ġsteph":4516,"Ġsubject":4517,"Ġindian":4518,"Ġchatting":4519,"Ġinvite":4520,"Ġchanging":4521,"Ġcorre":4522,"Ġannoyed":4523,"Ġtweeters":4524,"Ġcanceled":4525,"Ġfootball":4526,"Ġprofession":4527,"xxxxxxxx":4528,"Ġaustin":4529,"Ġskype":4530,"Ġsurprised":4531,"bury":4532,"Ġdying":4533,"Ġpossibly":4534,"Ġaudio":4535,"Ġdrove":4536,"Ġsunburnt":4537,"Ġrubbish":4538,"Ġvoted":4539,"ĠĠĠĠĠĠĠĠĠĠĠĠĠĠĠĠ":4540,"Ġkisses":4541,"Ġmichael":4542,"Ġchristmas":4543,"Ġmiami":4544,"Ġanimal":4545,"Ġbowling":4546,"Ġeggs":4547,"Ġhealthy":4548,"Ġpleasure":4549,"Ġchapter":4550,"Ġassignment":4551,"Ġproperly":4552,"Ġtexas":4553,"Ġglasses":4554,"Ġconsidering":4555,"Ġrecovering":4556,"Ġbunny":4557,"Ġdetails":4558,"Ġmornin":4559,"Ġoctober":4560,"Ġmexican":4561,"Ġitalian":4562,"music":4563,"Ġessay":4564,"Ġresearch":4565,"Ġincluding":4566,"Ġmarathon":4567,"Ġlanguage":4568,"Ġthomas":4569,"Ġsituation":4570,"Ġmcdonalds":4571,"kotb":4572,"Ġmotor":4573,"Ġliterally":4574,"Ġsurvive":4575,"Ġbrazil":4576,"Ġmicrosoft":4577,"Ġjapan":4578,"!...":4579,".!":4580,".)":4581,"17":4582,"19":4583,"26":4584,"90":4585,"95":4586,"?)":4587,"bad":4588,"bod":4589,"cam":4590,"cise":4591,"camp":4592,"carter":4593,"di":4594,"dam":4595,"dies":4596,"ees":4597,"every":4598,"far":4599,"fire":4600,"fail":4601,"field":4602,"gen":4603,"gon":4604,"hee":4605,"hrs":4606,"hope":4607,"iam":4608,"ians":4609,"jg":4610,"jj":4611,"jam":4612,"jud":4613,"kr":4614,"ked":4615,"nit":4616,"ners":4617,"ob":4618,"oom":4619,"ring":4620,"ray":4621,"sv":4622,"see":4623,"too":4624,"tra":4625,"uct":4626,"uise":4627,"with":4628,"watch":4629,"youtube":4630,"zen":4631,"zine":4632,"~~":4633,"xxx":4634,"ened":4635,"Ġtire":4636,"Ġtip":4637,"Ġtattoo":4638,"Ġii":4639,"Ġnut":4640,"Ġnood":4641,"Ġnoooooooo":4642,"Ġnasty":4643,"imate":4644,"ends":4645,"Ġache":4646,"Ġsf":4647,"Ġsry":4648,"Ġsara":4649,"Ġsoul":4650,"inting":4651,"Ġwand":4652,"Ġwire":4653,"Ġmow":4654,"Ġmuff":4655,"Ġmtv":4656,"Ġhr":4657,"Ġhw":4658,"Ġhill":4659,"alo":4660,"ality":4661,"Ġbk":4662,"Ġbost":4663,"Ġboooo":4664,"Ġbass":4665,"Ġbooo":4666,"Ġbio":4667,"Ġbones":4668,"Ġpod":4669,"Ġpix":4670,"Ġpills":4671,"oned":4672,"Ġtoe":4673,"Ġtodd":4674,"Ġfo":4675,"Ġfake":4676,"Ġfaster":4677,"oria":4678,"Ġgd":4679,"Ġgt":4680,"Ġgrown":4681,"Ġdest":4682,"Ġlis":4683,"Ġlic":4684,"Ġlord":4685,"Ġloser":4686,"atar":4687,"Ġyell":4688,"reed":4689,"Ġoz":4690,"Ġohhhh":4691,"Ġocc":4692,"gage":4693,"itor":4694,"Ġanth":4695,"Ġham":4696,"asg":4697,"Ġandy":4698,"ether":4699,"lyn":4700,"Ġish":4701,"Ġisland":4702,"Ġbey":4703,"Ġforced":4704,"Ġell":4705,"Ġeight":4706,"Ġebay":4707,"cky":4708,"cket":4709,"chool":4710,"Ġjess":4711,"Ġjump":4712,"least":4713,"Ġwhether":4714,"Ġmem":4715,"idence":4716,"Ġsober":4717,"icy":4718,"Ġren":4719,"Ġram":4720,"Ġrough":4721,"Ġrite":4722,"Ġrac":4723,"Ġlov":4724,"Ġlocked":4725,"Ġshud":4726,"Ġheal":4727,"Ġheav":4728,"Ġstream":4729,"Ġsteal":4730,"Ġatleast":4731,"Ġworries":4732,"Ġfrog":4733,"irm":4734,"Ġchina":4735,"Ġchips":4736,"Ġsudd":4737,"Ġtwist":4738,"haw":4739,"Ġtool":4740,"Ġ23":4741,"Ġ27":4742,"ief":4743,"iel":4744,"Ġknight":4745,"ility":4746,"Ġimma":4747,"riage":4748,"Ġabove":4749,"essed":4750,"Ġknown":4751,"Ġmission":4752,"Ġdegre":4753,"Ġplant":4754,"Ġplug":4755,"Ġplurk":4756,"Ġvs":4757,"Ġvin":4758,"Ġvill":4759,"Ġvanc":4760,"arded":4761,"olen":4762,"Ġcomedy":4763,"ollen":4764,"Ġhopes":4765,"Ġspl":4766,"Ġspin":4767,"Ġspider":4768,"ules":4769,"Ġmode":4770,"Ġhows":4771,"Ġblame":4772,"Ġuseless":4773,"ained":4774,"Ġ()":4775,"Ġsept":4776,"Ġclue":4777,"Ġcoach":4778,"Ġcovered":4779,"Ġphilly":4780,"Ġtease":4781,"fection":4782,"Ġbeta":4783,"Ġmanchester":4784,"Ġbrad":4785,"ford":4786,"Ġgray":4787,"Ġgrrr":4788,"Ġ::":4789,"Ġafterwards":4790,"!!!!!!!!!":4791,"Ġheadaches":4792,"ipe":4793,"Ġswollen":4794,"Ġtruck":4795,"Ġtruth":4796,"Ġtrending":4797,"Ġtruly":4798,"Ġxo":4799,"Ġprem":4800,"uel":4801,"Ġdrama":4802,"Ġbecame":4803,"Ġrains":4804,"Ġthankful":4805,"Ġpoints":4806,"Ġurl":4807,"Ġurgh":4808,"Ġwrk":4809,"need":4810,"Ġstars":4811,"Ġfeelings":4812,"eeeeee":4813,"when":4814,"phones":4815,"tical":4816,"oooh":4817,"Ġughhh":4818,"Ġbuzz":4819,"Ġcris":4820,"Ġhelps":4821,"Ġfamous":4822,"Ġrealised":4823,"Ġlistened":4824,"Ġdriver":4825,"Ġhunting":4826,"Ġhaircut":4827,"spot":4828,"Ġbelong":4829,"Ġmeaning":4830,"Ġgives":4831,"Ġkept":4832,"Ġkelly":4833,"Ġsupernatural":4834,"ific":4835,"Ġaddress":4836,"Ġwinning":4837,"Ġdesp":4838,"Ġsoooooo":4839,"Ġgiant":4840,"Ġrocked":4841,"Ġupdating":4842,"Ġcharge":4843,"Ġhandle":4844,"Ġcafe":4845,"Ġblogging":4846,"Ġediting":4847,"zzz":4848,"atty":4849,"Ġgrandpar":4850,"Ġopening":4851,"Ġerr":4852,"Ġconference":4853,"Ġvisiting":4854,"Ġcourt":4855,"Ġparking":4856,"Ġseconds":4857,"Ġwoohoo":4858,"ointment":4859,"Ġjoining":4860,"Ġcupcakes":4861,"Ġbands":4862,"Ġdammit":4863,"Ġburr":4864,"Ġsubway":4865,"Ġpsy":4866,"Ġmedic":4867,"Ġeffect":4868,"Ġbreath":4869,"tivity":4870,"Ġsurprising":4871,"Ġbags":4872,"Ġpolice":4873,"Ġrule":4874,"Ġruined":4875,"Ġ140":4876,"Ġincre":4877,"Ġkeyboard":4878,"Ġexpect":4879,"Ġfilled":4880,"Ġscreaming":4881,"Ġmodel":4882,"Ġwalmart":4883,"Ġclouds":4884,"Ġportfol":4885,"Ġscrewed":4886,"Ġcrashed":4887,"Ġcertainly":4888,"Ġconnection":4889,"Ġbaked":4890,"Ġjeff":4891,"Ġinstalled":4892,"Ġassignments":4893,"Ġgarage":4894,"Ġdumb":4895,"Ġlimit":4896,"Ġangels":4897,"Ġreceive":4898,"Ġtexting":4899,"Ġmontana":4900,"Ġhonestly":4901,"Ġbeginning":4902,"Ġoriginal":4903,"Ġcontacts":4904,"Ġdishes":4905,"Ġstrawberries":4906,"Ġdecision":4907,"Ġdelayed":4908,"Ġflorida":4909,"Ġwoken":4910,"Ġobviously":4911,"Ġlmfao":4912,"Ġ^^":4913,"Ġdecember":4914,"Ġcondition":4915,"Ġrestaurant":4916,"Ġsubscri":4917,"Ġtongue":4918,"Ġtimberlake":4919,"Ġextremely":4920,"Ġboston":4921,"Ġsudden":4922,"Ġgrandparents":4923,"Ġportfolio":4924,"16":4925,"38":4926,"80":4927,"88":4928,"away":4929,"bk":4930,"bea":4931,"bud":4932,"books":4933,"bby":4934,"cs":4935,"cery":4936,"des":4937,"gi":4938,"gun":4939,"gra":4940,"gest":4941,"hen":4942,"han":4943,"hip":4944,"house":4945,"hears":4946,"ij":4947,"iod":4948,"jk":4949,"ko":4950,"kin":4951,"ker":4952,"ket":4953,"luck":4954,"mc":4955,"pg":4956,"part":4957,"pre":4958,"ql":4959,"round":4960,"uum":4961,"val":4962,"vise":4963,"walk":4964,"xd":4965,"yr":4966,"enz":4967,"ency":4968,"Ġtight":4969,"Ġtun":4970,"Ġtmr":4971,"Ġic":4972,"Ġilove":4973,"Ġnail":4974,"Ġnurs":4975,"Ġaz":4976,"Ġaun":4977,"Ġaaaa":4978,"Ġsway":4979,"Ġsang":4980,"ini":4981,"Ġnephe":4982,"Ġwise":4983,"Ġmunch":4984,"Ġmitch":4985,"Ġmillion":4986,"Ġht":4987,"Ġhen":4988,"Ġhul":4989,"ution":4990,"tit":4991,"aly":4992,"Ġbi":4993,"Ġbs":4994,"Ġbrew":4995,"Ġbread":4996,"Ġbrows":4997,"Ġpit":4998,"Ġpity":4999,"Ġtooo":5000,"Ġtoys":5001,"Ġfool":5002,"Ġfash":5003,"Ġfox":5004,"Ġfold":5005,"Ġging":5006,"Ġgifts":5007,"Ġdre":5008,"oups":5009,"Ġcart":5010,"Ġcri":5011,"Ġcrow":5012,"Ġcass":5013,"Ġcub":5014,"Ġcore":5015,"Ġcable":5016,"Ġcnt":5017,"Ġcult":5018,"..?":5019,"rey":5020,"gazine":5021,"oof":5022,"Ġyoure":5023,"Ġinf":5024,"Ġinfection":5025,"uses":5026,"eta":5027,"eth":5028,"Ġforce":5029,"Ġeww":5030,"change":5031,"Ġjr":5032,"Ġjum":5033,"Ġjail":5034,"Ġwhis":5035,"Ġrehears":5036,"Ġsof":5037,"Ġsoph":5038,"Ġsocc":5039,"Ġsocks":5040,"Ġrate":5041,"Ġrum":5042,"usting":5043,"Ġlock":5044,"Ġlovin":5045,"Ġlogic":5046,"Ġsher":5047,"Ġdayy":5048,"Ġheck":5049,"ppin":5050,"pppp":5051,"Ġwithin":5052,"Ġliver":5053,"Ġstok":5054,"Ġwassup":5055,"Ġfries":5056,"Ġfrance":5057,"Ġcancer":5058,"Ġarr":5059,"Ġoutfit":5060,"cel":5061,"Ġchip":5062,"Ġchili":5063,"tttt":5064,"hake":5065,"thanks":5066,"Ġ->":5067,"Ġ__":5068,"Ġamy":5069,"iece":5070,"issy":5071,"ste":5072,"Ġimo":5073,"Ġimac":5074,"Ġ****...":5075,"Ġknowing":5076,"Ġdemo":5077,"Ġvent":5078,"Ġexer":5079,"hhhhh":5080,"Ġcomfortable":5081,"Ġslee":5082,"Ġblip":5083,"Ġblond":5084,"Ġunited":5085,"ista":5086,"Ġeverytime":5087,"Ġgud":5088,"Ġseveral":5089,"Ġclimb":5090,"Ġsorted":5091,"Ġstubb":5092,"inda":5093,"Ġsaus":5094,"Ġsaved":5095,"Ġsadd":5096,"apore":5097,"Ġ45":5098,"Ġmanage":5099,"bel":5100,"bell":5101,"Ġmakeup":5102,"ational":5103,"Ġpeanut":5104,"Ġbritt":5105,"itted":5106,"Ġwhoa":5107,"ango":5108,"aching":5109,"Ġrole":5110,"Ġscot":5111,"Ġscare":5112,"Ġswift":5113,"ager":5114,"Ġprevious":5115,"Ġador":5116,"Ġadvent":5117,"Ġdrugs":5118,"Ġpicnic":5119,"hey":5120,"hetic":5121,"Ġtweeted":5122,"ullen":5123,"iah":5124,"Ġaccompl":5125,"Ġpartner":5126,"Ġborrow":5127,"Ġlaunch":5128,"Ġlawn":5129,"Ġappt":5130,"Ġappointment":5131,"Ġglasg":5132,"tail":5133,"Ġsmoke":5134,"Ġfriendster":5135,"Ġminor":5136,"Ġolder":5137,"Ġagreed":5138,"shop":5139,"shirt":5140,"hahahaha":5141,"Ġbush":5142,"Ġperiod":5143,"Ġmarriage":5144,"Ġdawn":5145,"Ġending":5146,"Ġhearing":5147,"Ġboredom":5148,"Ġsites":5149,"Ġhunt":5150,"Ġprobs":5151,"Ġcraz":5152,"Ġcrappy":5153,"ockey":5154,"Ġmummy":5155,"Ġleaves":5156,"Ġemploy":5157,"Ġze":5158,"Ġsingapore":5159,"Ġhitting":5160,"Ġdreaming":5161,"Ġdelete":5162,"Ġrecog":5163,"prom":5164,"Ġcharger":5165,"Ġhorror":5166,"Ġapolog":5167,"Ġveget":5168,"Ġcomputers":5169,"Ġedit":5170,"Ġchilling":5171,"Ġcomplain":5172,"cont":5173,"Ġcouch":5174,"Ġpicking":5175,"Ġcutting":5176,"Ġresist":5177,"Ġrespect":5178,"Ġerror":5179,"Ġmeth":5180,"mobile":5181,"Ġavatar":5182,"Ġfiles":5183,"Ġtypic":5184,"Ġbringing":5185,"Ġphotoshop":5186,"Ġcontest":5187,"Ġretarded":5188,"Ġdamnit":5189,"Ġdiego":5190,"Ġ//":5191,"Ġevents":5192,"!!!!!!!!!!!!!!!!":5193,"Ġdressed":5194,"Ġcorn":5195,"Ġeffort":5196,"Ġsales":5197,"Ġpurse":5198,"Ġpurple":5199,"Ġbreathe":5200,"Ġballs":5201,"Ġcentral":5202,"Ġameric":5203,"Ġ2009":5204,"Ġbleh":5205,"Ġfirefox":5206,"Ġgeorge":5207,"Ġaudition":5208,"Ġdigital":5209,"Ġrecording":5210,"Ġpupp":5211,"Ġrelation":5212,"Ġkicked":5213,"Ġmommas":5214,"Ġsquare":5215,"Ġspeaking":5216,"Ġmask":5217,"Ġmaster":5218,"Ġpanic":5219,"Ġfilling":5220,"((((":5221,"Ġ??????":5222,"Ġ???????":5223,"starwars":5224,"Ġbritains":5225,"Ġpathetic":5226,"Ġnooooo":5227,"Ġportug":5228,"Ġmemory":5229,"Ġreturned":5230,"Ġqueen":5231,"Ġautom":5232,"Ġhyper":5233,"Ġrequest":5234,"Ġkatie":5235,"guy":5236,"Ġriding":5237,"Ġconstant":5238,"Ġconstantly":5239,"Ġgrowing":5240,"Ġgloomy":5241,"Ġsnap":5242,"Ġjournal":5243,"Ġstrawberry":5244,"Ġashley":5245,"Ġvirgin":5246,"Ġsettings":5247,"screen":5248,"Ġeconomy":5249,"Ġcontinue":5250,"Ġaccept":5251,"Ġbabysitting":5252,"dogbook":5253,"Ġkingdom":5254,"Ġtweeple":5255,"Ġaddicted":5256,"Ġsuccessful":5257,"Ġsarah":5258,"Ġsociety":5259,"Ġsigning":5260,"Ġgrocery":5261,"Ġduty":5262,"Ġshooting":5263,"Ġconvinced":5264,"Ġmushroom":5265,"Ġcinema":5266,"Ġtesco":5267,"Ġnuggets":5268,"Ġpouring":5269,"Ġpancakes":5270,"Ġscript":5271,"Ġfemale":5272,"Ġheavy":5273,"Ġdegrees":5274,"Ġvillage":5275,"Ġdespite":5276,"Ġsoccer":5277,"Ġstoked":5278,"Ġglasgow":5279,"'!":5280,",.":5281,".<":5282,"27":5283,"28":5284,"29":5285,"47":5286,"55":5287,"65":5288,"70":5289,"78":5290,"`...":5291,"aver":5292,"ault":5293,"bon":5294,"bus":5295,"bone":5296,"bie":5297,"bour":5298,"bag":5299,"ctive":5300,"cat":5301,"cra":5302,"cook":5303,"cough":5304,"cream":5305,"cullen":5306,"du":5307,"die":5308,"eed":5309,"fi":5310,"fk":5311,"food":5312,"hal":5313,"hood":5314,"ipped":5315,"kn":5316,"kp":5317,"log":5318,"mother":5319,"mers":5320,"mind":5321,"mag":5322,"made":5323,"nx":5324,"name":5325,"pen":5326,"pes":5327,"pet":5328,"pool":5329,"pose":5330,"rp":5331,"rus":5332,"rup":5333,"sy":5334,"san":5335,"sad":5336,"sun":5337,"tn":5338,"ture":5339,"ua":5340,"ucc":5341,"vm":5342,"vt":5343,"vation":5344,"wp":5345,"wy":5346,"war":5347,"win":5348,"yl":5349,"yo":5350,"yes":5351,"za":5352,"Ġ|":5353,"Ġeee":5354,"Ġxxxx":5355,"Ġtb":5356,"Ġted":5357,"Ġtune":5358,"Ġtamp":5359,"aron":5360,"Ġicon":5361,"Ġng":5362,"Ġni":5363,"Ġnas":5364,"Ġnig":5365,"Ġnaw":5366,"Ġaly":5367,"Ġach":5368,"Ġaid":5369,"Ġauth":5370,"Ġauss":5371,"Ġsow":5372,"Ġsanta":5373,"Ġnegle":5374,"Ġwen":5375,"Ġwud":5376,"Ġwooo":5377,"Ġwaaaa":5378,"Ġwings":5379,"Ġwana":5380,"Ġmp":5381,"Ġmol":5382,"Ġthrew":5383,"Ġhou":5384,"Ġhood":5385,"Ġheels":5386,"Ġhockey":5387,"Ġbot":5388,"Ġbam":5389,"Ġbry":5390,"Ġbul":5391,"Ġbiz":5392,"Ġpug":5393,"Ġpunch":5394,"Ġpork":5395,"Ġpoop":5396,"Ġpony":5397,"oning":5398,"only":5399,"online":5400,"inging":5401,"Ġtoil":5402,"Ġfi":5403,"Ġfes":5404,"Ġfed":5405,"Ġfle":5406,"Ġfare":5407,"Ġfusion":5408,"ora":5409,"Ġgm":5410,"Ġgall":5411,"Ġgeez":5412,"Ġdust":5413,"Ġdall":5414,"oura":5415,"Ġcord":5416,"Ġcrown":5417,"Ġluc":5418,"Ġthee":5419,"Ġtheory":5420,"anish":5421,"anoid":5422,"Ġoo":5423,"Ġobs":5424,"Ġolive":5425,"Ġposition":5426,"game":5427,"eded":5428,"Ġanx":5429,"eech":5430,"eeks":5431,"ota":5432,"asy":5433,"Ġinvent":5434,"usive":5435,"etch":5436,"lying":5437,"Ġbein":5438,"Ġbelo":5439,"Ġbeats":5440,"Ġbebo":5441,"Ġuber":5442,"Ġfort":5443,"Ġec":5444,"chin":5445,"Ġja":5446,"Ġjst":5447,"Ġjew":5448,"Ġjuss":5449,"Ġjames":5450,"leigh":5451,"...)":5452,"Ġwhew":5453,"Ġmember":5454,"kea":5455,"ico":5456,"Ġrb":5457,"Ġray":5458,"Ġrab":5459,"Ġrick":5460,"Ġrare":5461,"Ġraw":5462,"Ġloose":5463,"Ġlogo":5464,"lda":5465,"amore":5466,"Ġshops":5467,"Ġshann":5468,"Ġkl":5469,"Ġken":5470,"Ġkim":5471,"Ġkir":5472,"Ġhel":5473,"Ġbutt":5474,"Ġwithdra":5475,"Ġsteel":5476,"Ġstation":5477,"Ġstole":5478,"Ġdogg":5479,"Ġnothin":5480,"Ġath":5481,"Ġfrick":5482,"iring":5483,"irre":5484,"irit":5485,"Ġarent":5486,"hers":5487,"Ġcha":5488,"Ġchallen":5489,"Ġnove":5490,"Ġnoon":5491,"then":5492,"think":5493,"Ġalive":5494,"Ġ_****":5495,"ateful":5496,"roy":5497,"rock":5498,"Ġmaint":5499,"Ġsomewhat":5500,"Ġaband":5501,"Ġdevice":5502,"Ġplain":5503,"Ġwilling":5504,"ounts":5505,"erson":5506,"Ġexchange":5507,".........":5508,"Ġcomin":5509,"Ġcomics":5510,"Ġcomfy":5511,"olly":5512,"Ġgree":5513,"Ġgrew":5514,"Ġspain":5515,"Ġsport":5516,"Ġspoke":5517,"Ġspark":5518,"Ġspanish":5519,"Ġspeech":5520,"Ġtwits":5521,"Ġblow":5522,"Ġblind":5523,"Ġuser":5524,"Ġwhenever":5525,"Ġunl":5526,"Ġmoments":5527,"istry":5528,"Ġorgan":5529,"Ġtwitterland":5530,"Ġtwitterville":5531,"Ġsel":5532,"Ġsees":5533,"Ġclock":5534,"twurl":5535,"Ġlasts":5536,"Ġtony":5537,"Ġwah":5538,"Ġtem":5539,"Ġfriendly":5540,"Ġ31":5541,"Ġ35":5542,"Ġ400":5543,"Ġafr":5544,"Ġshowed":5545,"iley":5546,"eared":5547,"Ġways":5548,"Ġground":5549,"Ġgrass":5550,"Ġgrrrr":5551,"Ġgroups":5552,"udge":5553,"Ġscan":5554,"Ġscott":5555,"Ġscience":5556,"iped":5557,"Ġcarl":5558,"Ġcarol":5559,"Ġcheesy":5560,"Ġtrust":5561,"Ġplays":5562,"Ġlongest":5563,"ivered":5564,"Ġprison":5565,"Ġadm":5566,"Ġadver":5567,"help":5568,"Ġrained":5569,"Ġawesom":5570,"Ġactive":5571,"Ġacting":5572,"izzy":5573,"Ġparties":5574,"Ġpocket":5575,"Ġlah":5576,"Ġlaid":5577,"ups":5578,"Ġletters":5579,"Ġapplic":5580,"Ġsms":5581,"azz":5582,"Ġbiggest":5583,"which":5584,"Ġharder":5585,"Ġtrips":5586,"Ġidol":5587,"Ġactual":5588,"Ġyayy":5589,"gging":5590,"gggg":5591,"Ġhelped":5592,"Ġparis":5593,"Ġreality":5594,"athy":5595,"Ġstuffed":5596,"enson":5597,"Ġ=/":5598,"Ġclever":5599,"Ġcraw":5600,"Ġcraig":5601,"Ġaccord":5602,"Ġawwwww":5603,"Ġkeen":5604,"dddd":5605,"Ġinstant":5606,"bron":5607,"nnnn":5608,"Ġdelivered":5609,"Ġsniff":5610,"Ġrocking":5611,"Ġrecently":5612,"Ġkillers":5613,"iiii":5614,"lando":5615,"uuu":5616,"Ġcharged":5617,"kkk":5618,"cling":5619,"Ġwalked":5620,"Ġeduc":5621,"iki":5622,"Ġgrade":5623,"Ġshortly":5624,"Ġcutest":5625,"Ġfiguring":5626,"Ġcalm":5627,"----":5628,"attered":5629,"Ġlegal":5630,"Ġlegit":5631,"Ġcurious":5632,"Ġesp":5633,"Ġtexted":5634,"awa":5635,"going":5636,"Ġsigned":5637,"Ġpublish":5638,"flu":5639,"Ġgrace":5640,"Ġsyn":5641,"Ġregis":5642,"Ġregard":5643,"Ġregret":5644,"aaaay":5645,"Ġnumbers":5646,"Ġapartments":5647,"Ġlights":5648,"Ġmedia":5649,"Ġinvited":5650,"Ġcorner":5651,"ledge":5652,"Ġdistur":5653,"Ġstudents":5654,"Ġreminder":5655,"Ġcyrus":5656,"Ġbugger":5657,"Ġcreative":5658,"Ġbasket":5659,"Ġtransl":5660,"Ġtransfer":5661,"burgh":5662,"Ġbesties":5663,"Ġgenius":5664,"Ġcostume":5665,"ularly":5666,"Ġruin":5667,"Ġdaughters":5668,"Ġmaths":5669,"Ġobama":5670,"Ġ250":5671,"castle":5672,"Ġhumor":5673,"Ġdoctors":5674,"Ġvids":5675,"Ġmelted":5676,"Ġtastes":5677,"Ġreleased":5678,"Ġsuggest":5679,"Ġspelling":5680,"Ġbritain":5681,"Ġbritney":5682,"Ġthai":5683,"Ġpieces":5684,"Ġinclude":5685,"Ġprincess":5686,"Ġshoutout":5687,"Ġhomie":5688,"Ġviol":5689,"Ġfeedback":5690,"Ġbowl":5691,"Ġbrian":5692,"Ġelect":5693,"Ġwashed":5694,"Ġvalley":5695,"Ġsmells":5696,"Ġaccidentally":5697,"Ġdragon":5698,"________":5699,"itis":5700,"Ġreviews":5701,"untu":5702,"finally":5703,"Ġangel":5704,"Ġnamed":5705,"Ġghost":5706,"Ġattacked":5707,"Ġignore":5708,"after":5709,"Ġwrap":5710,"Ġtradition":5711,"Ġlauren":5712,"Ġturning":5713,"Ġbothered":5714,"Ġeconom":5715,"Ġjerk":5716,"Ġdelivery":5717,"Ġtaxi":5718,"Ġmigraine":5719,"Ġberry":5720,"Ġriver":5721,"Ġsemester":5722,"Ġscene":5723,"Ġcharacter":5724,"Ġcharacters":5725,"Ġdistracted":5726,"Ġmarketing":5727,"Ġsenior":5728,"Ġseniors":5729,"world":5730,"Ġannounce":5731,"Ġincredible":5732,"Ġsymp":5733,"Ġitems":5734,"Ġjimmy":5735,"Ġmotivation":5736,"Ġunfair":5737,"Ġjesus":5738,"Ġfruit":5739,"Ġfrustrated":5740,"Ġvirtual":5741,"Ġquotes":5742,"Ġsmoking":5743,"Ġterminator":5744,"Ġinvolved":5745,"Ġankle":5746,"Ġmystery":5747,"Ġrachel":5748,"Ġjapanese":5749,"Ġnoodles":5750,"Ġlicense":5751,"Ġmembers":5752,"Ġseptember":5753,"Ġmedicine":5754,"bkite":5755,"party":5756,"Ġnephew":5757,"Ġfashion":5758,"Ġstubborn":5759,"Ġrecogn":5760,"Ġpuppies":5761,"Ġtampa":5762,"Ġauthor":5763,"Ġhouston":5764,"Ġflew":5765,"Ġdallas":5766,"!.":5767,"!..":5768,"(:":5769,")...":5770,"/?":5771,"01":5772,"100":5773,"39":5774,"44":5775,"98":5776,"`,":5777,"ave":5778,"agh":5779,"aud":5780,"bc":5781,"bal":5782,"bing":5783,"bat":5784,"bow":5785,"bro":5786,"bies":5787,"bug":5788,"bank":5789,"benson":5790,"cab":5791,"cies":5792,"ctic":5793,"clock":5794,"dh":5795,"dj":5796,"dis":5797,"dday":5798,"due":5799,"dress":5800,"dling":5801,"eh":5802,"ev":5803,"even":5804,"fan":5805,"fest":5806,"free":5807,"god":5808,"gress":5809,"hm":5810,"hay":5811,"home":5812,"ior":5813,"ife":5814,"ients":5815,"ivers":5816,"jack":5817,"keep":5818,"kins":5819,"know":5820,"long":5821,"lines":5822,"mie":5823,"mig":5824,"mond":5825,"mare":5826,"nor":5827,"nger":5828,"otic":5829,"oaks":5830,"ointing":5831,"pu":5832,"put":5833,"rq":5834,"ran":5835,"rad":5836,"rid":5837,"rry":5838,"rate":5839,"somet":5840,"ther":5841,"tore":5842,"tastic":5843,"wd":5844,"will":5845,"week":5846,"xi":5847,"xo":5848,"ening":5849,"Ġtxt":5850,"Ġtap":5851,"Ġtesting":5852,"arian":5853,"Ġikea":5854,"Ġnt":5855,"Ġnin":5856,"Ġnan":5857,"Ġnur":5858,"Ġnash":5859,"Ġnature":5860,"Ġnathan":5861,"Ġnaked":5862,"Ġnkotb":5863,"Ġaver":5864,"Ġapt":5865,"Ġaunt":5866,"vest":5867,"Ġster":5868,"Ġsize":5869,"inion":5870,"Ġneat":5871,"Ġneil":5872,"Ġnest":5873,"Ġwre":5874,"Ġwoe":5875,"Ġwrest":5876,"Ġmut":5877,"Ġmia":5878,"Ġhve":5879,"tish":5880,"tific":5881,"also":5882,"almost":5883,"Ġbby":5884,"Ġbaking":5885,"Ġbomb":5886,"Ġbattle":5887,"Ġpam":5888,"Ġpff":5889,"Ġpure":5890,"onder":5891,"Ġtoes":5892,"Ġtoss":5893,"Ġft":5894,"Ġfoo":5895,"Ġftw":5896,"Ġfear":5897,"Ġfuck":5898,"Ġfog":5899,"Ġfurn":5900,"eres":5901,"ergic":5902,"orr":5903,"oray":5904,"order":5905,"Ġgal":5906,"Ġgil":5907,"Ġgum":5908,"Ġgab":5909,"Ġdv":5910,"Ġdos":5911,"Ġdoo":5912,"Ġduck":5913,"Ġdare":5914,"Ġdates":5915,"Ġdrew":5916,"Ġdamp":5917,"ouver":5918,"Ġcc":5919,"Ġcn":5920,"Ġcer":5921,"Ġcig":5922,"Ġcure":5923,"Ġcel":5924,"Ġcrew":5925,"Ġlor":5926,"Ġlines":5927,"Ġlower":5928,"Ġlung":5929,"..!":5930,"Ġyouth":5931,"Ġod":5932,"Ġposter":5933,"itas":5934,"iture":5935,"omor":5936,"omnia":5937,"eding":5938,"Ġanti":5939,"isco":5940,"Ġinj":5941,"Ġinvis":5942,"Ġinput":5943,"etti":5944,"Ġbeans":5945,"Ġumm":5946,"Ġugg":5947,"Ġofff":5948,"aded":5949,"Ġeve":5950,"Ġecl":5951,"cking":5952,"Ġjet":5953,"Ġjul":5954,"Ġjell":5955,"Ġjason":5956,"Ġjunk":5957,"Ġwhit":5958,"Ġrein":5959,"Ġrevise":5960,"Ġsolo":5961,"Ġrc":5962,"Ġron":5963,"Ġrat":5964,"Ġrug":5965,"Ġross":5966,"Ġrush":5967,"ustre":5968,"Ġloll":5969,"Ġshake":5970,"Ġshared":5971,"Ġshuff":5972,"Ġshoe":5973,"Ġshorts":5974,"Ġshocked":5975,"Ġki":5976,"Ġkal":5977,"Ġker":5978,"Ġkor":5979,"Ġkitten":5980,"Ġheld":5981,"days":5982,"ppa":5983,"pple":5984,"Ġstaff":5985,"Ġstolen":5986,"Ġfrm":5987,"Ġfrig":5988,"Ġframe":5989,"Ġfridge":5990,"Ġcandy":5991,"urt":5992,"Ġarmy":5993,"Ġupon":5994,"Ġoutlook":5995,"Ġallah":5996,"Ġallerg":5997,"Ġallergic":5998,"Ġchan":5999,"Ġchamp":6000,"Ġchores":6001,"Ġtwi":6002,"Ġtwin":6003,"Ġtwins":6004,"Ġnoise":6005,"hah":6006,"there":6007,"Ġali":6008,"Ġalice":6009,"outs":6010,"Ġhappier":6011,"Ġamber":6012,"Ġamount":6013,"Ġamusing":6014,"Ġ28":6015,"Ġ29":6016,"Ġmacc":6017,"Ġmagazine":6018,"Ġknox":6019,"Ġknock":6020,"ilt":6021,"Ġawa":6022,"stup":6023,"storm":6024,"stairs":6025,"rain":6026,"ract":6027,"Ġseemed":6028,"Ġimage":6029,"Ġimmed":6030,"rix":6031,"ribut":6032,"selves":6033,"Ġasse":6034,"Ġdell":6035,"ander":6036,"Ġplants":6037,"Ġvib":6038,"Ġvista":6039,"Ġ199":6040,"ffy":6041,"alled":6042,"Ġfinan":6043,"Ġnewcastle":6044,"Ġweekly":6045,"Ġcommer":6046,"ools":6047,"Ġgrease":6048,"uled":6049,"ulation":6050,"Ġmoi":6051,"Ġfunction":6052,"Ġuses":6053,"Ġusern":6054,"Ġohio":6055,"Ġlect":6056,"Ġlemon":6057,"Ġunfollow":6058,"Ġunhappy":6059,"Ġorlando":6060,"Ġsele":6061,"Ġsepar":6062,"Ġclient":6063,"Ġfaces":6064,"Ġmornings":6065,"quet":6066,"Ġshel":6067,"ooooooo":6068,"Ġsafar":6069,"Ġcoat":6070,"Ġcoco":6071,"Ġcobra":6072,"Ġconver":6073,"Ġphones":6074,"Ġsadness":6075,"Ġtear":6076,"Ġyeahh":6077,"Ġsayin":6078,"Ġsuns":6079,"Ġthingy":6080,"Ġ300":6081,"Ġ48":6082,"Ġmango":6083,"Ġpear":6084,"Ġbrill":6085,"Ġbrings":6086,"Ġshoulder":6087,"Ġmonster":6088,"Ġmonitor":6089,"Ġgran":6090,"Ġgrill":6091,"Ġgrateful":6092,"Ġjoint":6093,"Ġwhoever":6094,"Ġbedroom":6095,"Ġquin":6096,"Ġrove":6097,"ipse":6098,"agers":6099,"Ġpeoples":6100,"fty":6101,"ives":6102,"Ġproof":6103,"Ġads":6104,"Ġadore":6105,"Ġadult":6106,"Ġflies":6107,"uggle":6108,"Ġsucky":6109,"izon":6110,"Ġpleased":6111,"Ġthankfully":6112,"Ġpole":6113,"Ġletter":6114,"cious":6115,"Ġlisted":6116,"Ġwrit":6117,"Ġwritten":6118,"Ġcooler":6119,"Ġcoolest":6120,"perate":6121,"action":6122,"Ġsmack":6123,"Ġsmiling":6124,"Ġ500":6125,"Ġsurely":6126,"Ġomfg":6127,"pected":6128,"Ġhardest":6129,"Ġbirds":6130,"Ġtrains":6131,"Ġdisplay":6132,"Ġughh":6133,"Ġhott":6134,"Ġcramps":6135,"Ġfamili":6136,"Ġcompan":6137,"show":6138,"Ġparent":6139,"Ġparamore":6140,"Ġwarning":6141,"Ġcheckin":6142,"Ġamazon":6143,"Ġperfor":6144,"law":6145,"Ġdrivers":6146,"Ġ75":6147,"Ġaccounts":6148,"Ġphotography":6149,"ordan":6150,"Ġfreezing":6151,"Ġclassic":6152,"Ġsundays":6153,"Ġdefo":6154,"Ġdefault":6155,"ĠĠĠĠĠĠ":6156,"ĠĠĠĠĠĠĠ":6157,"Ġzoo":6158,"Ġzeal":6159,"Ġzero":6160,"ify":6161,"Ġsings":6162,"Ġfoods":6163,"Ġmoves":6164,"Ġroommate":6165,"etsy":6166,"Ġoption":6167,"Ġopinion":6168,"Ġfailing":6169,"Ġfailure":6170,"Ġkills":6171,"Ġkiller":6172,"Ġpersonal":6173,"Ġcharlie":6174,"Ġhandy":6175,"Ġhahahah":6176,"Ġcamer":6177,"Ġpair":6178,"Ġconcent":6179,"Ġfinale":6180,"hhhhhhhh":6181,"presso":6182,"Ġwindy":6183,"vision":6184,"Ġedge":6185,"Ġminds":6186,"Ġcompliment":6187,"ughter":6188,"Ġpasta":6189,"Ġcooked":6190,"nothing":6191,"Ġmilan":6192,"Ġmilks":6193,"Ġannivers":6194,"Ġ!!!!!":6195,"Ġbars":6196,"Ġbarcel":6197,"Ġgrandpa":6198,"Ġcutie":6199,"Ġpasses":6200,"Ġpassword":6201,"Ġdefinately":6202,"Ġgoood":6203,"ierd":6204,"Ġeric":6205,"Ġesc":6206,"Ġmetal":6207,"Ġmetro":6208,"moz":6209,"Ġdrawing":6210,"Ġdragged":6211,"Ġtouring":6212,"Ġpresents":6213,"Ġpresident":6214,"Ġfilip":6215,"Ġchrome":6216,"Ġengine":6217,"okay":6218,"Ġdougie":6219,"Ġtyping":6220,"Ġgrab":6221,"Ġgrabb":6222,"Ġcommute":6223,"Ġcommence":6224,"Ġcommunity":6225,"Ġahhhhh":6226,"Ġregular":6227,"Ġcontrol":6228,"Ġtommorow":6229,"Ġhonor":6230,"Ġinsomnia":6231,"Ġassume":6232,"Ġindust":6233,"Ġindia":6234,"Ġmeds":6235,"Ġinvit":6236,"Ġ-->":6237,"Ġjohnny":6238,"Ġjackson":6239,"Ġstrep":6240,"Ġrefresh":6241,"Ġwebcam":6242,"Ġcancel":6243,"Ġvacuum":6244,"Ġholding":6245,"Ġcelebrity":6246,"Ġexperien":6247,"Ġprior":6248,"Ġcentre":6249,"Ġcreated":6250,"Ġ2008":6251,"Ġquickly":6252,"Ġfishing":6253,"Ġpulling":6254,"Ġcosts":6255,"Ġstressful":6256,"Ġ>.<":6257,"Ġqld":6258,"Ġhollie":6259,"check":6260,"Ġmommys":6261,"Ġsunburned":6262,"Ġ08":6263,"Ġexpecting":6264,"marie":6265,"Ġscrubs":6266,"ograp":6267,"Ġcrossing":6268,"Ġshiny":6269,"Ġdocs":6270,"Ġmodels":6271,"Ġcurrent":6272,"great":6273,"Ġmichelle":6274,"Ġprinter":6275,"Ġtalented":6276,"Ġdenver":6277,"Ġdryer":6278,"Ġanimals":6279,"Ġexplain":6280,"Ġqueens":6281,"Ġ?????":6282,"Ġnicole":6283,"Ġauto":6284,"Ġwitness":6285,"Ġmami":6286,"Ġmamas":6287,"Ġbanana":6288,"Ġbanquet":6289,"Ġowner":6290,"Ġaye":6291,"Ġlying":6292,"Ġjeans":6293,"Ġhollywood":6294,"Ġhollyoaks":6295,"Ġverizon":6296,"Ġbahaha":6297,"Ġtorn":6298,"Ġreception":6299,"Ġstories":6300,"Ġneighbor":6301,"Ġneighbors":6302,"Ġwoods":6303,"Ġselling":6304,"Ġenterpr":6305,"skies":6306,"Ġtopics":6307,"Ġcuddle":6308,"Ġjourney":6309,"Ġdiscovered":6310,"Ġcreepy":6311,"Ġchemistry":6312,"Ġsmoothie":6313,"Ġdecisions":6314,"Ġbatman":6315,"Ġvictoria":6316,"Ġlarge":6317,"Ġlocation":6318,"Ġvenue":6319,"Ġpretend":6320,"00000000":6321,"Ġemotion":6322,"Ġhooked":6323,"Ġdreading":6324,"Ġciara":6325,"uggles":6326,"Ġbuffalo":6327,"Ġempire":6328,"Ġannounced":6329,"Ġincredibly":6330,"Ġwknd":6331,"Ġpillow":6332,"Ġdublin":6333,"Ġcinnam":6334,"Ġcirc":6335,"Ġrepeat":6336,"Ġupgrade":6337,"Ġsuffering":6338,"Ġperformance":6339,"Ġ$$$":6340,"Ġbubble":6341,"Ġopera":6342,"Ġkarma":6343,"Ġcompetition":6344,"Ġteenagers":6345,"Ġmiserable":6346,"Ġcustomer":6347,"Ġtaco":6348,"Ġmulti":6349,"Ġcowork":6350,"Ġfuneral":6351,"blogspot":6352,"Ġzombies":6353,"Ġindiana":6354,"Ġanthony":6355,"Ġbeyond":6356,"Ġrenew":6357,"Ġvancouver":6358,"Ġerrands":6359,"Ġeffects":6360,"Ġtmrw":6361,"Ġnursing":6362,"Ġmitchel":6363,"Ġexercise":6364,"Ġsausage":6365,"Ġadorable":6366,"Ġaccomplished":6367,"Ġtypical":6368,"Ġamericans":6369,"starwarsday":6370,"Ġautomatic":6371,"bourne":6372,"Ġaussie":6373,"Ġtoilet":6374,"Ġfestiv":6375,"Ġbeloved":6376,"chinese":6377,"Ġnovember":6378,"Ġaccording":6379,"Ġfurniture":6380,"Ġeclipse":6381,"Ġfriggin":6382,"Ġallergies":6383,"stupid":6384,"Ġimmedi":6385,"Ġusername":6386,"Ġsafari":6387,"Ġzealand":6388,"Ġanniversary":6389,"Ġbarcelona":6390,"!?!":6391,"'...":6392,"35":6393,"36":6394,"71":6395,"_****":6396,"aat":6397,"bm":6398,"bee":6399,"buntu":6400,"cul":6401,"cue":6402,"cord":6403,"db":6404,"dc":6405,"dic":6406,"doll":6407,"dia":6408,"dont":6409,"dict":6410,"fon":6411,"fun":6412,"fish":6413,"feel":6414,"fall":6415,"fied":6416,"gian":6417,"hc":6418,"hq":6419,"hu":6420,"hy":6421,"har":6422,"hone":6423,"hours":6424,"iw":6425,"iots":6426,"ju":6427,"jour":6428,"kd":6429,"km":6430,"ku":6431,"kw":6432,"kick":6433,"lis":6434,"looks":6435,"mq":6436,"mx":6437,"mic":6438,"might":6439,"mine":6440,"mates":6441,"mouth":6442,"non":6443,"nis":6444,"nks":6445,"pend":6446,"qn":6447,"rop":6448,"rant":6449,"rors":6450,"ses":6451,"tg":6452,"tar":6453,"tor":6454,"tch":6455,"try":6456,"tri":6457,"uar":6458,"uction":6459,"whe":6460,"xs":6461,"xing":6462,"yn":6463,"Ġou":6464,"Ġee":6465,"Ġ**":6466,"enance":6467,"ences":6468,"Ġxxxxxx":6469,"entina":6470,"Ġtd":6471,"Ġti":6472,"Ġtu":6473,"Ġtx":6474,"Ġtad":6475,"Ġtam":6476,"Ġtig":6477,"Ġtank":6478,"Ġtiff":6479,"Ġtask":6480,"arge":6481,"aries":6482,"Ġian":6483,"Ġiced":6484,"Ġnh":6485,"Ġnach":6486,"Ġnina":6487,"Ġnames":6488,"Ġnuts":6489,"Ġnvr":6490,"Ġniece":6491,"Ġnvm":6492,"imi":6493,"ims":6494,"endo":6495,"endy":6496,"Ġagh":6497,"Ġack":6498,"Ġaight":6499,"Ġaaaaa":6500,"Ġaches":6501,"vet":6502,"Ġsd":6503,"Ġsight":6504,"Ġsack":6505,"Ġsized":6506,"Ġsissy":6507,"inate":6508,"inating":6509,"inburgh":6510,"Ġwu":6511,"Ġwing":6512,"Ġwack":6513,"Ġwth":6514,"Ġmur":6515,"Ġmite":6516,"Ġmater":6517,"Ġmint":6518,"Ġmcc":6519,"Ġmale":6520,"Ġmandy":6521,"Ġthor":6522,"Ġthus":6523,"Ġthread":6524,"Ġthirty":6525,"Ġhk":6526,"Ġhid":6527,"Ġhind":6528,"Ġhire":6529,"Ġhide":6530,"Ġhated":6531,"tig":6532,"tist":6533,"alie":6534,"Ġbg":6535,"Ġbt":6536,"Ġbing":6537,"Ġbom":6538,"Ġbid":6539,"Ġbust":6540,"Ġbite":6541,"Ġbash":6542,"Ġbilly":6543,"Ġbusted":6544,"Ġbikes":6545,"Ġpg":6546,"Ġpw":6547,"Ġpee":6548,"Ġpere":6549,"Ġpant":6550,"Ġpong":6551,"Ġpac":6552,"Ġpwn":6553,"Ġpitch":6554,"Ġpunk":6555,"Ġpuff":6556,"Ġpounds":6557,"Ġpedic":6558,"onic":6559,"onse":6560,"Ġtooooo":6561,"Ġtoron":6562,"Ġtomorow":6563,"Ġfer":6564,"Ġfid":6565,"Ġfone":6566,"Ġfile":6567,"Ġfoc":6568,"orate":6569,"Ġgf":6570,"Ġgna":6571,"Ġgary":6572,"Ġgmail":6573,"Ġds":6574,"Ġdia":6575,"Ġdork":6576,"Ġdunk":6577,"Ġdedic":6578,"Ġdizzy":6579,"Ġcad":6580,"Ġcro":6581,"Ġcurl":6582,"Ġcache":6583,"Ġciv":6584,"Ġciti":6585,"Ġcubs":6586,"Ġlen":6587,"Ġlou":6588,"Ġlit":6589,"Ġlooo":6590,"Ġtheater":6591,"osis":6592,"atly":6593,"ators":6594,"atoes":6595,"antic":6596,"Ġyer":6597,"Ġyee":6598,"Ġyog":6599,"Ġyucky":6600,"reat":6601,"really":6602,"Ġol":6603,"Ġox":6604,"Ġoil":6605,"Ġoww":6606,"Ġopt":6607,"Ġowe":6608,"Ġooooh":6609,"ayy":6610,"omg":6611,"omp":6612,"edown":6613,"Ġanne":6614,"Ġhacked":6615,"eeze":6616,"otle":6617,"Ġyounger":6618,"iser":6619,"istic":6620,"ashing":6621,"Ġandrew":6622,"Ġinner":6623,"Ġinbox":6624,"Ġinvest":6625,"Ġbeast":6626,"Ġbeard":6627,"Ġbeating":6628,"Ġubuntu":6629,"Ġforest":6630,"ads":6631,"Ġemm":6632,"Ġeag":6633,"chase":6634,"!!?":6635,"Ġjp":6636,"Ġjan":6637,"...'":6638,"Ġwhe":6639,"Ġwheel":6640,"Ġwhoop":6641,"Ġrez":6642,"Ġreun":6643,"Ġreject":6644,"***":6645,"Ġmeh":6646,"Ġmelt":6647,"iders":6648,"iculous":6649,"Ġris":6650,"Ġrad":6651,"Ġrack":6652,"Ġrang":6653,"Ġrise":6654,"Ġrib":6655,"Ġriot":6656,"ternal":6657,"ams":6658,"Ġsha":6659,"Ġshr":6660,"Ġshine":6661,"Ġshizz":6662,"Ġshirts":6663,"unning":6664,"Ġkc":6665,"Ġkk":6666,"Ġkr":6667,"Ġkit":6668,"Ġkore":6669,"Ġkris":6670,"Ġdayyyy":6671,"Ġweak":6672,"Ġlift":6673,"Ġsty":6674,"Ġstinks":6675,"Ġstairs":6676,"Ġdod":6677,"Ġwasted":6678,"Ġfry":6679,"Ġfranc":6680,"uro":6681,"urning":6682,"urity":6683,"iron":6684,"irmed":6685,"Ġark":6686,"Ġupcoming":6687,"cept":6688,"Ġchir":6689,"Ġnoes":6690,"hab":6691,"thin":6692,"thma":6693,"thank":6694,"Ġloveeee":6695,"Ġalge":6696,"astated":6697,"eag":6698,"eapple":6699,"Ġtodays":6700,"Ġknack":6701,"ilar":6702,"Ġaward":6703,"issa":6704,"str":6705,"stud":6706,"rap":6707,"ration":6708,"Ġasthma":6709,"Ġ****!!":6710,"Ġbackup":6711,"Ġknowledge":6712,"Ġdew":6713,"Ġvoll":6714,"Ġvip":6715,"ffe":6716,"Ġwilliam":6717,"Ġoffline":6718,"Ġexternal":6719,"igan":6720,"Ġnighty":6721,"Ġnightmare":6722,"Ġcomic":6723,"Ġslip":6724,"Ġhoped":6725,"aah":6726,"aaah":6727,"Ġspirit":6728,"Ġmoz":6729,"Ġmoder":6730,"Ġblu":6731,"Ġblown":6732,"Ġblows":6733,"Ġbloom":6734,"Ġlemme":6735,"Ġuns":6736,"Ġunit":6737,"iste":6738,"Ġguide":6739,"ounding":6740,"Ġtwitterific":6741,"Ġseats":6742,"Ġsewing":6743,"Ġclar":6744,"Ġclients":6745,"tware":6746,"Ġsorta":6747,"Ġcoke":6748,"Ġwave":6749,"mmmmm":6750,"Ġconverse":6751,"Ġprov":6752,"Ġprovid":6753,"Ġpho":6754,"Ġphill":6755,"Ġphew":6756,"ousers":6757,"Ġfried":6758,"resent":6759,"Ġengage":6760,"Ġbetty":6761,"Ġtonights":6762,"aper":6763,"aped":6764,"Ġ32":6765,"Ġ360":6766,"beat":6767,"belie":6768,"Ġbron":6769,"Ġbros":6770,"Ġbride":6771,"Ġbrunch":6772,"Ġbruce":6773,"Ġshoulda":6774,"Ġnicely":6775,"Ġtryin":6776,"Ġtryna":6777,"Ġgona":6778,"Ġjoey":6779,"Ġquality":6780,"Ġdownstairs":6781,"agg":6782,"ags":6783,"aged":6784,"agne":6785,"Ġtrousers":6786,"Ġplayin":6787,"Ġplaylist":6788,"Ġfel":6789,"Ġfeature":6790,"Ġxmen":6791,"Ġprep":6792,"ucking":6793,"Ġpros":6794,"Ġprote":6795,"Ġflow":6796,"Ġflood":6797,"Ġbecuz":6798,"hell":6799,"health":6800,"Ġsooner":6801,"acey":6802,"Ġacade":6803,"Ġpopped":6804,"Ġpopping":6805,"Ġearphones":6806,"tage":6807,"nel":6808,"Ġeatin":6809,"Ġsmiles":6810,"Ġstarship":6811,"Ġ<--":6812,"Ġbabes":6813,"soci":6814,"Ġmines":6815,"Ġdiam":6816,"phot":6817,"Ġreader":6818,"Ġhardcore":6819,"Ġbits":6820,"Ġdisg":6821,"Ġcramp":6822,"Ġcruise":6823,"Ġhelpful":6824,"black":6825,"Ġexcl":6826,"Ġparks":6827,"Ġruns":6828,"Ġlistenin":6829,"Ġwarped":6830,"Ġguessing":6831,"Ġ,,,":6832,"Ġluckily":6833,"Ġkidd":6834,"Ġmarc":6835,"Ġsinus":6836,"Ġends":6837,"Ġstuffs":6838,"Ġtells":6839,"Ġservers":6840,"laur":6841,"laugh":6842,"opping":6843,"Ġsitter":6844,"ashes":6845,"Ġ70":6846,"Ġhungo":6847,"okey":6848,"Ġ=]":6849,"Ġbelow":6850,"Ġphotograp":6851,"Ġfarm":6852,"Ġgods":6853,"Ġtreats":6854,"Ġski":6855,"Ġskint":6856,"Ġskills":6857,"Ġboots":6858,"ancing":6859,"Ġplanet":6860,"Ġuseful":6861,"Ġzone":6862,"Ġzach":6863,"Ġkell":6864,"Ġkevin":6865,"Ġstops":6866,"please":6867,"Ġwinner":6868,"Ġbeauty":6869,"Ġrooms":6870,"Ġdescri":6871,"Ġchoir":6872,"Ġhits":6873,"Ġhole":6874,"Ġhooray":6875,"Ġsooooooo":6876,"Ġdelight":6877,"Ġsnow":6878,"Ġsurround":6879,"Ġrepair":6880,"Ġrockin":6881,"Ġrecent":6882,"Ġrecipe":6883,"Ġattending":6884,"Ġpersonally":6885,"teen":6886,"Ġcharity":6887,"nessee":6888,"Ġcamping":6889,"club":6890,"Ġsecurity":6891,"Ġvegg":6892,"Ġdecent":6893,"Ġyumm":6894,"Ġedition":6895,"Ġedinburgh":6896,"Ġsettle":6897,"Ġbob":6898,"Ġboat":6899,"Ġboiling":6900,"Ġgaga":6901,"Ġhighly":6902,"Ġcomplic":6903,"conne":6904,"Ġjonathan":6905,"Ġslower":6906,"coln":6907,"Ġentry":6908,"Ġdeadline":6909,"Ġcalor":6910,"Ġopened":6911,"sweet":6912,"Ġ......":6913,"Ġgooood":6914,"Ġerin":6915,"Ġespresso":6916,"Ġmetall":6917,"Ġrelaxation":6918,"Ġconfusing":6919,"Ġpromised":6920,"friends":6921,"Ġtexts":6922,"Ġfilms":6923,"Ġtests":6924,"Ġsigns":6925,"otty":6926,"Ġforgetting":6927,"Ġchocolates":6928,"eyball":6929,"Ġgraph":6930,"Ġcommon":6931,"Ġcommun":6932,"Ġceleb":6933,"Ġcolour":6934,"Ġregre":6935,"Ġcontro":6936,"Ġtomato":6937,"Ġdanger":6938,"Ġdangit":6939,"Ġsentence":6940,"Ġhonour":6941,"Ġdamm":6942,"Ġreplying":6943,"Ġburning":6944,"Ġanswers":6945,"Ġlighter":6946,"Ġevry":6947,"Ġ2010":6948,"Ġdownloading":6949,"Ġchanges":6950,"Ġordering":6951,"Ġgraduating":6952,"Ġmmmmmm":6953,"Ġappreciated":6954,"Ġdisappeared":6955,"Ġdisappointing":6956,"Ġharm":6957,"Ġeffing":6958,"Ġrefuses":6959,"Ġmsg":6960,"Ġdistance":6961,"Ġtweeter":6962,"Ġ1000":6963,"Ġsmaller":6964,"Ġreminded":6965,"Ġpurpose":6966,"Ġpurchase":6967,"Ġcycling":6968,"Ġexperiment":6969,"rrrrrrrr":6970,"rrrrrrr":6971,"iety":6972,"Ġsonny":6973,"Ġbottles":6974,"Ġdmv":6975,"Ġohhhhh":6976,"Ġarrive":6977,"Ġarriving":6978,"Ġbased":6979,"Ġblew":6980,"Ġpays":6981,"burger":6982,"Ġgeography":6983,"Ġaudience":6984,"Ġpissing":6985,"Ġpoli":6986,"Ġdigg":6987,"Ġdigging":6988,"Ġproduct":6989,"Ġrelated":6990,"Ġrolls":6991,"Ġrolling":6992,"Ġkicks":6993,"Ġraise":6994,"Ġsquirre":6995,"Ġhuman":6996,"Ġbene":6997,"Ġsticker":6998,"Ġrecommendation":6999,"Ġtennessee":7000,"Ġbookstore":7001,"Ġumbre":7002,"Ġmelbourne":7003,"Ġruby":7004,"aaaaaaaaaaaa":7005,"Ġtasty":7006,"Ġpotato":7007,"Ġdemons":7008,"Ġversions":7009,"Ġmicro":7010,"Ġfreed":7011,"Ġpeaceful":7012,"Ġresponse":7013,"Ġprayer":7014,"Ġprayers":7015,"Ġimax":7016,"Ġmuah":7017,"Ġhomes":7018,"Ġxoxox":7019,"Ġpractic":7020,"Ġdanny":7021,"Ġsolid":7022,"Ġconnect":7023,"Ġdisneyland":7024,"Ġdeserved":7025,"Ġprogramme":7026,"Ġbakery":7027,"Ġlamb":7028,"Ġdolls":7029,"Ġdollars":7030,"Ġcolorado":7031,"Ġstores":7032,"Ġvanilla":7033,"ffffffff":7034,"player":7035,"Ġmontreal":7036,"Ġrobin":7037,"Ġthunderstorm":7038,"Ġdata":7039,"Ġdatab":7040,"Ġrooting":7041,"Ġorigins":7042,"Ġmanager":7043,"Ġattacking":7044,"ergency":7045,"Ġdiscovery":7046,"Ġbangs":7047,"Ġdarling":7048,"Ġcasa":7049,"Ġcases":7050,"Ġcounter":7051,"Ġcounting":7052,"Ġbella":7053,"Ġformul":7054,"Ġjenny":7055,"Ġmexico":7056,"Ġdepends":7057,"Ġvirus":7058,"Ġscaring":7059,"Ġlaurie":7060,"Ġgeneral":7061,"Ġgeneration":7062,"Ġtechnology":7063,"Ġpeter":7064,"Ġitaly":7065,"Ġdeliver":7066,"Ġadvant":7067,"Ġadvance":7068,"Ġseafood":7069,"Ġcoughing":7070,"Ġlocations":7071,"ribly":7072,"Ġdevastated":7073,"Ġsemi":7074,"polis":7075,"Ġsweaty":7076,"Ġinspiration":7077,"Ġgooooood":7078,"Ġloner":7079,"Ġunable":7080,"Ġjunior":7081,"Ġprinted":7082,"Ġreplacement":7083,"snip":7084,"Ġwifi":7085,"Ġmountain":7086,"Ġmountains":7087,"Ġtowel":7088,"Ġcuppa":7089,"Ġlincoln":7090,"Ġguilty":7091,"Ġsweden":7092,"Ġmiserably":7093,"Ġtarget":7094,"Ġthumbs":7095,"Ġpumped":7096,"Ġdissap":7097,"Ġultimate":7098,"Ġforeign":7099,"Ġroute":7100,"Ġargentina":7101,"Ġparticularly":7102,"Ġhehehehe":7103,"Ġcorrect":7104,"Ġprofessional":7105,"juddday":7106,"Ġpodcast":7107,"Ġlisa":7108,"Ġspinning":7109,"Ġbradie":7110,"Ġsurprisingly":7111,"Ġreceived":7112,"henrie":7113,"Ġhtml":7114,"Ġhulu":7115,"Ġbiology":7116,"Ġbrowser":7117,"Ġginger":7118,"Ġcrowd":7119,"Ġjumping":7120,"Ġrehearsal":7121,"Ġsoftware":7122,"Ġchipotle":7123,"Ġsaddest":7124,"Ġmanagement":7125,"Ġbrittany":7126,"Ġapologies":7127,"Ġvegetarian":7128,"Ġmethinks":7129,"Ġrelationship":7130,"Ġportugal":7131,"rupt":7132,"sanct":7133,"Ġtbh":7134,"Ġneglected":7135,"Ġfarewell":7136,"Ġgallery":7137,"Ġrabbit":7138,"Ġrarely":7139,"Ġmaintenance":7140,"Ġselena":7141,"Ġcrawling":7142,"Ġregarding":7143,"Ġelectric":7144,"Ġrecognize":7145,"Ġlungs":7146,"Ġinvisible":7147,"Ġreinst":7148,"Ġshuffle":7149,"Ġkorea":7150,"Ġvibes":7151,"Ġfinancial":7152,"Ġcommercial":7153,"Ġbrilli":7154,"Ġfamiliar":7155,"Ġfilipino":7156,"Ġenterprise":7157,"Ġcinnamon":7158,"Ġmultiple":7159,"Ġimmediately":7160,"Ġnachos":7161,"Ġperez":7162,"Ġtoronto":7163,"Ġalgebra":7164,"Ġvolleyball":7165,"Ġacademy":7166,"Ġhungover":7167,"!:":7168,"!??":7169,"->":7170,"-****":7171,"/.":7172,"06":7173,"08":7174,"21":7175,"23":7176,"31":7177,"46":7178,"52":7179,"53":7180,"56":7181,"73":7182,"77":7183,"79":7184,"94":7185,";)":7186,"?`":7187,"aha":7188,"ahh":7189,"ahhh":7190,"ativity":7191,"ban":7192,"bout":7193,"best":7194,"bab":7195,"big":7196,"bound":7197,"bbl":7198,"brown":7199,"based":7200,"born":7201,"baby":7202,"cas":7203,"cop":7204,"cool":7205,"cited":7206,"cuz":7207,"cries":7208,"dg":7209,"dx":7210,"det":7211,"date":7212,"dri":7213,"dire":7214,"dream":7215,"dles":7216,"dale":7217,"eo":7218,"eva":7219,"find":7220,"full":7221,"father":7222,"fred":7223,"gw":7224,"gor":7225,"goo":7226,"ggh":7227,"gins":7228,"green":7229,"hr":7230,"hs":7231,"hus":7232,"hun":7233,"hur":7234,"hate":7235,"hire":7236,"hug":7237,"hoot":7238,"iq":7239,"iu":7240,"ios":7241,"iver":7242,"ique":7243,"jf":7244,"jq":7245,"jr":7246,"jen":7247,"jan":7248,"ki":7249,"kx":7250,"kz":7251,"kay":7252,"kward":7253,"kids":7254,"lc":7255,"last":7256,"lers":7257,"lace":7258,"lated":7259,"lets":7260,"mn":7261,"mt":7262,"mat":7263,"met":7264,"must":7265,"mil":7266,"mess":7267,"mpic":7268,"mich":7269,"mitted":7270,"nin":7271,"nate":7272,"nies":7273,"nope":7274,"nkotb":7275,"oly":7276,"obs":7277,"ova":7278,"pot":7279,"pop":7280,"pts":7281,"point":7282,"rl":7283,"rice":7284,"rose":7285,"rub":7286,"radio":7287,"sb":7288,"start":7289,"sing":7290,"sor":7291,"song":7292,"soul":7293,"td":7294,"tain":7295,"talk":7296,"tel":7297,"tomor":7298,"ui":7299,"uj":7300,"vl":7301,"van":7302,"vine":7303,"wb":7304,"wi":7305,"wq":7306,"wed":7307,"wid":7308,"wall":7309,"wide":7310,"wah":7311,"wonder":7312,"xe":7313,"xed":7314,"yb":7315,"ying":7316,"your":7317,"zo":7318,"zes":7319,"zens":7320,"Âł":7321,"Ġ{":7322,"Ġral":7323,"Ġere":7324,"Ġ!!!!":7325,"Ġ09":7326,"Ġetsy":7327,"enix":7328,"enger":7329,"ento":7330,"ential":7331,"Ġtm":7332,"Ġtend":7333,"Ġtack":7334,"Ġtink":7335,"Ġtub":7336,"Ġtail":7337,"Ġtty":7338,"Ġtape":7339,"ares":7340,"argh":7341,"Ġie":7342,"Ġiv":7343,"Ġiz":7344,"Ġiow":7345,"Ġich":7346,"Ġnj":7347,"Ġnine":7348,"Ġnxt":7349,"Ġnause":7350,"Ġnint":7351,"Ġnapp":7352,"Ġnba":7353,"Ġnatural":7354,"Ġnational":7355,"imum":7356,"Ġaa":7357,"Ġaqu":7358,"Ġairl":7359,"Ġako":7360,"Ġaaron":7361,"vell":7362,"Ġsg":7363,"Ġsos":7364,"Ġsic":7365,"Ġsink":7366,"Ġsab":7367,"Ġsrs":7368,"inos":7369,"inally":7370,"info":7371,"Ġwik":7372,"Ġwitty":7373,"Ġwives":7374,"Ġmk":7375,"Ġmt":7376,"Ġmv":7377,"Ġmee":7378,"Ġmill":7379,"Ġmour":7380,"Ġmeee":7381,"Ġmowing":7382,"Ġthin":7383,"Ġthou":7384,"Ġthas":7385,"Ġthick":7386,"Ġthaa":7387,"Ġthous":7388,"Ġthail":7389,"Ġthrown":7390,"Ġhp":7391,"Ġhut":7392,"Ġheeee":7393,"Ġhord":7394,"Ġhating":7395,"Ġhiding":7396,"tick":7397,"ala":7398,"ales":7399,"Ġbart":7400,"Ġbast":7401,"Ġboun":7402,"Ġbod":7403,"Ġbuck":7404,"Ġbbl":7405,"Ġbond":7406,"Ġboooooooo":7407,"Ġbucks":7408,"Ġping":7409,"Ġped":7410,"Ġpow":7411,"Ġpir":7412,"Ġpout":7413,"Ġpil":7414,"Ġpeep":7415,"Ġpand":7416,"Ġpum":7417,"Ġpile":7418,"Ġpsp":7419,"Ġpets":7420,"Ġpian":7421,"Ġpier":7422,"Ġpops":7423,"Ġpowers":7424,"Ġpanda":7425,"Ġpounding":7426,"once":7427,"onies":7428,"ontist":7429,"Ġtomm":7430,"Ġtoooo":7431,"Ġtoky":7432,"Ġfm":7433,"Ġfu":7434,"Ġfal":7435,"Ġfon":7436,"Ġfis":7437,"Ġfas":7438,"Ġfest":7439,"Ġfang":7440,"Ġfts":7441,"Ġfont":7442,"Ġfuk":7443,"Ġfuzz":7444,"Ġfatty":7445,"erts":7446,"orant":7447,"Ġgg":7448,"Ġgent":7449,"Ġgain":7450,"Ġgang":7451,"Ġgem":7452,"Ġgather":7453,"Ġgnight":7454,"Ġgps":7455,"Ġgoooooo":7456,"Ġgained":7457,"Ġdd":7458,"Ġdim":7459,"Ġdee":7460,"Ġdur":7461,"Ġdess":7462,"Ġdough":7463,"Ġdud":7464,"Ġdup":7465,"Ġdaz":7466,"Ġdms":7467,"Ġdual":7468,"Ġdump":7469,"Ġdirty":7470,"Ġcs":7471,"Ġcot":7472,"Ġcus":7473,"Ġcere":7474,"Ġcind":7475,"Ġcops":7476,"Ġcba":7477,"Ġcrib":7478,"Ġcsi":7479,"Ġlj":7480,"Ġles":7481,"Ġloun":7482,"Ġlaa":7483,"Ġloop":7484,"oses":7485,"oster":7486,"atus":7487,"anch":7488,"another":7489,"annn":7490,"Ġyt":7491,"Ġyan":7492,"Ġyeeee":7493,"Ġyew":7494,"Ġyaaay":7495,"rek":7496,"rete":7497,"Ġoy":7498,"Ġoly":7499,"Ġoli":7500,"Ġoveral":7501,"Ġposh":7502,"oms":7503,"omen":7504,"esome":7505,"edin":7506,"edly":7507,"Ġantic":7508,"Ġanime":7509,"Ġhai":7510,"Ġhairst":7511,"Ġhabit":7512,"Ġhawa":7513,"otha":7514,"isy":7515,"Ġitself":7516,"Ġitouch":7517,"Ġitchy":7518,"asse":7519,"asion":7520,"Ġindy":7521,"Ġinno":7522,"Ġinfect":7523,"Ġincon":7524,"Ġinfl":7525,"Ġinches":7526,"etter":7527,"etime":7528,"ghh":7529,"Ġbean":7530,"Ġbecom":7531,"Ġbears":7532,"Ġbegun":7533,"Ġuhh":7534,"Ġuhhh":7535,"Ġformer":7536,"Ġofc":7537,"ading":7538,"adow":7539,"adia":7540,"addict":7541,"Ġeu":7542,"Ġeps":7543,"cher":7544,"!!)":7545,"Ġjos":7546,"Ġjill":7547,"Ġjake":7548,"Ġjade":7549,"Ġjordan":7550,"leg":7551,"learn":7552,"...?":7553,"Ġwhom":7554,"Ġwheres":7555,"Ġrey":7556,"Ġrear":7557,"Ġreti":7558,"Ġreee":7559,"Ġreven":7560,"Ġreaction":7561,"Ġsob":7562,"Ġsole":7563,"Ġsoda":7564,"iced":7565,"iction":7566,"Ġgover":7567,"Ġgoose":7568,"Ġrh":7569,"Ġrot":7570,"Ġrly":7571,"Ġrant":7572,"Ġrats":7573,"Ġrio":7574,"Ġrings":7575,"Ġruss":7576,"Ġrules":7577,"ustream":7578,"Ġlobs":7579,"Ġlovers":7580,"Ġlogged":7581,"Ġlogging":7582,"teria":7583,"amous":7584,"ammed":7585,"Ġshat":7586,"Ġshan":7587,"Ġshack":7588,"Ġshite":7589,"Ġshak":7590,"Ġsheet":7591,"Ġshock":7592,"Ġshaw":7593,"Ġshape":7594,"Ġshipped":7595,"Ġshattered":7596,"uns":7597,"Ġkh":7598,"Ġku":7599,"Ġky":7600,"Ġkan":7601,"Ġkle":7602,"Ġkard":7603,"Ġkap":7604,"Ġkud":7605,"Ġkara":7606,"Ġkyle":7607,"Ġheaps":7608,"Ġhectic":7609,"Ġweed":7610,"Ġweeds":7611,"Ġlip":7612,"Ġlies":7613,"Ġlied":7614,"Ġlips":7615,"Ġstood":7616,"Ġstone":7617,"Ġstink":7618,"Ġstro":7619,"Ġstage":7620,"Ġattics":7621,"Ġwasting":7622,"Ġfro":7623,"open":7624,"ura":7625,"urve":7626,"urance":7627,"Ġariz":7628,"Ġallll":7629,"illing":7630,"Ġchant":7631,"Ġchain":7632,"Ġchair":7633,"tting":7634,"Ġworkshop":7635,"Ġsup":7636,"hac":7637,"antha":7638,"Ġlikey":7639,"Ġmorris":7640,"Ġalo":7641,"Ġalp":7642,"Ġalter":7643,"Ġ-.":7644,"aste":7645,"Ġdonuts":7646,"Ġhappiest":7647,"Ġamo":7648,"Ġamong":7649,"rod":7650,"roid":7651,"Ġmah":7652,"iem":7653,"ishing":7654,"Ġknocked":7655,"Ġknees":7656,"ila":7657,"Ġtiming":7658,"Ġawkward":7659,"stack":7660,"stress":7661,"stell":7662,"stances":7663,"racted":7664,"rific":7665,"Ġabit":7666,"sex":7667,"Ġasian":7668,"Ġasyl":7669,"essa":7670,"Ġ****`":7671,"Ġ****..":7672,"Ġlolz":7673,"Ġmissy":7674,"Ġmissin":7675,"Ġdecl":7676,"umber":7677,"umble":7678,"ummer":7679,"Ġva":7680,"Ġvt":7681,"Ġvine":7682,"Ġvoy":7683,"Ġvod":7684,"nati":7685,"native":7686,"ership":7687,"Ġexh":7688,"Ġexit":7689,"ability":7690,"oles":7691,"olic":7692,"oline":7693,"olution":7694,"igo":7695,"Ġcombo":7696,"Ġslice":7697,"Ġslap":7698,"icks":7699,"Ġmoan":7700,"aka":7701,"aki":7702,"aker":7703,"Ġneedle":7704,"Ġneedles":7705,"Ġtwiter":7706,"Ġtwitting":7707,"Ġtwitts":7708,"Ġfunky":7709,"Ġblend":7710,"Ġblis":7711,"Ġblink":7712,"Ġblowing":7713,"Ġusers":7714,"Ġleon":7715,"Ġleop":7716,"Ġlebron":7717,"Ġunex":7718,"Ġunpack":7719,"Ġguin":7720,"Ġguild":7721,"Ġguests":7722,"Ġtwitterberry":7723,"Ġtwitterverse":7724,"Ġtwitterworld":7725,"Ġ(****":7726,"Ġ(((":7727,"Ġwished":7728,"Ġherself":7729,"Ġheroes":7730,"Ġcloud":7731,"Ġclara":7732,"Ġfaith":7733,"wwwww":7734,"quel":7735,"twt":7736,"tweeting":7737,"Ġlasted":7738,"Ġsorting":7739,"Ġsleepin":7740,"Ġwouldnt":7741,"Ġsac":7742,"Ġsatis":7743,"Ġconvo":7744,"Ġprogress":7745,"Ġteh":7746,"Ġyeahhh":7747,"Ġwonders":7748,"place":7749,"Ġenc":7750,"Ġenvy":7751,"Ġfollows":7752,"Ġfollowin":7753,"Ġfollowfriday":7754,"Ġsunn":7755,"apy":7756,"Ġmann":7757,"bec":7758,"bey":7759,"because":7760,"Ġmayb":7761,"Ġmayer":7762,"Ġovers":7763,"Ġoverhe":7764,"Ġovernight":7765,"Ġovertime":7766,"Ġovercast":7767,"Ġoverwhe":7768,"Ġpepper":7769,"Ġbrb":7770,"Ġbru":7771,"Ġbrook":7772,"Ġbruise":7773,"forest":7774,"Ġshouldnt":7775,"Ġmonkey":7776,"Ġgrim":7777,"Ġgrub":7778,"Ġgrump":7779,"Ġgrilled":7780,"Ġ:[":7781,"Ġ:\\":7782,"Ġquarter":7783,"udg":7784,"Ġrobb":7785,"Ġrogue":7786,"Ġrogers":7787,"assing":7788,"Ġdownside":7789,"Ġscroll":7790,"Ġcares":7791,"Ġchef":7792,"Ġchel":7793,"Ġchels":7794,"Ġswing":7795,"Ġswamp":7796,"agr":7797,"ague":7798,"Ġtramp":7799,"Ġplayoff":7800,"Ġprepar":7801,"Ġpritch":7802,"Ġflower":7803,"Ġcallin":7804,"heart":7805,"mac":7806,"today":7807,"iao":7808,"Ġacid":7809,"izes":7810,"Ġgirlie":7811,"Ġpartyyyy":7812,"Ġyearbook":7813,"Ġlappy":7814,"Ġlaughter":7815,"Ġappro":7816,"Ġappli":7817,"Ġapples":7818,"Ġhurray":7819,"Ġglen":7820,"ortunity":7821,"Ġwrist":7822,"tails":7823,"never":7824,"Ġhiya":7825,"nya":7826,"Ġeaten":7827,"acing":7828,"aced":7829,"acity":7830,"Ġsmashed":7831,"emo":7832,"empl":7833,"Ġ55":7834,"Ġstarwars":7835,"Ġ</":7836,"Ġbabyy":7837,"Ġours":7838,"azing":7839,"Ġomj":7840,"Ġminus":7841,"Ġdipl":7842,"Ġdianne":7843,"Ġleavin":7844,"Ġleague":7845,"Ġinternation":7846,"Ġharddri":7847,"Ġtrial":7848,"Ġtrippin":7849,"Ġidiots":7850,"Ġdislike":7851,"Ġdisconne":7852,"Ġughhhh":7853,"Ġagen":7854,"Ġcrim":7855,"Ġcrunch":7856,"Ġcrime":7857,"Ġcruel":7858,"Ġenjoyable":7859,"Ġcompared":7860,"Ġparanoid":7861,"Ġrealy":7862,"Ġ630":7863,"Ġpero":7864,"Ġperu":7865,"Ġkidney":7866,"aaaaaa":7867,"Ġmarry":7868,"Ġremix":7869,"Ġputs":7870,"Ġdavis":7871,"Ġendless":7872,"Ġbirthdays":7873,"Ġtakin":7874,"Ġyaay":7875,"Ġmuscle":7876,"cold":7877,"Ġhung":7878,"Ġhunny":7879,"Ġhairdress":7880,"Ġ=(":7881,"Ġ800":7882,"Ġbelgian":7883,"Ġcleared":7884,"Ġcrafty":7885,"Ġaccid":7886,"Ġfarmer":7887,"byes":7888,"Ġmighty":7889,"Ġfreezer":7890,"Ġtrees":7891,"Ġtrekk":7892,"Ġskate":7893,"Ġskip":7894,"Ġmumba":7895,"Ġbooth":7896,"Ġawwwwwww":7897,"anced":7898,"Ġembar":7899,"Ġemergency":7900,"Ġplanes":7901,"Ġpains":7902,"Ġzac":7903,"Ġzoe":7904,"Ġkewl":7905,"Ġsuperman":7906,"Ġwelcom":7907,"Ġsupply":7908,"Ġroomies":7909,"Ġdesire":7910,"brand":7911,"brush":7912,"Ġsweety":7913,"Ġsweetest":7914,"Ġilleg":7915,"thew":7916,"Ġoprah":7917,"Ġhoe":7918,"Ġhoedown":7919,"nnnnn":7920,"Ġsoooooooo":7921,"gotta":7922,"Ġsneak":7923,"Ġsnoring":7924,"Ġsnuggle":7925,"Ġsurf":7926,"Ġsurfing":7927,"Ġrepub":7928,"Ġreports":7929,"Ġrepresent":7930,"Ġrocky":7931,"Ġrocket":7932,"Ġattrac":7933,"tech":7934,"text":7935,"Ġ99":7936,"uuut":7937,"Ġcharl":7938,"Ġcaused":7939,"Ġblogs":7940,"Ġconcern":7941,"Ġspeci":7942,"yyyyyy":7943,"Ġcardio":7944,"Ġforgotten":7945,"Ġedited":7946,"Ġhalo":7947,"Ġboost":7948,"Ġcollect":7949,"Ġchilled":7950,"Ġhighlight":7951,"Ġhearts":7952,"Ġstrang":7953,"Ġcomplet":7954,"Ġcompleted":7955,"conf":7956,"Ġtila":7957,"notes":7958,"Ġwears":7959,"Ġgrades":7960,"Ġdrives":7961,"bob":7962,"Ġmacar":7963,"????????":7964,"Ġgrandmother":7965,"Ġartist":7966,"Ġpassing":7967,"Ġperfectly":7968,"Ġ.......":7969,"attern":7970,"Ġcurry":7971,"Ġcurse":7972,"Ġcurren":7973,"Ġresume":7974,"unky":7975,"movie":7976,"Ġconflic":7977,"Ġconfirm":7978,"Ġconfirmed":7979,"Ġcareful":7980,"Ġpromo":7981,"Ġmcm":7982,"Ġmcr":7983,"Ġvisa":7984,"Ġpresence":7985,"Ġfluffy":7986,"Ġburns":7987,"Ġsignal":7988,"Ġeasily":7989,"oooooooooooooooo":7990,"Ġtyler":7991,"Ġflyer":7992,"Ġreasonable":7993,"Ġbbc":7994,"icially":7995,"Ġloading":7996,"Ġphotoshoot":7997,"Ġpizzas":7998,"Ġseasons":7999,"Ġsykes":8000,"Ġsidewalk":8001,"Ġsidekick":8002,"Ġcupcake":8003,"Ġcontent":8004,"Ġcontract":8005,"Ġcontempl":8006,"Ġnumb":8007,"Ġreturning":8008,"Ġdamned":8009,"Ġsample":8010,"Ġsamantha":8011,"Ġburger":8012,"Ġburgers":8013,"Ġinsul":8014,"Ġinspe":8015,"Ġsteam":8016,"Ġsteady":8017,"Ġassist":8018,"Ġbuddies":8019,"ussy":8020,"entionally":8021,"Ġsimps":8022,"Ġsimilar":8023,"Ġlightning":8024,"Ġindo":8025,"!!!!!!!!!!":8026,"665":8027,"Ġmedium":8028,"Ġstandards":8029,"Ġjacket":8030,"Ġstreets":8031,"Ġstretch":8032,"Ġcheesecake":8033,"Ġagreeing":8034,"Ġmeetings":8035,"Ġharry":8036,"Ġrefer":8037,"Ġrefle":8038,"Ġsalary":8039,"Ġreminding":8040,"Ġgreenville":8041,"Ġcelebrated":8042,"wait":8043,"Ġguts":8044,"Ġcya":8045,"Ġcycle":8046,"Ġluke":8047,"Ġexpert":8048,"Ġbreaks":8049,"Ġcreativity":8050,"Ġ2000":8051,"cycle":8052,"Ġbleach":8053,"Ġfishies":8054,"Ġgigs":8055,"Ġtransport":8056,"burg":8057,"Ġbeside":8058,"Ġbestie":8059,"Ġtouched":8060,"Ġlatte":8061,"Ġnotebook":8062,"..........":8063,"Ġspray":8064,"Ġsmiley":8065,"Ġpolar":8066,"Ġdropping":8067,"Ġproduc":8068,"Ġproduce":8069,"127":8070,"Ġpopulation":8071,"Ġindepend":8072,"Ġrelief":8073,"Ġboxing":8074,"Ġboxes":8075,"Ġimpro":8076,"Ġunique":8077,"Ġuniverse":8078,"Ġtracks":8079,"Ġrecommendations":8080,"Ġtherapy":8081,"Ġmelissa":8082,"Ġspeaker":8083,"Ġspeakers":8084,"Ġpotter":8085,"Ġimagination":8086,"Ġvotes":8087,"Ġcheering":8088,"Ġflights":8089,"Ġdiscoura":8090,"Ġmentioned":8091,"Ġthrowback":8092,"Ġcapital":8093,"cessary":8094,"Ġteehee":8095,"Ġwales":8096,"Ġmichigan":8097,"Ġpatron":8098,"Ġfitness":8099,"Ġjamie":8100,"Ġrespons":8101,"Ġprince":8102,"prod":8103,"Ġnooooooo":8104,"Ġaffect":8105,"Ġahhhhhh":8106,"Ġmixed":8107,"Ġdenny":8108,"Ġdenial":8109,"Ġjustice":8110,"Ġexhausting":8111,"Ġsweating":8112,"Ġrandomly":8113,"Ġmuy":8114,"ernatural":8115,"isingly":8116,"Ġexploring":8117,"Ġspammers":8118,"Ġdirectly":8119,"paid":8120,"Ġbrick":8121,"Ġdaniel":8122,"Ġlayout":8123,"Ġinspired":8124,"Ġrequire":8125,"Ġrequiem":8126,"Ġmagical":8127,"Ġviews":8128,"Ġconnected":8129,"Ġaustralian":8130,"lette":8131,"supernatural":8132,"Ġwallet":8133,"Ġpigs":8134,"Ġpiggy":8135,"Ġlambert":8136,"Ġhavn":8137,"Ġhavnt":8138,"Ġridiculous":8139,"Ġdollar":8140,"Ġchaper":8141,"Ġimpression":8142,"Ġimpressive":8143,"Ġleads":8144,"Ġtroubles":8145,"Ġattempting":8146,"boys":8147,"Ġheehee":8148,"Ġintent":8149,"Ġgloom":8150,"Ġglobal":8151,"Ġstraighten":8152,"Ġhayfe":8153,"Ġhayley":8154,"Ġlabels":8155,"Ġyahoo":8156,"Ġroof":8157,"Ġroots":8158,"Ġbutterfly":8159,"Ġoriginally":8160,"ruction":8161,"Ġignored":8162,"Ġeuro":8163,"Ġwrapped":8164,"Ġcounts":8165,"Ġjenn":8166,"Ġstrike":8167,"Ġwashington":8168,"Ġcheaper":8169,"Ġashleigh":8170,"Ġlaura":8171,"aaaaaay":8172,"Ġtechnically":8173,"Ġturtle":8174,"Ġtags":8175,"Ġbeef":8176,"Ġpineapple":8177,"Ġlacking":8178,"Ġoceans":8179,"Ġjersey":8180,"Ġvictory":8181,"Ġaccepting":8182,")))":8183,"`****?":8184,"html":8185,"Ġripped":8186,"Ġtweeples":8187,"Ġdevon":8188,"cinnati":8189,"mission":8190,"Ġsusp":8191,"Ġmartin":8192,"Ġcities":8193,"Ġwhoops":8194,"Ġgoldfish":8195,"Ġkoi":8196,"Ġdrums":8197,"Ġgirlfriends":8198,"Ġmaryland":8199,"luv":8200,"packet":8201,"Ġtutor":8202,"Ġtatto":8203,"Ġmatthew":8204,"Ġgambit":8205,"Ġjungle":8206,"Ġrepeated":8207,"Ġkayla":8208,"Ġlifes":8209,"Ġlifetime":8210,"Ġupgraded":8211,"Ġmotivated":8212,"Ġclicked":8213,"Ġconvince":8214,"Ġpatients":8215,"Ġdiscussion":8216,"gmt":8217,"Ġsilver":8218,"Ġsilence":8219,"Ġlinux":8220,"Ġhawks":8221,"Ġjesse":8222,"Ġjudge":8223,"Ġfrustrating":8224,"Ġspoil":8225,"Ġguilt":8226,"Ġcocktails":8227,"Ġswedish":8228,"Ġentertaining":8229,"mbly":8230,"yeah":8231,"Ġthumb":8232,"Ġdiesel":8233,"Ġopportunity":8234,"Ġromance":8235,"Ġstalking":8236,"Ġfrankie":8237,"Ġgreetings":8238,"Ġfunniest":8239,"Ġfunerals":8240,"Ġclosest":8241,"Ġbroadband":8242,"Ġzombie":8243,"Ġsnacks":8244,"Ġrelatives":8245,"Ġsubjects":8246,"ĠĠĠĠĠĠĠĠĠĠĠĠĠĠĠĠĠĠĠĠĠĠĠĠĠĠĠĠĠĠĠĠ":8247,"fieldnotes":8248,"gonna":8249,"Ġtires":8250,"Ġwireless":8251,"Ġmuffin":8252,"Ġmuffins":8253,"Ġtoddler":8254,"Ġyellow":8255,"Ġoccasion":8256,"Ġtwisted":8257,"Ġsplit":8258,"Ġburrito":8259,"Ġpsych":8260,"Ġincreasing":8261,"Ġconditions":8262,"Ġsuddenly":8263,"mcfly":8264,"Ġauntie":8265,"Ġcartoon":8266,"Ġcassie":8267,"Ġculture":8268,"Ġinfamous":8269,"Ġjailbreak":8270,"Ġliverpool":8271,"Ġadventure":8272,"Ġadventures":8273,"Ġemployee":8274,"Ġzelda":8275,"control":8276,"Ġteddy":8277,"Ġwaaaaay":8278,"Ġbamboo":8279,"Ġlucas":8280,"Ġanxiety":8281,"Ġshannon":8282,"Ġkirk":8283,"Ġchallenge":8284,"thinking":8285,"Ġabandoned":8286,"Ġgreece":8287,"Ġunlucky":8288,"Ġcarolina":8289,"Ġapplication":8290,"Ġregistered":8291,"Ġdisturbed":8292,"Ġtranslation":8293,"Ġtraditional":8294,"Ġeconomic":8295,"Ġsympathy":8296,"Ġnurse":8297,"Ġnashville":8298,"Ġaverage":8299,"Ġpamper":8300,"Ġpfft":8301,"Ġdvds":8302,"Ġchampagne":8303,"Ġmaccy":8304,"Ġassembly":8305,"Ġlecture":8306,"Ġselected":8307,"Ġseparate":8308,"Ġpearl":8309,"Ġwriters":8310,"Ġcompanies":8311,"Ġperforming":8312,"Ġconcentrate":8313,"Ġmilkshake":8314,"Ġescaped":8315,"Ġinsomniac":8316,"Ġexperiencing":8317,"Ġpriority":8318,"Ġneighborhood":8319,"Ġemotional":8320,"Ġcoworker":8321,"Ġrenewed":8322,"Ġfestival":8323,"trying":8324,"Ġfocus":8325,"Ġdedicated":8326,"Ġrisk":8327,"Ġfrancisco":8328,"Ġchirping":8329,"eagues":8330,"Ġmozart":8331,"Ġmodern":8332,"Ġphoenix":8333,"Ġengagement":8334,"Ġdiamond":8335,"laurie":8336,"Ġphotographer":8337,"Ġsurrounded":8338,"Ġcomplicated":8339,"Ġdangerous":8340,"Ġumbrella":8341,"Ġfreedom":8342,"Ġadvantage":8343,"snipurl":8344,"Ġbrilliant":8345,"tomorrow":8346,"width":8347,"Ġiowa":8348,"Ġsrsly":8349,"Ġthailand":8350,"Ġpouting":8351,"Ġpiano":8352,"Ġtokyo":8353,"Ġftsk":8354,"Ġlounge":8355,"Ġolympic":8356,"Ġoverall":8357,"Ġanticip":8358,"Ġrevenge":8359,"Ġlobster":8360,"Ġkardash":8361,"Ġkudos":8362,"Ġkaraoke":8363,"Ġarizona":8364,"Ġasylum":8365,"Ġunexpected":8366,"Ġunpacking":8367,"Ġchelsea":8368,"Ġtrampoline":8369,"Ġpritchard":8370,"Ġinternational":8371,"Ġharddrive":8372,"Ġmumbai":8373,"Ġillegal":8374,"Ġattractive":8375,"Ġcurrency":8376,"Ġindependent":8377,"!]":8378,"!?!?!":8379,"!,.":8380,"'-":8381,"'....":8382,")!":8383,"*.":8384,",...":8385,"-*":8386,"-`":8387,".?":8388,"/)":8389,"/-":8390,"03":8391,"04":8392,"199":8393,"360":8394,"42":8395,"43":8396,"57":8397,"61":8398,"63":8399,"64":8400,"81":8401,"83":8402,"85":8403,"89":8404,"91":8405,"92":8406,"96":8407,"97":8408,"<<":8409,"=]":8410,"?!!":8411,"`!":8412,"`?":8413,"``":8414,"aj":8415,"au":8416,"aga":8417,"aving":8418,"apl":8419,"august":8420,"axing":8421,"bp":8422,"bw":8423,"ben":8424,"bor":8425,"bes":8426,"bid":8427,"buck":8428,"bull":8429,"bage":8430,"both":8431,"boot":8432,"bbo":8433,"bike":8434,"bows":8435,"brows":8436,"bnation":8437,"cd":8438,"cf":8439,"cn":8440,"cw":8441,"cz":8442,"cor":8443,"cos":8444,"cot":8445,"cet":8446,"cry":8447,"cro":8448,"cie":8449,"call":8450,"card":8451,"cia":8452,"care":8453,"cla":8454,"cli":8455,"castic":8456,"cester":8457,"corn":8458,"cidence":8459,"dk":8460,"dar":8461,"dee":8462,"done":8463,"does":8464,"dler":8465,"eb":8466,"ez":8467,"eti":8468,"eos":8469,"eber":8470,"egr":8471,"ebob":8472,"fre":8473,"fay":8474,"fed":8475,"fight":8476,"fill":8477,"fry":8478,"fting":8479,"foot":8480,"fits":8481,"fuly":8482,"gth":8483,"gling":8484,"gared":8485,"geek":8486,"hp":8487,"hz":8488,"hot":8489,"hack":8490,"hand":8491,"hall":8492,"hmm":8493,"hang":8494,"hirl":8495,"hia":8496,"hopp":8497,"hana":8498,"huggles":8499,"iee":8500,"iaa":8501,"iving":8502,"iva":8503,"ities":8504,"ivid":8505,"js":8506,"jt":8507,"jv":8508,"jon":8509,"jess":8510,"june":8511,"kq":8512,"kar":8513,"kit":8514,"kill":8515,"kie":8516,"kiss":8517,"kers":8518,"kind":8519,"kia":8520,"keeps":8521,"kinda":8522,"lou":8523,"low":8524,"lee":8525,"lant":8526,"link":8527,"lip":8528,"lord":8529,"lbs":8530,"london":8531,"large":8532,"mf":8533,"mj":8534,"mal":8535,"mes":8536,"mith":8537,"mand":8538,"make":8539,"mble":8540,"mint":8541,"mel":8542,"mary":8543,"mcc":8544,"mons":8545,"makes":8546,"mware":8547,"nk":8548,"np":8549,"nz":8550,"nut":8551,"nea":8552,"note":8553,"nuts":8554,"oons":8555,"pin":8556,"pal":8557,"pan":8558,"pit":8559,"ply":8560,"pad":8561,"pire":8562,"pies":8563,"pear":8564,"pens":8565,"park":8566,"ports":8567,"porate":8568,"qw":8569,"rz":8570,"rent":8571,"rit":8572,"roo":8573,"ras":8574,"rase":8575,"rope":8576,"rings":8577,"rade":8578,"rics":8579,"rays":8580,"rtle":8581,"sar":8582,"sim":8583,"sin":8584,"say":8585,"sed":8586,"sch":8587,"sam":8588,"sub":8589,"sure":8590,"sort":8591,"school":8592,"shake":8593,"safter":8594,"summer":8595,"tj":8596,"tour":8597,"take":8598,"tell":8599,"times":8600,"tried":8601,"tools":8602,"uous":8603,"uese":8604,"vv":8605,"vor":8606,"vity":8607,"viron":8608,"wj":8609,"wt":8610,"wz":8611,"wal":8612,"wer":8613,"wat":8614,"wit":8615,"wow":8616,"wink":8617,"wick":8618,"weet":8619,"wanna":8620,"wel":8621,"witty":8622,"ye":8623,"yj":8624,"yk":8625,"yth":8626,"yum":8627,"year":8628,"zf":8629,"zg":8630,"zi":8631,"zp":8632,"zv":8633,"zed":8634,"Ġeek":8635,"Ġustream":8636,"ene":8637,"enna":8638,"enomen":8639,"Ġxxxxxxxxxx":8640,"Ġtc":8641,"Ġtn":8642,"Ġtart":8643,"Ġtid":8644,"Ġtro":8645,"Ġtie":8646,"Ġtall":8647,"Ġtres":8648,"Ġtup":8649,"Ġtube":8650,"Ġtester":8651,"Ġtango":8652,"Ġtiring":8653,"Ġtierd":8654,"ari":8655,"ario":8656,"Ġia":8657,"Ġion":8658,"Ġire":8659,"Ġick":8660,"Ġirr":8661,"Ġizz":8662,"Ġicar":8663,"Ġikr":8664,"Ġibm":8665,"Ġiplayer":8666,"Ġnc":8667,"Ġnm":8668,"Ġnit":8669,"Ġnth":8670,"Ġnort":8671,"Ġnjoy":8672,"Ġnik":8673,"Ġnana":8674,"Ġnfg":8675,"ima":8676,"imer":8677,"imme":8678,"immer":8679,"imaver":8680,"enda":8681,"Ġak":8682,"Ġaus":8683,"Ġaven":8684,"Ġaah":8685,"Ġaching":8686,"Ġaka":8687,"vere":8688,"Ġsr":8689,"Ġsou":8690,"Ġsed":8691,"Ġsake":8692,"Ġsass":8693,"Ġsss":8694,"Ġsfo":8695,"Ġsesh":8696,"Ġsql":8697,"Ġsrry":8698,"Ġsizes":8699,"inis":8700,"inity":8701,"incl":8702,"incidence":8703,"Ġneva":8704,"Ġneuro":8705,"Ġnecessary":8706,"Ġwy":8707,"Ġwks":8708,"Ġwink":8709,"Ġwil":8710,"Ġwick":8711,"Ġwool":8712,"Ġwak":8713,"Ġwip":8714,"Ġwiz":8715,"Ġwating":8716,"Ġwitch":8717,"Ġwaaaaaaaa":8718,"Ġwooooo":8719,"Ġwiped":8720,"Ġwendy":8721,"Ġmm":8722,"Ġmn":8723,"Ġmim":8724,"Ġmend":8725,"Ġmoo":8726,"Ġmri":8727,"Ġmuse":8728,"Ġmud":8729,"Ġmug":8730,"Ġmens":8731,"Ġmates":8732,"Ġmba":8733,"Ġmeeeee":8734,"Ġmashed":8735,"Ġmolly":8736,"Ġmgmt":8737,"Ġtht":8738,"Ġhq":8739,"Ġhv":8740,"Ġhan":8741,"Ġhic":8742,"Ġhong":8743,"Ġhous":8744,"Ġhint":8745,"Ġhhaha":8746,"Ġhence":8747,"Ġhips":8748,"Ġhittin":8749,"utz":8750,"uters":8751,"utches":8752,"tia":8753,"tise":8754,"tition":8755,"alf":8756,"alan":8757,"aled":8758,"alle":8759,"aline":8760,"Ġbm":8761,"Ġbend":8762,"Ġbis":8763,"Ġbeet":8764,"Ġbake":8765,"Ġbap":8766,"Ġbip":8767,"Ġbree":8768,"Ġbens":8769,"Ġbkk":8770,"Ġbik":8771,"Ġbatt":8772,"Ġbible":8773,"Ġbwa":8774,"Ġboooooo":8775,"Ġbicy":8776,"Ġpd":8777,"Ġpor":8778,"Ġpas":8779,"Ġpun":8780,"Ġpatch":8781,"Ġpul":8782,"Ġpine":8783,"Ġpies":8784,"Ġpip":8785,"Ġpint":8786,"Ġpik":8787,"Ġpeek":8788,"Ġpuzz":8789,"Ġpushing":8790,"Ġpimp":8791,"Ġpups":8792,"Ġpotty":8793,"Ġpattern":8794,"oni":8795,"onia":8796,"onica":8797,"inge":8798,"ington":8799,"Ġtourn":8800,"Ġtops":8801,"Ġtopped":8802,"Ġtowards":8803,"Ġfee":8804,"Ġfot":8805,"Ġfought":8806,"Ġfired":8807,"Ġfond":8808,"Ġfanc":8809,"Ġfif":8810,"Ġfift":8811,"Ġfern":8812,"Ġfirm":8813,"Ġfudge":8814,"erm":8815,"erin":8816,"eries":8817,"errr":8818,"orter":8819,"orks":8820,"orting":8821,"oration":8822,"orah":8823,"Ġgw":8824,"Ġgy":8825,"Ġgor":8826,"Ġgad":8827,"Ġgri":8828,"Ġgour":8829,"Ġgel":8830,"Ġgents":8831,"Ġgnite":8832,"Ġgimme":8833,"Ġdf":8834,"Ġdk":8835,"Ġding":8836,"Ġdere":8837,"Ġdood":8838,"Ġdice":8839,"Ġdip":8840,"Ġdooo":8841,"Ġdating":8842,"Ġdirt":8843,"Ġditch":8844,"Ġduh":8845,"Ġdrows":8846,"Ġdvr":8847,"Ġdandy":8848,"Ġct":8849,"Ġcw":8850,"Ġcate":8851,"Ġcooks":8852,"Ġcss":8853,"Ġcork":8854,"Ġcds":8855,"Ġcube":8856,"Ġcries":8857,"Ġlend":8858,"Ġled":8859,"Ġloooo":8860,"Ġlag":8861,"Ġlug":8862,"Ġlens":8863,"Ġlanc":8864,"Ġloooooooo":8865,"Ġlane":8866,"Ġlump":8867,"Ġlitter":8868,"Ġlinda":8869,"Ġlacey":8870,"..'":8871,"osop":8872,"ata":8873,"atory":8874,"anity":8875,"anco":8876,"anley":8877,"Ġyur":8878,"Ġyaaaa":8879,"Ġyey":8880,"Ġyards":8881,"Ġyikes":8882,"Ġyaaaay":8883,"Ġyorks":8884,"rees":8885,"reee":8886,"ready":8887,"related":8888,"Ġoll":8889,"Ġoot":8890,"Ġooooo":8891,"Ġowww":8892,"Ġova":8893,"Ġowl":8894,"Ġowwww":8895,"lls":8896,"oma":8897,"estic":8898,"especially":8899,"eda":8900,"edge":8901,"edies":8902,"ooh":8903,"ooow":8904,"ooke":8905,"oool":8906,"Ġant":8907,"Ġanch":8908,"Ġants":8909,"Ġhaa":8910,"Ġhaz":8911,"Ġhack":8912,"Ġhaaa":8913,"Ġhamm":8914,"eem":8915,"eezing":8916,"oted":8917,"otxt":8918,"otta":8919,"Ġyouu":8920,"Ġitching":8921,"Ġmyrtle":8922,"asp":8923,"aser":8924,"ases":8925,"asure":8926,"Ġandroid":8927,"Ġink":8928,"Ġincome":8929,"Ġinves":8930,"Ġintr":8931,"Ġinform":8932,"Ġiniti":8933,"usday":8934,"eter":8935,"Ġonion":8936,"ghz":8937,"ghhh":8938,"Ġbees":8939,"Ġbever":8940,"Ġbeers":8941,"Ġbebe":8942,"Ġbehave":8943,"Ġbecky":8944,"Ġforms":8945,"Ġforbid":8946,"adi":8947,"adas":8948,"adium":8949,"Ġea":8950,"Ġeup":8951,"Ġego":8952,"chi":8953,"char":8954,"chan":8955,"chain":8956,"chem":8957,"challen":8958,"chitis":8959,"!!??":8960,"Ġjd":8961,"Ġji":8962,"Ġjs":8963,"Ġjar":8964,"Ġjose":8965,"Ġjac":8966,"Ġjane":8967,"Ġjury":8968,"Ġjazz":8969,"lex":8970,"leman":8971,"...!":8972,"Ġwhn":8973,"Ġwht":8974,"Ġwhaaa":8975,"Ġwheels":8976,"Ġreck":8977,"Ġreel":8978,"Ġreli":8979,"Ġreload":8980,"Ġreje":8981,"Ġrebel":8982,"Ġrelying":8983,"Ġmega":8984,"Ġmegan":8985,"idi":8986,"idol":8987,"idity":8988,"idiot":8989,"Ġsoak":8990,"Ġsocal":8991,"omez":8992,"icles":8993,"Ġgoat":8994,"Ġrp":8995,"Ġrus":8996,"Ġrome":8997,"Ġrul":8998,"Ġrap":8999,"Ġrah":9000,"Ġrates":9001,"Ġreno":9002,"Ġrides":9003,"Ġrsv":9004,"uster":9005,"Ġlover":9006,"Ġlogin":9007,"Ġloosing":9008,"Ġlollll":9009,"ternet":9010,"tersweet":9011,"amer":9012,"amation":9013,"ambled":9014,"amento":9015,"Ġshw":9016,"Ġshit":9017,"Ġshir":9018,"Ġsheep":9019,"Ġshhh":9020,"Ġshamp":9021,"Ġshadow":9022,"unday":9023,"unken":9024,"unfortun":9025,"unfollow":9026,"Ġkent":9027,"Ġkos":9028,"Ġkat":9029,"Ġket":9030,"Ġkaw":9031,"Ġkav":9032,"Ġkfc":9033,"Ġheated":9034,"Ġheyyy":9035,"Ġhelm":9036,"eremy":9037,"ppie":9038,"ppers":9039,"ppins":9040,"oodoo":9041,"Ġlily":9042,"Ġliqu":9043,"Ġlivin":9044,"Ġstam":9045,"Ġstats":9046,"Ġstable":9047,"Ġstung":9048,"Ġstunning":9049,"Ġstanley":9050,"Ġdoh":9051,"Ġdoom":9052,"Ġdolp":9053,"Ġdope":9054,"Ġdoors":9055,"Ġnotting":9056,"Ġfrost":9057,"Ġfrapp":9058,"Ġcanal":9059,"Ġcanon":9060,"Ġcanad":9061,"Ġcandle":9062,"Ġcanucks":9063,"Ġcandid":9064,"oper":9065,"ira":9066,"Ġargue":9067,"Ġarvo":9068,"Ġarrest":9069,"hern":9070,"Ġgoodluck":9071,"Ġouts":9072,"Ġallen":9073,"Ġallergy":9074,"Ġalllll":9075,"Ġchil":9076,"Ġcheet":9077,"Ġchuck":9078,"Ġchore":9079,"Ġchances":9080,"Ġchai":9081,"Ġchasing":9082,"Ġchamps":9083,"ttttt":9084,"ryl":9085,"Ġsud":9086,"Ġsuv":9087,"Ġsupr":9088,"Ġtwas":9089,"Ġtweed":9090,"Ġtwhirl":9091,"Ġnoone":9092,"Ġnovel":9093,"Ġnova":9094,"Ġnobod":9095,"Ġnotific":9096,"haa":9097,"habit":9098,"hakes":9099,"thes":9100,"thought":9101,"thats":9102,"Ġlovee":9103,"Ġloveee":9104,"Ġmorr":9105,"Ġgotcha":9106,"Ġalab":9107,"Ġalison":9108,"Ġalien":9109,"Ġ-_":9110,"Ġdong":9111,"Ġdonnie":9112,"Ġhappend":9113,"Ġamb":9114,"Ġamp":9115,"Ġamen":9116,"Ġamster":9117,"roe":9118,"Ġmaa":9119,"Ġmap":9120,"Ġmaaa":9121,"Ġmagn":9122,"Ġmaui":9123,"Ġtodayyy":9124,"ieving":9125,"Ġknitting":9126,"ilo":9127,"ilton":9128,"stor":9129,"stone":9130,"station":9131,"stream":9132,"static":9133,"raines":9134,"Ġimm":9135,"rio":9136,"rial":9137,"rian":9138,"rick":9139,"rich":9140,"ribe":9141,"Ġabc":9142,"Ġabusive":9143,"sec":9144,"Ġwhatta":9145,"Ġwhatcha":9146,"Ġasada":9147,"esss":9148,"comfortable":9149,"Ġ****-":9150,"Ġ****?":9151,"eepy":9152,"Ġbackpack":9153,"Ġweee":9154,"Ġlols":9155,"Ġlolol":9156,"Ġknoww":9157,"ongebob":9158,"Ġdey":9159,"ando":9160,"anderson":9161,"Ġplat":9162,"Ġplate":9163,"Ġplzz":9164,"Ġplugs":9165,"Ġplots":9166,"uma":9167,"uming":9168,"umati":9169,"umstances":9170,"Ġvh":9171,"Ġvmware":9172,"Ġvoodoo":9173,"ffee":9174,"ffle":9175,"ffles":9176,"allah":9177,"cts":9178,"ctor":9179,"Ġnewest":9180,"Ġnewport":9181,"Ġnewborn":9182,"Ġoffered":9183,"ardo":9184,"eston":9185,"estones":9186,"Ġanywho":9187,"Ġthinkin":9188,"Ġexs":9189,"Ġexpress":9190,"Ġexotic":9191,"abeth":9192,"olar":9193,"Ġhomeless":9194,"Ġnightmar":9195,"Ġcomet":9196,"Ġcomcast":9197,"Ġsleee":9198,"Ġslipp":9199,"Ġslammed":9200,"ickers":9201,"ickey":9202,"Ġspy":9203,"Ġspose":9204,"Ġspare":9205,"Ġspock":9206,"Ġspect":9207,"Ġspears":9208,"Ġspoon":9209,"Ġspicy":9210,"Ġspagh":9211,"Ġspongebob":9212,"ulu":9213,"uleta":9214,"Ġhahaa":9215,"Ġmold":9216,"Ġmotion":9217,"Ġmohaw":9218,"Ġhowd":9219,"Ġhoward":9220,"amel":9221,"aken":9222,"Ġneeda":9223,"Ġneeding":9224,"Ġtwitt":9225,"!!!..":9226,"!!!...":9227,"Ġblo":9228,"Ġblur":9229,"Ġbliss":9230,"Ġblues":9231,"Ġblushing":9232,"Ġhopeful":9233,"Ġhopeless":9234,"aints":9235,"Ġohwell":9236,"Ġlean":9237,"Ġleather":9238,"Ġleeds":9239,"Ġunion":9240,"Ġunem":9241,"Ġuntill":9242,"Ġuncomfortable":9243,"istr":9244,"istle":9245,"Ġmucho":9246,"Ġeveryon":9247,"Ġorch":9248,"Ġorth":9249,"Ġorient":9250,"Ġguest":9251,"Ġhasnt":9252,"Ġtwittered":9253,"Ġtwitterers":9254,"Ġtwitterena":9255,"Ġ(&":9256,"vens":9257,"venient":9258,"Ġsep":9259,"Ġsection":9260,"Ġclam":9261,"Ġclap":9262,"Ġclip":9263,"Ġclark":9264,"Ġfaire":9265,"Ġgreater":9266,"twee":9267,"twilight":9268,"Ġlastnight":9269,"Ġsorrry":9270,"Ġ'm":9271,"Ġsleeps":9272,"Ġsleepover":9273,"Ġwoulda":9274,"Ġsaga":9275,"Ġsail":9276,"Ġsacr":9277,"Ġsauce":9278,"Ġcof":9279,"Ġcoding":9280,"Ġcoincidence":9281,"Ġwaves":9282,"Ġwagon":9283,"Ġconan":9284,"Ġconce":9285,"Ġconrad":9286,"Ġcontext":9287,"Ġprove":9288,"Ġprolly":9289,"Ġprocr":9290,"Ġphase":9291,"Ġphrase":9292,"Ġphenomen":9293,"Ġcoulda":9294,"Ġsadden":9295,"Ġteased":9296,"resp":9297,"ples":9298,"placed":9299,"Ġenga":9300,"Ġenviron":9301,"Ġsunda":9302,"Ġsungl":9303,"Ġwhyyyy":9304,"xton":9305,"Ġwaited":9306,"Ġ42":9307,"Ġmanic":9308,"Ġmayday":9309,"Ġmayhe":9310,"Ġovercome":9311,"Ġshowin":9312,"oda":9313,"odel":9314,"odontist":9315,"Ġpeed":9316,"Ġpeas":9317,"Ġpeps":9318,"Ġbris":9319,"Ġbranch":9320,"Ġbrooke":9321,"forms":9322,"pict":9323,"Ġthemes":9324,"Ġthemselves":9325,"Ġmonies":9326,"Ġmonica":9327,"Ġgrin":9328,"Ġgram":9329,"Ġgrind":9330,"Ġgrrrrr":9331,"Ġgrumble":9332,"Ġjog":9333,"Ġjoh":9334,"Ġjoker":9335,"Ġ:*":9336,"anged":9337,"Ġqual":9338,"Ġques":9339,"Ġquad":9340,"Ġquizz":9341,"Ġquitting":9342,"Ġqueries":9343,"acher":9344,"uding":9345,"Ġrobert":9346,"Ġheadin":9347,"Ġheadphones":9348,"asses":9349,"Ġdowner":9350,"yster":9351,"ysunday":9352,"berg":9353,"Ġscif":9354,"ipment":9355,"iphone":9356,"Ġcarr":9357,"Ġcarri":9358,"Ġcarpet":9359,"Ġcaramel":9360,"Ġchew":9361,"Ġcheating":9362,"Ġswings":9363,"agu":9364,"aging":9365,"agan":9366,"agree":9367,"Ġtrent":9368,"Ġtrop":9369,"Ġtrum":9370,"Ġtrash":9371,"Ġtrade":9372,"Ġtriste":9373,"ftop":9374,"Ġxp":9375,"Ġpreview":9376,"Ġpregn":9377,"Ġpredic":9378,"ubb":9379,"Ġpris":9380,"Ġpride":9381,"Ġprank":9382,"Ġprops":9383,"Ġmothersday":9384,"Ġade":9385,"Ġado":9386,"Ġadap":9387,"Ġsomatic":9388,"Ġdrunken":9389,"Ġhimym":9390,"Ġflip":9391,"Ġflats":9392,"Ġflush":9393,"Ġflav":9394,"ugging":9395,"matic":9396,"Ġsucking":9397,"Ġtweetup":9398,"Ġacct":9399,"Ġacqu":9400,"Ġsomethin":9401,"iza":9402,"ogs":9403,"Ġpartied":9404,"Ġmadd":9405,"Ġmadness":9406,"Ġmaddie":9407,"Ġborders":9408,"Ġpoem":9409,"Ġpointing":9410,"Ġpoppins":9411,"Ġearn":9412,"Ġearrings":9413,"mental":9414,"Ġappart":9415,"Ġapplies":9416,"Ġapprent":9417,"Ġhurric":9418,"Ġglam":9419,"Ġglue":9420,"cians":9421,"Ġurge":9422,"Ġurban":9423,"Ġnevermind":9424,"Ġwriter":9425,"Ġ@__":9426,"tah":9427,"taco":9428,"Ġheya":9429,"Ġhiber":9430,"Ġhiii":9431,"Ġhiking":9432,"perer":9433,"perating":9434,"perature":9435,"Ġsickness":9436,"acy":9437,"active":9438,"Ġsmith":9439,"Ġ58":9440,"Ġ*-*":9441,"ptoms":9442,"integr":9443,"Ġomel":9444,"atherine":9445,"eeeeep":9446,"Ġbiggie":9447,"aholic":9448,"Ġminimum":9449,"Ġdiving":9450,"Ġdiana":9451,"white":9452,"while":9453,"whatever":9454,"phic":9455,"Ġolds":9456,"Ġreadin":9457,"iously":9458,"Ġintern":9459,"Ġinternal":9460,"Ġeverr":9461,"Ġhardware":9462,"Ġtrick":9463,"Ġtricky":9464,"Ġbiting":9465,"Ġbittersweet":9466,"Ġactress":9467,"Ġbirming":9468,"Ġtravis":9469,"Ġtragic":9470,"Ġtravell":9471,"Ġtraumati":9472,"Ġdisab":9473,"Ġdisagree":9474,"getting":9475,"Ġagent":9476,"Ġsomethings":9477,"ela":9478,"Ġcru":9479,"Ġcram":9480,"Ġcrashing":9481,"blr":9482,"bling":9483,"blue":9484,"Ġbrody":9485,"Ġcomps":9486,"Ġcompare":9487,"shr":9488,"shot":9489,"ships":9490,"shirts":9491,"Ġparade":9492,"Ġparalle":9493,"onda":9494,"Ġrealise":9495,"Ġrealizing":9496,"Ġrunny":9497,"Ġrunnin":9498,"Ġomgosh":9499,"athise":9500,"Ġwarren":9501,"Ġwarrant":9502,"Ġguessed":9503,"Ġ,,":9504,"Ġkinds":9505,"Ġamaze":9506,"Ġamazin":9507,"Ġ65":9508,"Ġ600":9509,"Ġperth":9510,"Ġperman":9511,"Ġmarch":9512,"Ġmaria":9513,"Ġmarley":9514,"Ġmargar":9515,"Ġmariah":9516,"Ġremo":9517,"Ġremove":9518,"Ġremeber":9519,"Ġdaw":9520,"Ġdaisy":9521,"Ġserve":9522,"laws":9523,"anky":9524,"Ġworlds":9525,"Ġthrilled":9526,"Ġdrip":9527,"Ġnothings":9528,"ssa":9529,"sssss":9530,"Ġ;(":9531,"Ġyao":9532,"Ġsounded":9533,"coz":9534,"coffee":9535,"Ġ101":9536,"Ġ102":9537,"Ġamazingly":9538,"nold":9539,"Ġpartyin":9540,"Ġ=>":9541,"Ġ82":9542,"Ġ88":9543,"Ġbelive":9544,"Ġmeanie":9545,"Ġcrab":9546,"Ġcrawl":9547,"Ġcoldplay":9548,"Ġpoorly":9549,"Ġfreeway":9550,"Ġfreeze":9551,"Ġdrinkin":9552,"Ġtreated":9553,"Ġskl":9554,"Ġskill":9555,"Ġskool":9556,"Ġskirt":9557,"Ġmumm":9558,"Ġcoffe":9559,"Ġboohoo":9560,"dead":9561,"Ġemb":9562,"Ġpainted":9563,"Ġmusical":9564,"Ġzo":9565,"Ġzzzz":9566,"Ġkeith":9567,"ified":9568,"Ġroomie":9569,"Ġdesperate":9570,"Ġmessy":9571,"Ġmessenger":9572,"Ġcryin":9573,"Ġtheirs":9574,"Ġplacement":9575,"bridge":9576,"Ġchoices":9577,"Ġdreamt":9578,"theart":9579,"Ġhols":9580,"Ġholes":9581,"Ġoptions":9582,"Ġresting":9583,"Ġrested":9584,"Ġcleaner":9585,"Ġsoooooooooo":9586,"Ġdelish":9587,"Ġdelays":9588,"Ġsneez":9589,"Ġsneezing":9590,"Ġsnickers":9591,"Ġfails":9592,"butt":9593,"mex":9594,"Ġrecy":9595,"Ġrecon":9596,"Ġrecital":9597,"eself":9598,"Ġattach":9599,"Ġattended":9600,"Ġattracted":9601,"Ġpersonality":9602,"team":9603,"Ġ96":9604,"Ġ$.":9605,"Ġcharles":9606,"Ġcharming":9607,"Ġcharging":9608,"Ġcharges":9609,"Ġhanded":9610,"Ġhandbag":9611,"Ġcaf":9612,"Ġcave":9613,"Ġhorrid":9614,"Ġhorribly":9615,"Ġblogtv":9616,"Ġconcrete":9617,"apple":9618,"Ġmeets":9619,"Ġelsewhere":9620,"grade":9621,"Ġveh":9622,"Ġvegan":9623,"Ġmidday":9624,"Ġsaturdays":9625,"Ġeddie":9626,"Ġboil":9627,"Ġgahh":9628,"Ġcollab":9629,"Ġcolleagues":9630,"Ġchilly":9631,"Ġchillaxing":9632,"Ġhighway":9633,"Ġheartburn":9634,"Ġstring":9635,"Ġstrugg":9636,"cony":9637,"iku":9638,"ikini":9639,"Ġfalls":9640,"Ġfallen":9641,"Ġfallow":9642,"Ġbump":9643,"Ġbumps":9644,"Ġbumping":9645,"Ġbumped":9646,"Ġpackage":9647,"Ġpastors":9648,"Ġcooker":9649,"Ġ):":9650,"Ġjones":9651,"Ġslowest":9652,"Ġgrader":9653,"boards":9654,"Ġbarack":9655,"Ġbarry":9656,"Ġbarbe":9657,"Ġpostp":9658,"??????":9659,"Ġbraid":9660,"Ġbraces":9661,"Ġgrande":9662,"Ġartwork":9663,"Ġartists":9664,"Ġpassion":9665,"Ġredo":9666,"Ġredhead":9667,"--->":9668,"swine":9669,"Ġbankrupt":9670,"Ġexception":9671,"Ġlego":9672,"Ġlegend":9673,"Ġstudyin":9674,"Ġcurve":9675,"Ġreser":9676,"Ġresult":9677,"Ġrescu":9678,"Ġresched":9679,"Ġrescue":9680,"Ġrelaxin":9681,"moon":9682,"tony":9683,"Ġhmmmm":9684,"Ġdraft":9685,"Ġconfig":9686,"Ġcareer":9687,"Ġtourist":9688,"Ġvisual":9689,"Ġvisible":9690,"Ġterra":9691,"Ġterms":9692,"Ġpreschool":9693,"Ġlinkedin":9694,"ampire":9695,"Ġfilming":9696,"Ġparked":9697,"aws":9698,"awan":9699,"gov":9700,"front":9701,"fridge":9702,"Ġdoubles":9703,"Ġdoubled":9704,"Ġblessings":9705,"eye":9706,"eyes":9707,"Ġtyra":9708,"owering":9709,"icient":9710,"Ġloaded":9711,"Ġextend":9712,"Ġextended":9713,"flies":9714,"ibition":9715,"ibility":9716,"ointed":9717,"Ġwatered":9718,"Ġfairly":9719,"Ġgrape":9720,"Ġgraham":9721,"Ġgrapes":9722,"Ġdearly":9723,"Ġcelebs":9724,"Ġcolin":9725,"Ġcolours":9726,"Ġ150":9727,"Ġ1500":9728,"Ġcommenting":9729,"Ġcommentary":9730,"Ġcontrib":9731,"Ġcontribut":9732,"Ġdamaged":9733,"Ġreplay":9734,"Ġreplacing":9735,"Ġblocking":9736,"Ġunfortunate":9737,"Ġunfortunatly":9738,"pinging":9739,"Ġtao":9740,"Ġtaught":9741,"Ġsamberg":9742,"Ġburst":9743,"Ġburbank":9744,"Ġdieing":9745,"Ġinsurance":9746,"Ġstepped":9747,"Ġsubmitted":9748,"Ġasses":9749,"Ġpshh":9750,"Ġunderstands":9751,"ippin":9752,"Ġsimon":9753,"Ġcounty":9754,"Ġlighting":9755,"Ġindul":9756,"Ġindians":9757,"Ġindivid":9758,"Ġevidence":9759,"Ġevolution":9760,"Ġclubbing":9761,"!!!!!!!!!!!":9762,"following":9763,"Ġmedical":9764,"Ġdresser":9765,"Ġdresses":9766,"Ġstandard":9767,"Ġfactor":9768,"Ġfactory":9769,"Ġgraduate":9770,"Ġmmmmmmm":9771,"Ġjackie":9772,"Ġjackman":9773,"however":9774,"Ġmenu":9775,"Ġharsh":9776,"Ġeffin":9777,"Ġrefuse":9778,"Ġearliest":9779,"uffin":9780,"Ġsalt":9781,"Ġsalon":9782,"Ġmsgs":9783,"Ġdistant":9784,"Ġtweeties":9785,"Ġstudied":9786,"Ġanswered":9787,"Ġtales":9788,"Ġtalks":9789,"Ġnative":9790,"Ġprojects":9791,"Ġholds":9792,"Ġgardening":9793,"waiting":9794,"waves":9795,"wauk":9796,"Ġdepression":9797,"Ġvoe":9798,"Ġvocal":9799,"Ġvocab":9800,"bbc":9801,"Ġtumblr":9802,"Ġmassac":9803,"Ġbuggy":9804,"Ġbugging":9805,"Ġprix":9806,"Ġfabric":9807,"Ġarrives":9808,"Ġarrival":9809,"Ġ2007":9810,"cali":9811,"monday":9812,"Ġbleed":9813,"Ġblech":9814,"Ġpayed":9815,"Ġpaycheck":9816,"Ġpools":9817,"Ġgiggle":9818,"Ġgigantic":9819,"Ġeachother":9820,"Ġdealing":9821,"Ġtransform":9822,"Ġpaperwork":9823,"Ġfourteen":9824,"Ġgeneva":9825,"Ġdyed":9826,"Ġdylan":9827,"Ġcosta":9828,"Ġlaters":9829,"Ġexpo":9830,"...........":9831,"Ġmarked":9832,"dave":9833,"minus":9834,"Ġ>_":9835,"Ġaudrey":9836,"Ġmister":9837,"Ġmisplaced":9838,"Ġholla":9839,"Ġpisses":9840,"Ġpoliti":9841,"Ġproduction":9842,"Ġrecorded":9843,"paranoid":9844,"Ġpuke":9845,"Ġpopcorn":9846,"Ġobject":9847,"Ġindex":9848,"Ġrelay":9849,"Ġrolled":9850,"Ġboxers":9851,"Ġpowerful":9852,"Ġraised":9853,"Ġimpati":9854,"crim":9855,"cross":9856,"Ġ05":9857,"Ġsquad":9858,"Ġsqueeze":9859,"Ġwolf":9860,"Ġdirections":9861,"Ġmachines":9862,"Ġsticks":9863,"Ġsticky":9864,"Ġsticking":9865,"Ġselfish":9866,"Ġtrails":9867,"Ġrecommended":9868,"marley":9869,"oids":9870,"Ġtennis":9871,"Ġsandwhich":9872,"aylee":9873,"Ġhahahha":9874,"Ġphilosop":9875,"Ġscrub":9876,"Ġscrambled":9877,"Ġmastered":9878,"Ġpanera":9879,"Ġpotatoes":9880,"Ġpotential":9881,"oopers":9882,"Ġshinning":9883,"Ġscreamed":9884,"Ġdiscount":9885,"cribe":9886,"cript":9887,"Ġnicky":9888,"Ġmentioning":9889,"Ġthrowdown":9890,"Ġbacteria":9891,"Ġfreck":9892,"Ġcaps":9893,"Ġcaptain":9894,"Ġdocument":9895,"Ġ132":9896,"Ġspelled":9897,"Ġmodem":9898,"Ġroads":9899,"Ġtraveling":9900,"Ġteachers":9901,"ival":9902,"Ġpatrick":9903,"Ġjams":9904,"Ġjamba":9905,"Ġchristine":9906,"Ġchristina":9907,"Ġtanning":9908,"Ġahhhhhhh":9909,"Ġportable":9910,"Ġportland":9911,"Ġfolk":9912,"Ġdenmark":9913,"Ġyoga":9914,"Ġrecovery":9915,"Ġsumthin":9916,"Ġ404":9917,"Ġsweats":9918,"Ġinterviews":9919,"Ġdesigned":9920,"Ġdesigners":9921,"Ġentirely":9922,"Ġreturns":9923,"Ġrandoms":9924,"Ġhomies":9925,"Ġanimation":9926,"Ġaweful":9927,"Ġviral":9928,"Ġexplos":9929,"Ġexplode":9930,"Ġspamming":9931,"Ġfeeding":9932,"Ġdirectory":9933,"java":9934,"Ġfreshman":9935,"aturely":9936,"Ġelev":9937,"Ġelement":9938,"Ġsolution":9939,"Ġvalue":9940,"Ġpleasant":9941,"Ġpleaseee":9942,"smile":9943,"supr":9944,"super":9945,"Ġlyrics":9946,"umbling":9947,"umbles":9948,"Ġleader":9949,"Ġleadership":9950,"Ġconstruction":9951,"Ġconversations":9952,"Ġsweetheart":9953,"Ġcolorful":9954,"Ġveronica":9955,"Ġnecklace":9956,"Ġbasement":9957,"Ġlimited":9958,"Ġlandline":9959,"Ġlenovo":9960,"Ġintentionally":9961,"Ġeventful":9962,"Ġstorms":9963,"Ġvanessa":9964,"Ġbrandon":9965,"eeeeeeeeee":9966,"Ġstronger":9967,"Ġconsidered":9968,"Ġneighbour":9969,"Ġneighbours":9970,"Ġahahaha":9971,"Ġwoody":9972,"Ġmistakes":9973,"Ġhayes":9974,"Ġhosted":9975,"Ġbald":9976,"Ġbalance":9977,"Ġbalcony":9978,"Ġyesss":9979,"Ġyessssss":9980,"Ġrooftop":9981,"Ġrichmond":9982,"Ġmajorly":9983,"Ġbrighter":9984,"Ġscheduled":9985,"Ġhughes":9986,"33333":9987,"Ġentering":9988,"Ġirony":9989,"Ġironing":9990,"Ġignoring":9991,"Ġhmph":9992,"Ġhallmark":9993,"Ġbunnies":9994,"Ġbillion":9995,"Ġcuddling":9996,"Ġlaker":9997,"Ġ:-/":9998,"jean":9999,"slist":10000,"Ġhaters":10001,"Ġfields":10002,"Ġcreek":10003,"Ġcreeped":10004,"Ġformat":10005,"Ġheavenly":10006,"Ġstatement":10007,"Ġtrading":10008,"Ġspeeding":10009,"yyyyyyyyyyyyyyyy":10010,"Ġgenerally":10011,"Ġtechnical":10012,"goodnight":10013,"Ġirre":10014,"Ġirish":10015,"Ġahah":10016,"Ġmattress":10017,"Ġbathing":10018,"Ġgasp":10019,"Ġvictor":10020,"Ġcontinues":10021,"Ġbabysitter":10022,"uuuuu":10023,"cuit":10024,"Ġuti":10025,"Ġutah":10026,"Ġnetball":10027,"Ġmalays":10028,"Ġmigr":10029,"Ġbonus":10030,"Ġbonjour":10031,"Ġberlin":10032,"Ġpressure":10033,"Ġresearching":10034,"Ġscenes":10035,"Ġpretending":10036,"Ġcracking":10037,"Ġaddictive":10038,"kkkkkkkk":10039,"Ġcampus":10040,"Ġdistractions":10041,"Ġscratchy":10042,"build":10043,"poli":10044,"writer":10045,"worth":10046,"wordsafter":10047,"Ġsuspect":10048,"Ġderby":10049,"Ġreached":10050,"Ġsociology":10051,"Ġgolden":10052,"Ġspreading":10053,"Ġtonsils":10054,"Ġpriceless":10055,"Ġdrummer":10056,"Ġcravings":10057,"Ġsweatshirt":10058,"Ġinspiring":10059,"Ġinspirational":10060,"center":10061,"holy":10062,"Ġmerch":10063,"Ġmerlin":10064,"Ġmatrix":10065,"Ġbrownie":10066,"Ġpjs":10067,"Ġfurious":10068,"Ġfurther":10069,"Ġgoooood":10070,"Ġdomain":10071,"Ġdominos":10072,"Ġcircle":10073,"Ġcabin":10074,"Ġlifting":10075,"Ġarchie":10076,"Ġarchuleta":10077,"Ġalaska":10078,"Ġdebate":10079,"Ġblanket":10080,"Ġblankets":10081,"Ġswitched":10082,"Ġidiotat":10083,"Ġmushy":10084,"Ġrestaurants":10085,"Ġpatient":10086,"Ġdevelopers":10087,"Ġdevelopment":10088,"maybe":10089,"Ġsource":10090,"Ġmental":10091,"tising":10092,"Ġgirly":10093,"Ġcoool":10094,"ettes":10095,"Ġequals":10096,"Ġequipment":10097,"Ġroses":10098,"Ġrosie":10099,"Ġfruits":10100,"Ġvolume":10101,"Ġspoiled":10102,"Ġcocktail":10103,"Ġphysics":10104,"Ġphysically":10105,"Ġtempting":10106,"Ġadmitting":10107,"Ġappearance":10108,"Ġclearly":10109,"Ġpaulo":10110,"Ġentertainment":10111,"Ġinvolves":10112,"Ġcustomers":10113,"2009":10114,"fingers":10115,"poor":10116,"points":10117,"Ġestate":10118,"Ġtacos":10119,"Ġnatalie":10120,"Ġssd":10121,"Ġmirror":10122,"Ġmiranda":10123,"Ġpushed":10124,"Ġgeeky":10125,"Ġcastle":10126,"Ġlooong":10127,"Ġlooool":10128,"Ġoppos":10129,"Ġforecast":10130,"Ġforums":10131,"Ġroutine":10132,"Ġlogies":10133,"Ġstalker":10134,"Ġstalkers":10135,"Ġargument":10136,"Ġtelecom":10137,"Ġadopt":10138,"Ġadopted":10139,"Ġparticip":10140,"Ġbroadway":10141,"Ġrelatively":10142,"Ġstephen":10143,"Ġcorrection":10144,"Ġmotorcycle":10145,"damn":10146,"train":10147,"watching":10148,"Ġwandering":10149,"Ġdestroy":10150,"Ġyelled":10151,"Ġhamilton":10152,"Ġelle":10153,"Ġellen":10154,"Ġramen":10155,"Ġlovato":10156,"Ġhealing":10157,"Ġstealth":10158,"Ġplanted":10159,"Ġplugging":10160,"Ġvintage":10161,"Ġvancity":10162,"Ġpremi":10163,"Ġprematurely":10164,"Ġcrisps":10165,"Ġbelongs":10166,"Ġsubscription":10167,"budurl":10168,"design":10169,"enzo":10170,"Ġilovey":10171,"Ġiloveyou":10172,"Ġhulk":10173,"titude":10174,"Ġbrowsing":10175,"Ġfoolish":10176,"Ġdreary":10177,"Ġcrowds":10178,"Ġcuba":10179,"Ġwhisperer":10180,"Ġsophie":10181,"Ġlogical":10182,"Ġblonde":10183,"Ġscottish":10184,"heyhey":10185,"Ġbushes":10186,"Ġcraziness":10187,"Ġcomplaining":10188,"Ġauditions":10189,"Ġrelationships":10190,"((((((((":10191,"Ġportuguese":10192,"Ġmushrooms":10193,"catbook":10194,"magic":10195,"sunday":10196,"Ġicons":10197,"Ġnasal":10198,"Ġnascar":10199,"Ġniggas":10200,"Ġaiden":10201,"Ġaidan":10202,"Ġmolar":10203,"Ġbryan":10204,"Ġponytail":10205,"ourage":10206,"Ġobsessed":10207,"Ġolives":10208,"Ġjava":10209,"Ġjewel":10210,"Ġwithdrawl":10211,"Ġdoggie":10212,"Ġathens":10213,"Ġfricken":10214,"Ġfrickin":10215,"Ġtemperature":10216,"Ġafrica":10217,"Ġafrican":10218,"Ġgrounded":10219,"ipedia":10220,"Ġawesomeness":10221,"Ġapplications":10222,"Ġcraigslist":10223,"Ġsniffle":10224,"Ġeducation":10225,"Ġpublished":10226,"Ġregister":10227,"Ġdisturb":10228,"Ġbasketball":10229,"Ġannouncement":10230,"audio":10231,"sometimes":10232,"Ġwreck":10233,"Ġwrestler":10234,"Ġmutual":10235,"orridge":10236,"Ġdosent":10237,"Ġcigar":10238,"Ġlorraine":10239,"Ġinjured":10240,"Ġjelly":10241,"Ġawaiting":10242,"Ġfunctioning":10243,"Ġlemonade":10244,"Ġquinto":10245,"Ġgrabbing":10246,"Ġgrabbed":10247,"Ġindustry":10248,"Ġindustrial":10249,"Ġinvitation":10250,"Ġrefreshed":10251,"Ġcircus":10252,"Ġcircumstances":10253,"Ġautomatically":10254,"chineselearn":10255,"trip":10256,"uarysunday":10257,"Ġtiger":10258,"Ġnhl":10259,"Ġwuv":10260,"Ġmaterial":10261,"Ġhindi":10262,"Ġpwns":10263,"Ġpuffs":10264,"Ġpedicure":10265,"Ġfiddler":10266,"Ġdunkin":10267,"Ġcivic":10268,"Ġcitizens":10269,"Ġloooong":10270,"Ġyogurt":10271,"Ġoxford":10272,"Ġoptim":10273,"Ġinvestment":10274,"Ġemma":10275,"Ġeagles":10276,"Ġwheat":10277,"Ġreznor":10278,"Ġrejected":10279,"Ġrangers":10280,"Ġshrimp":10281,"Ġkrist":10282,"Ġkitties":10283,"Ġkorean":10284,"Ġstylish":10285,"Ġarkham":10286,"Ġknackered":10287,"beatwitty":10288,"Ġbronchitis":10289,"Ġprosper":10290,"healthy":10291,"laughs":10292,"Ġzachary":10293,"Ġveggie":10294,"Ġmetallica":10295,"Ġregretting":10296,"Ġcontrols":10297,"Ġpolitics":10298,"Ġbenefit":10299,"Ġpractically":10300,"Ġdatabase":10301,"Ġformula":10302,"sanctuarysunday":10303,"Ġelectricity":10304,"Ġreinstall":10305,"bbltwt":10306,"direct":10307,"hunter":10308,"sorry":10309,"songs":10310,"Ġtubes":10311,"Ġttyl":10312,"Ġnauseous":10313,"Ġnintendo":10314,"Ġmiller":10315,"Ġthousands":10316,"Ġhorde":10317,"Ġpandora":10318,"Ġfalse":10319,"Ġfascin":10320,"Ġfangirl":10321,"Ġfuzzball":10322,"Ġgaining":10323,"Ġdessert":10324,"Ġdudes":10325,"Ġduper":10326,"Ġhairstyle":10327,"Ġhawaii":10328,"Ġinnocent":10329,"Ġbeanie":10330,"Ġbecomes":10331,"Ġreeeally":10332,"Ġshatner":10333,"Ġfrozen":10334,"Ġmorrisons":10335,"Ġalternative":10336,"Ġamongst":10337,"Ġvinegar":10338,"Ġexhibition":10339,"Ġleopard":10340,"Ġguinea":10341,"Ġ(****)":10342,"Ġencourage":10343,"Ġoverwhel":10344,"Ġbruised":10345,"Ġbrooklyn":10346,"udgens":10347,"Ġswamped":10348,"Ġapproaching":10349,"Ġapplied":10350,"Ġdisconnected":10351,"Ġagencies":10352,"Ġcriminal":10353,"Ġhairdresser":10354,"Ġembarr":10355,"Ġrepublic":10356,"Ġstranger":10357,"Ġconfirmation":10358,"Ġinspection":10359,"Ġassistant":10360,"Ġsimpsons":10361,"Ġimprove":10362,"productive":10363,"Ġridiculously":10364,"Ġhayfever":10365,"Ġsuspended":10366,"Ġtattoos":10367,"Ġpsychology":10368,"Ġkardashian":10369,"garedpacket":10370,"hoppusday":10371,"Ġtupac":10372,"Ġireland":10373,"Ġicarly":10374,"imavera":10375,"Ġavenue":10376,"including":10377,"Ġwicked":10378,"Ġhouses":10379,"Ġbipolar":10380,"Ġbreezy":10381,"Ġbicycle":10382,"Ġgadget":10383,"Ġdrowsy":10384,"Ġinformation":10385,"Ġwhaaaat":10386,"Ġshampoo":10387,"Ġkawawa":10388,"Ġkavya":10389,"Ġhelmet":10390,"Ġamsterdam":10391,"Ġnightmares":10392,"Ġsleeep":10393,"Ġspaghetti":10394,"Ġmohawk":10395,"Ġunemploy":10396,"Ġorientation":10397,"Ġsacramento":10398,"Ġprocrast":10399,"Ġsaddened":10400,"Ġsunglasses":10401,"Ġmayhem":10402,"Ġpepsi":10403,"Ġquizzes":10404,"Ġscifi":10405,"Ġpregnant":10406,"Ġapprentice":10407,"Ġhurricane":10408,"Ġbirmingham":10409,"Ġwarranty":10410,"Ġmargaritas":10411,"Ġstruggling":10412,"Ġcontribute":10413,"Ġpoliticians":10414,"wordsaftersex":10415,"beatwittyparty":10416,"!*":10417,"!.....":10418,"!~~":10419,"#@":10420,"%$":10421,"%.":10422,"%),":10423,"&&":10424,"'?":10425,")?":10426,"*'":10427,"*...":10428,",..":10429,"/****":10430,"02":10431,"210":10432,"2000":10433,"32":10434,"34":10435,"300":10436,"41":10437,"49":10438,"400":10439,"51":10440,"54":10441,"58":10442,"72":10443,"75":10444,"82":10445,"86":10446,"87":10447,"900":10448,":'":10449,":-":10450,";;":10451,"</":10452,"?,":10453,"?...":10454,"@#":10455,"^^":10456,"_.":10457,"`(":10458,"`..":10459,"`?!":10460,"ais":10461,"aire":10462,"aired":10463,"aves":10464,"austed":10465,"aels":10466,"auce":10467,"bd":10468,"bg":10469,"bi":10470,"bos":10471,"bis":10472,"bil":10473,"bff":10474,"bake":10475,"bys":10476,"bub":10477,"bble":10478,"booo":10479,"bbit":10480,"bugs":10481,"bones":10482,"bics":10483,"boop":10484,"bikes":10485,"block":10486,"bbles":10487,"beth":10488,"better":10489,"baker":10490,"cb":10491,"cg":10492,"cm":10493,"cq":10494,"cx":10495,"cck":10496,"cch":10497,"cant":10498,"cil":10499,"catch":10500,"cod":10501,"case":10502,"cass":10503,"cree":10504,"cac":10505,"cance":10506,"cles":10507,"congr":10508,"cines":10509,"ctiv":10510,"cising":10511,"cilla":10512,"called":10513,"claw":10514,"df":10515,"dz":10516,"din":10517,"ded":10518,"das":10519,"dro":10520,"dess":10521,"dig":10522,"duck":10523,"dace":10524,"dem":10525,"dget":10526,"dated":10527,"dio":10528,"dvd":10529,"digg":10530,"dancing":10531,"eq":10532,"eon":10533,"eer":10534,"ely":10535,"eur":10536,"eff":10537,"eww":10538,"emy":10539,"ection":10540,"eons":10541,"fh":10542,"fis":10543,"fam":10544,"fur":10545,"fie":10546,"fil":10547,"fact":10548,"fresh":10549,"fically":10550,"files":10551,"foster":10552,"gf":10553,"gp":10554,"gq":10555,"gal":10556,"gum":10557,"gard":10558,"gies":10559,"gans":10560,"gance":10561,"gurl":10562,"gated":10563,"gby":10564,"gary":10565,"gence":10566,"gory":10567,"gmail":10568,"gled":10569,"gury":10570,"gigg":10571,"gularly":10572,"hes":10573,"hum":10574,"hough":10575,"host":10576,"hog":10577,"hatt":10578,"hics":10579,"horia":10580,"iy":10581,"iar":10582,"iin":10583,"itive":10584,"iou":10585,"iom":10586,"ias":10587,"iight":10588,"iqu":10589,"iies":10590,"iors":10591,"ials":10592,"iya":10593,"jd":10594,"jm":10595,"jn":10596,"jx":10597,"jin":10598,"jay":10599,"jun":10600,"jaz":10601,"jaw":10602,"jpg":10603,"jyb":10604,"kb":10605,"kg":10606,"kim":10607,"kart":10608,"kat":10609,"kir":10610,"kate":10611,"kong":10612,"kah":10613,"kitty":10614,"kitchen":10615,"kimb":10616,"lon":10617,"los":10618,"lat":10619,"lay":10620,"loo":10621,"lad":10622,"lter":10623,"lam":10624,"lab":10625,"lak":10626,"lub":10627,"lia":10628,"laz":10629,"lunch":10630,"lots":10631,"leno":10632,"lvet":10633,"md":10634,"mi":10635,"mv":10636,"mos":10637,"mad":10638,"mir":10639,"mea":10640,"mum":10641,"match":10642,"money":10643,"mama":10644,"mills":10645,"mont":10646,"making":10647,"million":10648,"maker":10649,"model":10650,"macher":10651,"nb":10652,"nj":10653,"nm":10654,"nq":10655,"nu":10656,"nw":10657,"nant":10658,"nish":10659,"nna":10660,"nge":10661,"nick":10662,"nip":10663,"nne":10664,"nity":10665,"noth":10666,"nash":10667,"nds":10668,"nik":10669,"norm":10670,"nana":10671,"nasty":10672,"nkp":10673,"nosis":10674,"oq":10675,"ov":10676,"oct":10677,"otion":10678,"ohh":10679,"ofo":10680,"oze":10681,"pi":10682,"pz":10683,"pon":10684,"pos":10685,"pat":10686,"pay":10687,"pur":10688,"pink":10689,"pri":10690,"pong":10691,"pers":10692,"phh":10693,"pain":10694,"page":10695,"pages":10696,"pany":10697,"pops":10698,"popped":10699,"panda":10700,"qe":10701,"qh":10702,"qv":10703,"qy":10704,"qht":10705,"rh":10706,"rou":10707,"rre":10708,"rom":10709,"rome":10710,"rine":10711,"rang":10712,"rass":10713,"rens":10714,"rank":10715,"rash":10716,"rated":10717,"rents":10718,"rpr":10719,"rpm":10720,"rina":10721,"ridge":10722,"rfc":10723,"rument":10724,"sx":10725,"ser":10726,"soo":10727,"set":10728,"sur":10729,"sig":10730,"same":10731,"squ":10732,"sug":10733,"sci":10734,"scc":10735,"sley":10736,"sized":10737,"svd":10738,"sending":10739,"svs":10740,"sru":10741,"sounds":10742,"tb":10743,"tl":10744,"tim":10745,"tal":10746,"tan":10747,"tot":10748,"tly":10749,"tam":10750,"test":10751,"toy":10752,"tear":10753,"turn":10754,"table":10755,"tles":10756,"tches":10757,"tears":10758,"tcot":10759,"uq":10760,"uy":10761,"uer":10762,"ued":10763,"uke":10764,"uhh":10765,"uge":10766,"uio":10767,"uary":10768,"uya":10769,"vw":10770,"var":10771,"vim":10772,"von":10773,"vant":10774,"vish":10775,"vard":10776,"vol":10777,"vah":10778,"vail":10779,"vian":10780,"vana":10781,"vves":10782,"vender":10783,"wf":10784,"wk":10785,"wm":10786,"went":10787,"wre":10788,"wks":10789,"wie":10790,"wook":10791,"west":10792,"wol":10793,"wag":10794,"wash":10795,"wock":10796,"weal":10797,"wik":10798,"weeps":10799,"wered":10800,"wij":10801,"xp":10802,"xz":10803,"xter":10804,"xcited":10805,"yg":10806,"yv":10807,"yos":10808,"yan":10809,"yet":10810,"yard":10811,"yaa":10812,"yup":10813,"ype":10814,"yles":10815,"zs":10816,"zt":10817,"zle":10818,"zone":10819,"zac":10820,"zem":10821,"Ġ]":10822,"Ġ}":10823,"Ġxt":10824,"Ġ!!!!!!!!":10825,"Ġeeeee":10826,"Ġeeeeeee":10827,"Ġ!!!!!!!!!":10828,"enn":10829,"enos":10830,"enha":10831,"enade":10832,"eney":10833,"engers":10834,"encer":10835,"Ġxxxxx":10836,"enth":10837,"enton":10838,"Ġtf":10839,"Ġtk":10840,"Ġtt":10841,"Ġtin":10842,"Ġtay":10843,"Ġtas":10844,"Ġtir":10845,"Ġtant":10846,"Ġtiss":10847,"Ġtess":10848,"Ġtul":10849,"Ġties":10850,"Ġtang":10851,"Ġtys":10852,"Ġtto":10853,"Ġtah":10854,"Ġtale":10855,"Ġtuc":10856,"Ġtina":10857,"Ġttf":10858,"Ġtiv":10859,"Ġtuh":10860,"Ġtroll":10861,"Ġtuna":10862,"Ġtshirt":10863,"Ġtnx":10864,"Ġtshirts":10865,"arb":10866,"arin":10867,"aring":10868,"aris":10869,"arant":10870,"arie":10871,"aria":10872,"Ġib":10873,"Ġik":10874,"Ġiq":10875,"Ġiight":10876,"Ġiam":10877,"Ġira":10878,"Ġipt":10879,"Ġiget":10880,"Ġigl":10881,"Ġihate":10882,"Ġiwonder":10883,"Ġnos":10884,"Ġnun":10885,"Ġnab":10886,"Ġnain":10887,"Ġnag":10888,"Ġnanna":10889,"Ġnute":10890,"Ġnich":10891,"Ġnarn":10892,"Ġnike":10893,"Ġnancy":10894,"Ġnano":10895,"Ġniam":10896,"Ġniley":10897,"imo":10898,"imed":10899,"imul":10900,"imited":10901,"endar":10902,"endon":10903,"endys":10904,"endrix":10905,"arted":10906,"arters":10907,"artney":10908,"article":10909,"tarting":10910,"entimental":10911,"Ġaj":10912,"Ġave":10913,"Ġaer":10914,"Ġaga":10915,"Ġaol":10916,"Ġapr":10917,"Ġaots":10918,"Ġaaaaaaaaa":10919,"Ġaaaaaa":10920,"Ġaero":10921,"Ġachy":10922,"Ġaston":10923,"Ġauction":10924,"Ġaxe":10925,"Ġaargh":10926,"veland":10927,"velled":10928,"Ġsb":10929,"Ġses":10930,"Ġsri":10931,"Ġsard":10932,"Ġsak":10933,"Ġsia":10934,"Ġsans":10935,"Ġsank":10936,"Ġsats":10937,"Ġsash":10938,"Ġsbs":10939,"Ġsons":10940,"Ġsike":10941,"Ġsana":10942,"Ġsars":10943,"Ġsuss":10944,"Ġsgt":10945,"Ġsides":10946,"Ġsista":10947,"Ġsaints":10948,"inz":10949,"inated":10950,"inary":10951,"infect":10952,"internet":10953,"Ġned":10954,"Ġnett":10955,"Ġneice":10956,"Ġnekk":10957,"Ġnemo":10958,"Ġneeed":10959,"Ġwd":10960,"Ġws":10961,"Ġwim":10962,"Ġwut":10963,"Ġwan":10964,"Ġwes":10965,"Ġwot":10966,"Ġwid":10967,"Ġwld":10968,"Ġwro":10969,"Ġwong":10970,"Ġward":10971,"Ġwoss":10972,"Ġwwe":10973,"Ġwakes":10974,"Ġwaaa":10975,"Ġwanda":10976,"Ġwaaaaa":10977,"Ġwbu":10978,"Ġwango":10979,"Ġwierd":10980,"Ġwaaah":10981,"Ġwendys":10982,"Ġmb":10983,"Ġmos":10984,"Ġmga":10985,"Ġmit":10986,"Ġmck":10987,"Ġmun":10988,"Ġmack":10989,"Ġmand":10990,"Ġmoth":10991,"Ġmash":10992,"Ġmik":10993,"Ġmills":10994,"Ġmwa":10995,"Ġmered":10996,"Ġmuna":10997,"Ġmtn":10998,"Ġmhm":10999,"Ġmander":11000,"Ġmwah":11001,"Ġmickey":11002,"Ġthi":11003,"Ġthm":11004,"Ġthot":11005,"Ġthir":11006,"Ġthud":11007,"Ġthts":11008,"Ġthirst":11009,"Ġthigh":11010,"Ġthier":11011,"Ġthng":11012,"Ġthames":11013,"Ġthnx":11014,"Ġthnks":11015,"Ġthreat":11016,"Ġthreee":11017,"Ġhin":11018,"Ġhet":11019,"Ġhatch":11020,"Ġhers":11021,"Ġhick":11022,"Ġhoooo":11023,"Ġhip":11024,"Ġhog":11025,"Ġhater":11026,"Ġhats":11027,"Ġhdd":11028,"Ġhte":11029,"Ġheee":11030,"Ġheeeee":11031,"Ġhiring":11032,"Ġhudgens":11033,"Ġhendrix":11034,"utted":11035,"utiful":11036,"utley":11037,"tir":11038,"tier":11039,"tile":11040,"tious":11041,"tians":11042,"tify":11043,"alu":11044,"alal":11045,"aling":11046,"aler":11047,"alll":11048,"alone":11049,"alog":11050,"align":11051,"alicious":11052,"Ġbd":11053,"Ġbh":11054,"Ġbou":11055,"Ġbld":11056,"Ġbould":11057,"Ġbish":11058,"Ġbatch":11059,"Ġbol":11060,"Ġbaa":11061,"Ġbrow":11062,"Ġbind":11063,"Ġbose":11064,"Ġbach":11065,"Ġbia":11066,"Ġbage":11067,"Ġbaz":11068,"Ġbif":11069,"Ġbail":11070,"Ġbale":11071,"Ġbball":11072,"Ġbots":11073,"Ġbaaaaaaaa":11074,"Ġbitten":11075,"Ġbsc":11076,"Ġbien":11077,"Ġbooooo":11078,"Ġbsg":11079,"Ġbatty":11080,"Ġbusting":11081,"Ġbcoz":11082,"Ġpb":11083,"Ġpom":11084,"Ġpus":11085,"Ġpra":11086,"Ġpeel":11087,"Ġpard":11088,"Ġpoll":11089,"Ġpist":11090,"Ġpitt":11091,"Ġpag":11092,"Ġpms":11093,"Ġpens":11094,"Ġpats":11095,"Ġpale":11096,"Ġpeak":11097,"Ġpuk":11098,"Ġpester":11099,"Ġpitty":11100,"Ġpffffffff":11101,"Ġporridge":11102,"tives":11103,"onight":11104,"onto":11105,"ingitis":11106,"Ġtok":11107,"Ġtore":11108,"Ġtoll":11109,"Ġtoro":11110,"Ġtomor":11111,"Ġtorr":11112,"Ġtoward":11113,"Ġtoaster":11114,"Ġtoured":11115,"Ġtomoz":11116,"Ġtootha":11117,"Ġfll":11118,"Ġfic":11119,"Ġfir":11120,"Ġfack":11121,"Ġfand":11122,"Ġfaa":11123,"Ġfion":11124,"Ġfurl":11125,"Ġfatt":11126,"Ġfier":11127,"Ġfits":11128,"Ġffa":11129,"Ġfears":11130,"Ġfkn":11131,"Ġfucc":11132,"erie":11133,"erved":11134,"erina":11135,"erva":11136,"erica":11137,"ermin":11138,"eruns":11139,"orning":11140,"orary":11141,"organ":11142,"Ġgb":11143,"Ġgq":11144,"Ġgin":11145,"Ġgur":11146,"Ġgown":11147,"Ġgap":11148,"Ġgurl":11149,"Ġgord":11150,"Ġgina":11151,"Ġgoooooooo":11152,"Ġgfs":11153,"Ġgender":11154,"Ġgpu":11155,"Ġgaah":11156,"Ġgomez":11157,"Ġdb":11158,"Ġdw":11159,"Ġdor":11160,"Ġdow":11161,"Ġdot":11162,"Ġdas":11163,"Ġdant":11164,"Ġdaa":11165,"Ġdind":11166,"Ġdion":11167,"Ġdull":11168,"Ġdash":11169,"Ġduu":11170,"Ġdale":11171,"Ġduc":11172,"Ġdany":11173,"Ġdots":11174,"Ġducks":11175,"Ġduk":11176,"Ġdips":11177,"Ġdoooooo":11178,"Ġdsl":11179,"Ġdito":11180,"Ġdns":11181,"Ġdaaay":11182,"Ġdarts":11183,"Ġdota":11184,"oured":11185,"Ġcp":11186,"Ġces":11187,"Ġcld":11188,"Ġcone":11189,"Ġcum":11190,"Ġcna":11191,"Ġcys":11192,"Ġcage":11193,"Ġcens":11194,"Ġcaut":11195,"Ġcents":11196,"Ġcert":11197,"Ġcnn":11198,"Ġcope":11199,"Ġcoooooooo":11200,"Ġcider":11201,"Ġcze":11202,"Ġcisco":11203,"Ġlc":11204,"Ġlf":11205,"Ġlg":11206,"Ġlk":11207,"Ġll":11208,"Ġls":11209,"Ġlv":11210,"Ġlos":11211,"Ġlan":11212,"Ġlee":11213,"Ġlus":11214,"Ġlice":11215,"Ġlool":11216,"Ġlite":11217,"Ġlind":11218,"Ġlous":11219,"Ġlitt":11220,"Ġlure":11221,"Ġlance":11222,"Ġlime":11223,"Ġlng":11224,"Ġlames":11225,"Ġluff":11226,"Ġlara":11227,"Ġloooooo":11228,"Ġluna":11229,"Ġlurve":11230,"Ġlumber":11231,"..****":11232,"oso":11233,"osen":11234,"osure":11235,"osits":11236,"osition":11237,"aton":11238,"aters":11239,"atme":11240,"atley":11241,"atomy":11242,"atlan":11243,"anz":11244,"anti":11245,"anas":11246,"anth":11247,"anny":11248,"anime":11249,"anberry":11250,"anuts":11251,"anxi":11252,"anatomy":11253,"Ġyi":11254,"Ġyon":11255,"Ġyday":11256,"Ġyest":11257,"Ġyol":11258,"Ġyaa":11259,"Ġyach":11260,"Ġyip":11261,"Ġyuck":11262,"Ġyarn":11263,"Ġyuu":11264,"Ġyipp":11265,"Ġyuk":11266,"Ġyooooooo":11267,"Ġyaaaaaay":11268,"rem":11269,"rez":11270,"rever":11271,"redd":11272,"reasing":11273,"rebel":11274,"record":11275,"reuters":11276,"Ġoas":11277,"Ġott":11278,"Ġoooo":11279,"Ġooooooooo":11280,"Ġooc":11281,"Ġovi":11282,"Ġoyster":11283,"Ġoatme":11284,"ayor":11285,"gable":11286,"gasp":11287,"lle":11288,"llly":11289,"itn":11290,"itin":11291,"itos":11292,"itating":11293,"itters":11294,"itals":11295,"itments":11296,"itzer":11297,"itagg":11298,"omit":11299,"omile":11300,"omore":11301,"Ġnegativity":11302,"eses":11303,"esful":11304,"edi":11305,"eddar":11306,"oops":11307,"Ġano":11308,"Ġannn":11309,"Ġanita":11310,"Ġanaly":11311,"Ġhaun":11312,"Ġhaci":11313,"Ġhamp":11314,"Ġhabbo":11315,"Ġhaiku":11316,"oween":11317,"otts":11318,"othe":11319,"Ġyous":11320,"Ġyouuu":11321,"Ġyouuuuu":11322,"isa":11323,"isis":11324,"isha":11325,"isting":11326,"isper":11327,"Ġitt":11328,"Ġitagg":11329,"Ġmys":11330,"Ġmyy":11331,"Ġmyka":11332,"asd":11333,"asher":11334,"asco":11335,"asites":11336,"asweb":11337,"ascript":11338,"Ġandd":11339,"Ġanddd":11340,"Ġinn":11341,"Ġino":11342,"Ġiner":11343,"Ġinten":11344,"Ġinhal":11345,"Ġinflu":11346,"Ġinhabit":11347,"usse":11348,"eters":11349,"etown":11350,"ethe":11351,"etooth":11352,"lynn":11353,"Ġonions":11354,"Ġonwards":11355,"Ġontar":11356,"Ġontd":11357,"Ġoneself":11358,"Ġist":11359,"Ġisis":11360,"Ġisab":11361,"Ġisaa":11362,"Ġbea":11363,"Ġbef":11364,"Ġbej":11365,"Ġbeck":11366,"Ġbeha":11367,"Ġbeware":11368,"Ġbegins":11369,"Ġui":11370,"Ġuu":11371,"Ġupp":11372,"Ġuff":11373,"Ġuuu":11374,"Ġuggg":11375,"Ġulan":11376,"Ġford":11377,"Ġforth":11378,"Ġforreal":11379,"Ġforsure":11380,"Ġoficially":11381,"adee":11382,"adam":11383,"adays":11384,"adilla":11385,"adryl":11386,"Ġez":11387,"Ġehh":11388,"Ġecol":11389,"Ġebt":11390,"ckp":11391,"cho":11392,"chat":11393,"chit":11394,"chap":11395,"chuck":11396,"champ":11397,"chelle":11398,"charge":11399,"!!...":11400,"Ġjt":11401,"Ġjor":11402,"Ġjee":11403,"Ġjur":11404,"Ġjeep":11405,"Ġjod":11406,"Ġjip":11407,"Ġjup":11408,"Ġjem":11409,"Ġjaz":11410,"Ġjel":11411,"Ġjuz":11412,"Ġjbs":11413,"Ġjets":11414,"Ġjared":11415,"Ġjav":11416,"Ġjai":11417,"Ġjjj":11418,"Ġjager":11419,"Ġjalan":11420,"Ġjeremy":11421,"Ġjedi":11422,"letic":11423,"...*":11424,"...:":11425,"Ġwhar":11426,"Ġwher":11427,"Ġwhos":11428,"Ġwhee":11429,"Ġwhack":11430,"Ġwhate":11431,"Ġwhil":11432,"Ġwhine":11433,"Ġwhip":11434,"Ġwhoot":11435,"Ġwhaat":11436,"Ġwhales":11437,"Ġwhistle":11438,"Ġree":11439,"Ġrev":11440,"Ġrex":11441,"Ġrets":11442,"Ġreds":11443,"Ġrefl":11444,"Ġreact":11445,"Ġrehab":11446,"Ġreboot":11447,"Ġrechar":11448,"Ġmein":11449,"Ġmeat":11450,"Ġmeow":11451,"Ġmeme":11452,"Ġmeester":11453,"Ġmeasure":11454,"Ġmeagan":11455,"idal":11456,"idance":11457,"Ġsox":11458,"Ġsock":11459,"Ġsoap":11460,"Ġsoaps":11461,"Ġsoaked":11462,"Ġsodas":11463,"kees":11464,"kelly":11465,"icing":11466,"icer":11467,"icit":11468,"icity":11469,"icating":11470,"icides":11471,"Ġgov":11472,"Ġgoal":11473,"Ġgovt":11474,"Ġrs":11475,"Ġrt":11476,"Ġrend":11477,"Ġrut":11478,"Ġrust":11479,"Ġrol":11480,"Ġroy":11481,"Ġrag":11482,"Ġrhe":11483,"Ġraz":11484,"Ġrss":11485,"Ġrash":11486,"Ġrated":11487,"Ġrating":11488,"Ġrange":11489,"Ġrapp":11490,"Ġrott":11491,"Ġrails":11492,"Ġrays":11493,"Ġrsm":11494,"Ġrowing":11495,"Ġrushing":11496,"Ġrode":11497,"Ġriley":11498,"Ġrrod":11499,"Ġrasp":11500,"Ġreruns":11501,"vering":11502,"verbs":11503,"usters":11504,"Ġloic":11505,"Ġlotion":11506,"Ġloft":11507,"Ġlope":11508,"Ġlolll":11509,"Ġlobby":11510,"ighton":11511,"tera":11512,"term":11513,"tern":11514,"tery":11515,"terms":11516,"terbury":11517,"aming":11518,"amed":11519,"amas":11520,"amless":11521,"amazing":11522,"Ġshh":11523,"Ġsho":11524,"Ġshy":11525,"Ġshor":11526,"Ġshay":11527,"Ġshld":11528,"Ġshoooo":11529,"Ġshown":11530,"Ġshure":11531,"Ġshore":11532,"Ġshif":11533,"Ġshark":11534,"Ġshatter":11535,"Ġshoud":11536,"Ġshucks":11537,"Ġshield":11538,"Ġshipping":11539,"Ġshades":11540,"Ġshaked":11541,"Ġshifts":11542,"Ġshredd":11543,"uno":11544,"until":11545,"unte":11546,"Ġkb":11547,"Ġkin":11548,"Ġkes":11549,"Ġkee":11550,"Ġkam":11551,"Ġkry":11552,"Ġkra":11553,"Ġkod":11554,"Ġkans":11555,"Ġkirst":11556,"Ġkaz":11557,"Ġkah":11558,"Ġkath":11559,"Ġkash":11560,"Ġkbs":11561,"Ġkings":11562,"Ġkoh":11563,"Ġkesh":11564,"Ġkreme":11565,"Ġketch":11566,"Ġkdg":11567,"Ġkatherine":11568,"Ġheir":11569,"Ġheff":11570,"Ġheap":11571,"Ġheather":11572,"Ġheath":11573,"Ġheyyyy":11574,"Ġhels":11575,"Ġheidi":11576,"Ġweigh":11577,"Ġwealth":11578,"Ġwegm":11579,"Ġweeding":11580,"oody":11581,"oodness":11582,"Ġlill":11583,"Ġliam":11584,"Ġliber":11585,"Ġlizz":11586,"Ġlibby":11587,"Ġstash":11588,"Ġstead":11589,"Ġstations":11590,"Ġstings":11591,"Ġstamp":11592,"Ġstoned":11593,"Ġstinging":11594,"Ġstacey":11595,"Ġstopping":11596,"Ġstadium":11597,"Ġstanky":11598,"Ġstimul":11599,"Ġdoe":11600,"Ġdocks":11601,"Ġdozen":11602,"Ġnott":11603,"Ġnotorious":11604,"Ġatom":11605,"Ġworm":11606,"Ġworn":11607,"Ġworcester":11608,"Ġwasher":11609,"Ġwasss":11610,"Ġfros":11611,"Ġfran":11612,"Ġfrown":11613,"Ġfract":11614,"Ġfrenz":11615,"Ġfragr":11616,"Ġfringe":11617,"Ġcanna":11618,"Ġcandace":11619,"Ġcanterbury":11620,"opc":11621,"opes":11622,"opus":11623,"ople":11624,"opened":11625,"Ġgettt":11626,"Ġgetcha":11627,"urge":11628,"urred":11629,"urger":11630,"iro":11631,"iran":11632,"irting":11633,"irits":11634,"irvana":11635,"Ġarc":11636,"Ġard":11637,"Ġarre":11638,"Ġarun":11639,"Ġarab":11640,"Ġarrr":11641,"Ġarbit":11642,"Ġarnold":11643,"Ġuptown":11644,"Ġgoodies":11645,"Ġgoodbyes":11646,"Ġouting":11647,"Ġoutlet":11648,"Ġoutfits":11649,"Ġoutdated":11650,"Ġallian":11651,"Ġalley":11652,"Ġallison":11653,"Ġalleg":11654,"Ġallllllllll":11655,"cees":11656,"celet":11657,"Ġchk":11658,"Ġchu":11659,"Ġching":11660,"Ġchow":11661,"Ġchad":11662,"Ġcham":11663,"Ġchand":11664,"Ġchol":11665,"Ġchlo":11666,"Ġchats":11667,"Ġchica":11668,"Ġchester":11669,"Ġchopped":11670,"Ġchav":11671,"Ġchino":11672,"Ġcharts":11673,"Ġcheeks":11674,"Ġchomp":11675,"Ġchunky":11676,"Ġcheddar":11677,"ttr":11678,"Ġworkk":11679,"Ġnowadays":11680,"acker":11681,"acket":11682,"Ġsuk":11683,"Ġsul":11684,"Ġsuite":11685,"Ġsuites":11686,"Ġtwid":11687,"Ġtwenty":11688,"Ġtwikini":11689,"Ġnod":11690,"Ġnoe":11691,"Ġnoice":11692,"Ġnola":11693,"Ġnoises":11694,"Ġnokia":11695,"hair":11696,"hail":11697,"hawn":11698,"haaaaa":11699,"haaaa":11700,"thy":11701,"three":11702,"thouse":11703,"these":11704,"Ġlovey":11705,"Ġloveeeee":11706,"Ġlovelies":11707,"antz":11708,"antom":11709,"anted":11710,"Ġlikewise":11711,"Ġmort":11712,"Ġmoring":11713,"Ġmorgen":11714,"Ġgoto":11715,"Ġalr":11716,"Ġalt":11717,"Ġalike":11718,"Ġ---":11719,"Ġ-----":11720,"aston":11721,"Ġthanxx":11722,"Ġ___":11723,"Ġ_________":11724,"Ġdonate":11725,"Ġdonation":11726,"Ġdonny":11727,"eaa":11728,"eah":11729,"eagle":11730,"eague":11731,"Ġtools":11732,"ateur":11733,"ategic":11734,"Ġama":11735,"Ġame":11736,"Ġami":11737,"Ġamar":11738,"Ġamors":11739,"Ġammo":11740,"Ġamused":11741,"Ġamanda":11742,"Ġamateur":11743,"inki":11744,"road":11745,"roke":11746,"roys":11747,"robl":11748,"rocks":11749,"robert":11750,"Ġmaps":11751,"Ġmaaaa":11752,"Ġtodayy":11753,"iefs":11754,"Ġknw":11755,"Ġknit":11756,"Ġknife":11757,"Ġknotts":11758,"ilig":11759,"ilating":11760,"ilove":11761,"Ġtimeee":11762,"Ġawwh":11763,"Ġaware":11764,"issey":11765,"sta":11766,"stm":11767,"sts":11768,"sty":11769,"stle":11770,"stown":11771,"store":11772,"stopp":11773,"stock":11774,"staying":11775,"style":11776,"stru":11777,"staff":11778,"steen":11779,"rag":11780,"raz":11781,"rach":11782,"ravel":11783,"raises":11784,"Ġseek":11785,"Ġims":11786,"Ġimiss":11787,"Ġimple":11788,"Ġimpr":11789,"Ġimages":11790,"Ġimprom":11791,"ria":11792,"rip":11793,"riate":11794,"rived":11795,"riana":11796,"rities":11797,"rigu":11798,"riosis":11799,"Ġaber":11800,"Ġabby":11801,"Ġabuzz":11802,"Ġabbre":11803,"Ġabiding":11804,"Ġability":11805,"Ġabroad":11806,"****-":11807,"sel":11808,"seat":11809,"sell":11810,"Ġwhatt":11811,"Ġwhatso":11812,"Ġasp":11813,"Ġasus":11814,"Ġasks":11815,"Ġaside":11816,"Ġashing":11817,"Ġassh":11818,"Ġasham":11819,"Ġasians":11820,"Ġassoci":11821,"Ġaswel":11822,"essss":11823,"company":11824,"ooked":11825,"ookie":11826,"Ġbackk":11827,"Ġbacks":11828,"Ġbackround":11829,"Ġbackorder":11830,"Ġbackyard":11831,"Ġknowwww":11832,"Ġmissus":11833,"ongo":11834,"Ġdeed":11835,"Ġdeff":11836,"Ġdefe":11837,"Ġdeod":11838,"Ġdebit":11839,"Ġdexter":11840,"anded":11841,"andra":11842,"Ġpla":11843,"Ġplot":11844,"Ġplce":11845,"Ġplates":11846,"Ġpleee":11847,"Ġplague":11848,"umed":11849,"umph":11850,"uments":11851,"umdog":11852,"umbus":11853,"Ġvp":11854,"Ġvic":11855,"Ġvast":11856,"Ġvog":11857,"Ġvarn":11858,"Ġvars":11859,"Ġvouch":11860,"Ġviet":11861,"Ġvending":11862,"Ġvcr":11863,"Ġviny":11864,"Ġvfc":11865,"Ġvado":11866,"Ġvlog":11867,"Ġvampire":11868,"Ġvcenter":11869,"ource":11870,"ourse":11871,"ourcing":11872,"ffield":11873,"Ġtherefore":11874,"Ġwilly":11875,"nap":11876,"nappy":11877,"Ġfinna":11878,"Ġfinest":11879,"cton":11880,"ctose":11881,"Ġnewly":11882,"Ġnewish":11883,"Ġnewsp":11884,"Ġnewark":11885,"Ġnewbie":11886,"ounting":11887,"Ġoffend":11888,"Ġoffense":11889,"Ġoffices":11890,"Ġofficer":11891,"ardi":11892,"Ġhadnt":11893,"estr":11894,"estra":11895,"estroy":11896,"Ġanyth":11897,"Ġanyhow":11898,"Ġanythin":11899,"Ġexport":11900,"aboo":11901,"aburger":11902,"hhig":11903,"....!":11904,"ola":11905,"olo":11906,"olis":11907,"olas":11908,"oliver":11909,"icean":11910,"icemail":11911,"ige":11912,"igy":11913,"igne":11914,"igner":11915,"igrade":11916,"Ġhomeb":11917,"Ġhomemade":11918,"Ġnightly":11919,"Ġnighttt":11920,"Ġnightlife":11921,"gear":11922,"gele":11923,"geist":11924,"Ġcomb":11925,"Ġcomfort":11926,"Ġslo":11927,"Ġslim":11928,"Ġslot":11929,"Ġslide":11930,"Ġslater":11931,"Ġslush":11932,"Ġslides":11933,"Ġslices":11934,"Ġsleeeeeee":11935,"Ġsliver":11936,"Ġsleeeeep":11937,"Ġslaves":11938,"Ġslumdog":11939,"aao":11940,"Ġtheyve":11941,"Ġgreml":11942,"Ġgretel":11943,"Ġstir":11944,"Ġstiles":11945,"Ġspa":11946,"Ġspf":11947,"Ġspar":11948,"Ġspay":11949,"Ġsped":11950,"Ġspur":11951,"Ġspra":11952,"Ġspice":11953,"Ġspite":11954,"Ġspree":11955,"Ġspank":11956,"Ġspork":11957,"Ġspike":11958,"Ġspots":11959,"Ġspiel":11960,"Ġsprain":11961,"Ġspiders":11962,"Ġspiced":11963,"Ġspilling":11964,"Ġspencer":11965,"Ġspirits":11966,"ulz":11967,"ulties":11968,"Ġmog":11969,"Ġmoj":11970,"Ġmock":11971,"Ġmoist":11972,"Ġmoore":11973,"Ġmopping":11974,"Ġmocha":11975,"Ġmojo":11976,"itement":11977,"??)":11978,"??,":11979,"?????":11980,"??!!?":11981,"amei":11982,"akin":11983,"akas":11984,"rowave":11985,"Ġtwitta":11986,"Ġtwitties":11987,"!!!)":11988,"Ġfunk":11989,"Ġfunnn":11990,"inem":11991,"Ġblok":11992,"Ġblair":11993,"Ġblunt":11994,"Ġblerg":11995,"Ġblades":11996,"Ġblender":11997,"Ġwellington":11998,"Ġwhens":11999,"Ġohmy":12000,"Ġley":12001,"Ġlems":12002,"Ġlexi":12003,"Ġlexing":12004,"Ġleighton":12005,"Ġunite":12006,"Ġunint":12007,"Ġunity":12008,"Ġunix":12009,"Ġunload":12010,"Ġunfort":12011,"Ġunreal":12012,"Ġunlike":12013,"Ġunni":12014,"Ġunkn":12015,"Ġunbelie":12016,"Ġuncool":12017,"Ġunpaid":12018,"Ġunholy":12019,"Ġunhealthy":12020,"Ġunopened":12021,"Ġmomies":12022,"istent":12023,"istan":12024,"Ġori":12025,"Ġoral":12026,"Ġorac":12027,"Ġorph":12028,"Ġoreg":12029,"Ġorders":12030,"Ġoreos":12031,"Ġgue":12032,"Ġguard":12033,"Ġguap":12034,"Ġhash":12035,"Ġtwitterfon":12036,"Ġtwitterbugs":12037,"Ġ(?)":12038,"Ġseo":12039,"Ġsex":12040,"Ġsez":12041,"Ġseal":12042,"Ġseed":12043,"Ġseven":12044,"Ġseiz":12045,"Ġseating":12046,"Ġsevent":12047,"Ġsemin":12048,"Ġsections":12049,"Ġselves":12050,"Ġseperate":12051,"Ġsevere":12052,"Ġseamless":12053,"Ġclone":12054,"Ġclog":12055,"Ġclancy":12056,"quis":12057,"quest":12058,"quered":12059,"quiao":12060,"Ġgreatly":12061,"Ġgreatness":12062,"two":12063,"twas":12064,"twpp":12065,"Ġsorts":12066,"Ġsorcha":12067,"osts":12068,"Ġshell":12069,"Ġshezz":12070,"Ġshelves":12071,"Ġsheffield":12072,"Ġtonigh":12073,"ires":12074,"Ġsao":12075,"Ġcox":12076,"Ġcoated":12077,"Ġcoord":12078,"Ġcoaches":12079,"Ġwax":12080,"Ġwaz":12081,"Ġwacom":12082,"Ġwaved":12083,"Ġwaffles":12084,"Ġwavves":12085,"mmot":12086,"Ġconv":12087,"Ġconcept":12088,"Ġconvenient":12089,"Ġconquered":12090,"Ġphar":12091,"Ġphob":12092,"Ġphantom":12093,"Ġlookout":12094,"ously":12095,"oustic":12096,"Ġsadder":12097,"Ġsaddo":12098,"Ġbaddd":12099,"Ġbyeeeee":12100,"Ġtequ":12101,"Ġtehe":12102,"Ġteasing":12103,"Ġyeaa":12104,"Ġyeaah":12105,"Ġyeaaaah":12106,"Ġsaynow":12107,"reshing":12108,"plus":12109,"plain":12110,"plane":12111,"Ġenought":12112,"Ġenerg":12113,"Ġencore":12114,"Ġenemy":12115,"Ġbetting":12116,"Ġsunbe":12117,"Ġsunscreen":12118,"Ġwhys":12119,"aph":12120,"apart":12121,"apat":12122,"apse":12123,"apest":12124,"apho":12125,"aphone":12126,"apova":12127,"apolis":12128,"Ġyesh":12129,"Ġyesy":12130,"Ġwaitress":12131,"Ġ33":12132,"Ġ34":12133,"Ġ38":12134,"Ġ330":12135,"Ġ3000":12136,"Ġ365":12137,"Ġ409":12138,"Ġmang":12139,"Ġmania":12140,"Ġmanhatt":12141,"been":12142,"bear":12143,"beck":12144,"bears":12145,"belly":12146,"beij":12147,"Ġoverload":12148,"Ġoverdue":12149,"Ġshowers":12150,"odge":12151,"odicean":12152,"Ġpeg":12153,"Ġpel":12154,"Ġpeppers":12155,"Ġpeanuts":12156,"Ġbrum":12157,"Ġbroth":12158,"Ġbridge":12159,"Ġbrushing":12160,"Ġbrief":12161,"Ġbracket":12162,"picious":12163,"picture":12164,"ileaks":12165,"Ġshouldve":12166,"Ġmonk":12167,"Ġmonte":12168,"Ġmoncton":12169,"Ġwayyy":12170,"Ġwayne":12171,"Ġtryed":12172,"Ġgroo":12173,"Ġgrid":12174,"Ġgrans":12175,"Ġgrouch":12176,"alky":12177,"Ġjoan":12178,"Ġjokes":12179,"Ġokc":12180,"Ġ:'":12181,"Ġ:@":12182,"Ġ:**":12183,"Ġ:::":12184,"angs":12185,"Ġafterall":12186,"Ġquid":12187,"Ġquery":12188,"Ġquilt":12189,"udder":12190,"udia":12191,"udged":12192,"Ġrohan":12193,"Ġheadline":12194,"Ġheadlin":12195,"asss":12196,"assy":12197,"assedly":12198,"Ġdowns":12199,"Ġdowned":12200,"tsville":12201,"yshop":12202,"yssey":12203,"Ġschol":12204,"Ġschuh":12205,"Ġschoool":12206,"berger":12207,"Ġsci":12208,"Ġscre":12209,"Ġscra":12210,"Ġscum":12211,"Ġscion":12212,"Ġscents":12213,"Ġscones":12214,"Ġscores":12215,"Ġscrap":12216,"ipop":12217,"Ġcomeback":12218,"Ġcaro":12219,"Ġcarp":12220,"Ġcaring":12221,"Ġcarne":12222,"Ġcarla":12223,"Ġcarbs":12224,"Ġcarls":12225,"Ġcarson":12226,"Ġcarbon":12227,"Ġcheat":12228,"Ġsweep":12229,"Ġswitzer":12230,"agra":12231,"agna":12232,"Ġtrend":12233,"Ġtrough":12234,"Ġtrunk":12235,"Ġtrump":12236,"Ġtroopers":12237,"Ġfeb":12238,"Ġfey":12239,"Ġfeast":12240,"Ġfeline":12241,"Ġfemin":12242,"Ġxbl":12243,"Ġxmas":12244,"Ġprec":12245,"Ġprejud":12246,"Ġpreprom":12247,"Ġprecious":12248,"uba":12249,"ubuntu":12250,"ubarb":12251,"Ġschoolers":12252,"Ġproo":12253,"Ġprime":12254,"Ġprices":12255,"Ġpriced":12256,"Ġdayssss":12257,"Ġada":12258,"Ġadt":12259,"Ġadem":12260,"Ġadjust":12261,"Ġadmin":12262,"Ġadium":12263,"Ġadriana":12264,"Ġdru":12265,"Ġdrat":12266,"Ġdrill":12267,"Ġdrops":12268,"Ġflop":12269,"Ġflame":12270,"Ġflap":12271,"Ġflag":12272,"Ġflags":12273,"Ġflippin":12274,"heat":12275,"heard":12276,"max":12277,"maz":12278,"magazine":12279,"Ġsoonish":12280,"Ġrainin":12281,"Ġrainbow":12282,"Ġrainforest":12283,"Ġmaker":12284,"Ġsucker":12285,"Ġtweeten":12286,"Ġtweetin":12287,"toa":12288,"toe":12289,"Ġaced":12290,"Ġactiv":12291,"Ġactions":12292,"Ġacoustic":12293,"izer":12294,"ization":12295,"izabeth":12296,"Ġbestfriend":12297,"myw":12298,"myself":12299,"mypict":12300,"Ġ``":12301,"Ġ`****":12302,"Ġgirlies":12303,"ogy":12304,"Ġmadly":12305,"Ġmadison":12306,"Ġmaddies":12307,"Ġpov":12308,"Ġpoet":12309,"Ġpoly":12310,"Ġpoke":12311,"Ġpoia":12312,"Ġpoison":12313,"Ġpoked":12314,"Ġpoker":12315,"Ġpoppin":12316,"Ġlax":12317,"Ġlaws":12318,"Ġlazing":12319,"Ġlacro":12320,"Ġlafay":12321,"Ġlavender":12322,"Ġlactose":12323,"Ġlaodicean":12324,"ansen":12325,"anson":12326,"Ġearned":12327,"Ġearbud":12328,"update":12329,"Ġapply":12330,"Ġappla":12331,"Ġappeal":12332,"Ġappears":12333,"Ġapplying":12334,"Ġapprop":12335,"Ġappeti":12336,"Ġhurtin":12337,"Ġhurdle":12338,"Ġhurrah":12339,"Ġgloss":12340,"Ġglory":12341,"Ġglitch":12342,"Ġglowing":12343,"ciano":12344,"Ġurs":12345,"Ġurls":12346,"orted":12347,"Ġwrang":12348,"Ġcoolio":12349,"Ġ@-)":12350,"neys":12351,"news":12352,"Ġhihi":12353,"Ġhiatus":12354,"nyt":12355,"Ġsicky":12356,"Ġsicker":12357,"acles":12358,"acular":12359,"actions":12360,"emily":12361,"emote":12362,"emark":12363,"Ġ?.":12364,"Ġwherever":12365,"Ġstarring":12366,"Ġ<-":12367,"Ġfriendship":12368,"loves":12369,"Ġourselves":12370,"Ġfinds":12371,"ptu":12372,"pton":12373,"ptons":12374,"Ġome":12375,"Ġomw":12376,"Ġomlette":12377,"Ġlotr":12378,"Ġlott":12379,"rrry":12380,"Ġ!?":12381,"lphia":12382,"eeeeet":12383,"pey":12384,"peanut":12385,"pective":12386,"people":12387,"Ġminut":12388,"Ġminis":12389,"Ġminne":12390,"Ġminnea":12391,"Ġdial":12392,"Ġdias":12393,"Ġdiab":12394,"Ġdiag":12395,"Ġdiary":12396,"Ġdiane":12397,"Ġdippin":12398,"whin":12399,"whats":12400,"whisper":12401,"php":12402,"phere":12403,"phil":12404,"Ġoldest":12405,"Ġoldies":12406,"Ġreads":12407,"ichi":12408,"Ġleah":12409,"Ġleak":12410,"Ġleafs":12411,"Ġinterup":12412,"Ġinterface":12413,"Ġinterweb":12414,"Ġeverrr":12415,"tico":12416,"Ġtrio":12417,"Ġtriple":12418,"Ġtripped":12419,"Ġtricked":12420,"Ġtripping":12421,"Ġtrivia":12422,"Ġtriumph":12423,"Ġident":12424,"Ġideal":12425,"Ġbites":12426,"Ġbitchy":12427,"Ġthoughtful":12428,"Ġhelll":12429,"Ġhelloooo":12430,"Ġhellotxt":12431,"Ġacts":12432,"Ġyayyy":12433,"Ġtraged":12434,"Ġtraitor":12435,"Ġdisk":12436,"Ġdisband":12437,"Ġdismal":12438,"Ġdiscrim":12439,"Ġdispos":12440,"Ġdisinfect":12441,"Ġughhhhhhhhh":12442,"ï¿½!":12443,"Ġagu":12444,"Ġhotter":12445,"Ġhotness":12446,"Ġhotdog":12447,"Ġbuh":12448,"Ġbuis":12449,"Ġbuilt":12450,"Ġbuuuut":12451,"Ġbuenos":12452,"Ġcrs":12453,"Ġcrust":12454,"Ġcrum":12455,"Ġcrane":12456,"Ġcrutches":12457,"dyed":12458,"gggh":12459,"Ġsucksss":12460,"Ġsuckssss":12461,"bless":12462,"blame":12463,"blessed":12464,"Ġbrok":12465,"Ġfamil":12466,"Ġreadyyy":12467,"Ġcompute":12468,"Ġcompens":12469,"Ġcomplex":12470,"Ġcomposition":12471,"Ġexced":12472,"Ġexcurs":12473,"Ġexcitement":12474,"shm":12475,"shut":12476,"shit":12477,"shed":12478,"should":12479,"shine":12480,"shire":12481,"shots":12482,"shield":12483,"shipping":12484,"shattered":12485,"shopping":12486,"Ġparl":12487,"Ġparody":12488,"Ġparcs":12489,"Ġparasites":12490,"onds":12491,"Ġrealistic":12492,"Ġbreakie":12493,"Ġrunners":12494,"elling":12495,"athom":12496,"Ġwarmed":12497,"Ġwarham":12498,"Ġkindle":12499,"Ġkinderg":12500,"hahah":12501,"Ġbusiest":12502,"Ġamazed":12503,"Ġ67":12504,"Ġperry":12505,"Ġpervs":12506,"Ġpercent":12507,"Ġpermission":12508,"Ġkiddies":12509,"aaaaat":12510,"aaaaan":12511,"Ġmarks":12512,"Ġmarie":12513,"Ġmarvel":12514,"Ġmarines":12515,"Ġmarshm":12516,"Ġrember":12517,"Ġremote":12518,"Ġremains":12519,"Ġreminis":12520,"Ġremedies":12521,"Ġputer":12522,"Ġsins":12523,"Ġdaws":12524,"Ġendure":12525,"Ġstuffier":12526,"Ġtelly":12527,"enses":12528,"Ġserved":12529,"laine":12530,"Ġworldwide":12531,"Ġdried":12532,"Ġdrizz":12533,"Ġbirthdayy":12534,"Ġ;;":12535,"Ġtakers":12536,"Ġboyle":12537,"Ġboystown":12538,"Ġboredd":12539,"Ġboredddd":12540,"Ġboreddddd":12541,"Ġmusso":12542,"Ġmuscles":12543,"Ġsounding":12544,"Ġsoundtr":12545,"coe":12546,"Ġsits":12547,"Ġ103":12548,"noon":12549,"Ġ71":12550,"Ġ77":12551,"Ġhund":12552,"Ġhunk":12553,"Ġhuntsville":12554,"Ġprobob":12555,"Ġhairs":12556,"Ġ=.":12557,"Ġbabygirl":12558,"spam":12559,"spark":12560,"spray":12561,"Ġbelated":12562,"Ġcleveland":12563,"Ġmeann":12564,"Ġmuster":12565,"Ġmustaches":12566,"Ġcrabs":12567,"ountain":12568,"liest":12569,"living":12570,"Ġcolds":12571,"Ġcolder":12572,"pson":12573,"Ġfarro":12574,"Ġpoorer":12575,"bypicture":12576,"ords":12577,"Ġgodda":12578,"Ġgodfather":12579,"Ġfreezes":12580,"Ġtreating":12581,"Ġtremend":12582,"Ġskies":12583,"Ġskank":12584,"Ġskipping":12585,"Ġskipped":12586,"Ġsketch":12587,"Ġdining":12588,"Ġdiner":12589,"Ġdinners":12590,"Ġclassics":12591,"Ġclassical":12592,"Ġgameboy":12593,"Ġgiveaway":12594,"Ġweathers":12595,"Ġbooz":12596,"Ġbooze":12597,"Ġbooboo":12598,"Ġlunches":12599,"Ġawwwh":12600,"Ġawwwwww":12601,"deal":12602,"defin":12603,"Ġelim":12604,"Ġelite":12605,"Ġelbow":12606,"Ġelses":12607,"Ġelizabeth":12608,"auto":12609,"Ġbooking":12610,"Ġbookmar":12611,"Ġbookbag":12612,"Ġeverythings":12613,"angel":12614,"Ġemily":12615,"Ġeminem":12616,"Ġdefend":12617,"Ġdefense":12618,"Ġdefrag":12619,"Ġplanter":12620,"Ġzu":12621,"Ġzum":12622,"Ġzune":12623,"Ġzoom":12624,"Ġzemote":12625,"Ġkel":12626,"Ġkean":12627,"Ġsuperb":12628,"Ġsuperstar":12629,"ifer":12630,"ifull":12631,"ifier":12632,"Ġwelts":12633,"Ġwelsh":12634,"Ġaddin":12635,"Ġaddict":12636,"Ġsinger":12637,"Ġsingers":12638,"Ġsingles":12639,"Ġwins":12640,"Ġsupporter":12641,"Ġmovement":12642,"Ġdesper":12643,"Ġdesigner":12644,"Ġinstru":12645,"Ġinstrument":12646,"Ġmessing":12647,"Ġplacements":12648,"Ġexample":12649,"Ġchoc":12650,"Ġchoked":12651,"Ġunderwood":12652,"Ġsweets":12653,"Ġillness":12654,"Ġhitman":12655,"Ġdreamin":12656,"Ġdreamwidth":12657,"Ġdreambears":12658,"thearts":12659,"???!!":12660,"Ġperspective":12661,"ievement":12662,"mania":12663,"Ġhobo":12664,"Ġhobby":12665,"Ġrestric":12666,"Ġcleanin":12667,"Ġdelic":12668,"Ġdelhi":12669,"Ġsnugg":12670,"Ġsneeze":12671,"Ġsurve":12672,"Ġsurreal":12673,"Ġsurvi":12674,"Ġsurgury":12675,"Ġgivin":12676,"Ġrepost":12677,"Ġrepier":12678,"Ġokayy":12679,"306":12680,"309":12681,"meow":12682,"meir":12683,"megan":12684,"megaredpacket":12685,"Ġrockstar":12686,"Ġrecall":12687,"Ġrecoup":12688,"Ġrecession":12689,"Ġkillen":12690,"prin":12691,"prot":12692,"print":12693,"prism":12694,"primavera":12695,"tec":12696,"Ġ930":12697,"Ġcharm":12698,"Ġchars":12699,"Ġcharley":12700,"kkie":12701,"Ġhandles":12702,"Ġcausing":12703,"eworm":12704,"Ġtickled":12705,"Ġhors":12706,"Ġhorrors":12707,"Ġhorses":12708,"Ġhorrific":12709,"Ġcampa":12710,"Ġcambod":12711,"cled":12712,"clad":12713,"click":12714,"cloth":12715,"versity":12716,"versial":12717,"Ġbloggers":12718,"Ġwalkin":12719,"Ġpao":12720,"Ġpau":12721,"Ġpaws":12722,"Ġconcur":12723,"Ġconcerts":12724,"Ġapa":12725,"Ġapar":12726,"Ġapathe":12727,"eeeen":12728,"Ġshopped":12729,"Ġfinaly":12730,"hhhhhh":12731,"hhhhhhh":12732,"apping":12733,"cca":12734,"pressed":12735,"Ġwinding":12736,"Ġwindoze":12737,"Ġwindshield":12738,"Ġspecially":12739,"yyyyyyy":12740,"ealing":12741,"grl":12742,"grand":12743,"group":12744,"Ġvets":12745,"Ġvelvet":12746,"Ġdecor":12747,"Ġdeciding":12748,"Ġdecreasing":12749,"visiting":12750,"Ġmidst":12751,"Ġmidway":12752,"Ġmiddles":12753,"Ġmidterms":12754,"Ġcardboard":12755,"Ġcardiff":12756,"Ġowns":12757,"Ġowners":12758,"Ġfullest":12759,"Ġremembering":12760,"Ġeddy":12761,"Ġedward":12762,"Ġedmon":12763,"Ġedwards":12764,"Ġhaley":12765,"Ġbold":12766,"Ġboise":12767,"Ġbobo":12768,"Ġboba":12769,"Ġboiled":12770,"Ġgahhh":12771,"Ġgawd":12772,"Ġgauge":12773,"Ġcollins":12774,"Ġcolleague":12775,"Ġchillen":12776,"Ġhigher":12777,"Ġhighschool":12778,"evernote":12779,"Ġheartbreak":12780,"Ġheartbro":12781,"Ġstrud":12782,"Ġstrings":12783,"Ġstrict":12784,"Ġstruct":12785,"Ġstruggle":12786,"Ġstrategic":12787,"Ġstranded":12788,"confer":12789,"concept":12790,"consin":12791,"ughters":12792,"Ġfallout":12793,"zzly":12794,"zzzz":12795,"zzzzz":12796,"Ġbums":12797,"Ġpasty":12798,"Ġpastor":12799,"fried":12800,"weg":12801,"Ġmilit":12802,"Ġmilwauk":12803,"Ġannual":12804,"Ġblacks":12805,"Ġinternets":12806,"lesson":12807,"Ġenthus":12808,"Ġbaron":12809,"Ġbarak":12810,"Ġpostal":12811,"Ġmacs":12812,"Ġmacaron":12813,"Ġmacadam":12814,"Ġbrave":12815,"Ġbraun":12816,"Ġbragg":12817,"Ġbracelet":12818,"Ġcougar":12819,"Ġshorty":12820,"Ġgrandad":12821,"Ġgrandkids":12822,"Ġarth":12823,"Ġarts":12824,"Ġarticles":12825,"Ġicecream":12826,"Ġcuzz":12827,"Ġdeadlines":12828,"Ġpassengers":12829,"Ġcalcut":12830,"Ġcalcul":12831,"Ġredbull":12832,"Ġdefinition":12833,"Ġbanking":12834,"Ġceiling":12835,"Ġcebu":12836,"Ġcurves":12837,"Ġreset":12838,"Ġerm":12839,"Ġermm":12840,"Ġerrr":12841,"Ġernie":12842,"Ġespl":12843,"Ġmetre":12844,"alebnation":12845,"Ġfavorites":12846,"Ġrelaxed":12847,"mobypicture":12848,"Ġdrain":12849,"Ġdrake":12850,"Ġdrawn":12851,"Ġdrained":12852,"Ġdragging":12853,"Ġclosely":12854,"Ġconfus":12855,"Ġconfuse":12856,"Ġconfusion":12857,"Ġconfidence":12858,"Ġpromote":12859,"uals":12860,"Ġvisited":12861,"Ġvisits":12862,"Ġtextbooks":12863,"Ġfellas":12864,"Ġfellows":12865,"Ġterri":12866,"Ġteraby":12867,"Ġterribly":12868,"Ġavid":12869,"Ġcourthouse":12870,"Ġfluids":12871,"ucing":12872,"Ġtopshop":12873,"Ġtopgear":12874,"Ġfilthy":12875,"itsucks":12876,"adelphia":12877,"Ġchronic":12878,"6714":12879,"awesome":12880,"eaking":12881,"Ġonesies":12882,"Ġengines":12883,"fron":12884,"fran":12885,"from":12886,"french":12887,"ndi":12888,"ndrome":12889,"oka":12890,"oko":12891,"oking":12892,"okee":12893,"Ġnearest":12894,"Ġpublis":12895,"Ġdoug":12896,"Ġdouch":12897,"Ġdouche":12898,"Ġtying":12899,"Ġreasons":12900,"lolol":12901,"Ġwoof":12902,"Ġwooow":12903,"Ġwoops":12904,"Ġcatwalk":12905,"Ġloaders":12906,"Ġextrem":12907,"Ġlaughs":12908,"Ġnapa":12909,"Ġnaps":12910,"Ġwaterfall":12911,"Ġwaterfront":12912,"Ġfastest":12913,"Ġfairness":12914,"Ġgraf":12915,"Ġgrabe":12916,"Ġgracious":12917,"Ġjuga":12918,"Ġcomming":12919,"Ġcommand":12920,"Ġcommands":12921,"Ġcommitments":12922,"Ġcollective":12923,"Ġcelebra":12924,"Ġsyndrome":12925,"Ġcola":12926,"Ġcolors":12927,"Ġcolbert":12928,"Ġcolumbus":12929,"Ġcupboard":12930,"Ġregion":12931,"Ġregions":12932,"Ġcontr":12933,"Ġwakey":12934,"Ġbandwag":12935,"Ġtommorrow":12936,"Ġtomatoes":12937,"Ġretro":12938,"Ġretreat":12939,"Ġchicks":12940,"Ġafternoons":12941,"Ġjealousy":12942,"actually":12943,"Ġsentences":12944,"Ġhonored":12945,"Ġdamage":12946,"Ġdamnnn":12947,"Ġarena":12948,"Ġunfortunatley":12949,"Ġreplys":12950,"Ġdiffernt":12951,"pingpong":12952,"Ġtai":12953,"Ġtafe":12954,"Ġtaipe":12955,"Ġsamee":12956,"Ġsammy":12957,"Ġbury":12958,"Ġburied":12959,"Ġinstit":12960,"Ġinsanity":12961,"Ġstevie":12962,"Ġsubmit":12963,"Ġsubtle":12964,"Ġsubtly":12965,"Ġassigne":12966,"Ġbudapest":12967,"Ġppls":12968,"Ġpapi":12969,"Ġpapas":12970,"Ġpapers":12971,"ontane":12972,"Ġ110":12973,"Ġunderstanding":12974,"Ġunderstandable":12975,"Ġcoursework":12976,"Ġlaptops":12977,"bumps":12978,"gykd":12979,"Ġsimpl":12980,"Ġindie":12981,"Ġevans":12982,"Ġweirdo":12983,"Ġweirdest":12984,"Ġchatted":12985,"Ġdownloads":12986,"666":12987,"669":12988,"Ġmediter":12989,"Ġladybug":12990,"astics":12991,"Ġinviting":12992,"Ġinvites":12993,"Ġabsent":12994,"Ġjohnson":12995,"Ġjohnathan":12996,"Ġpointy":12997,"Ġpointless":12998,"Ġgraduated":12999,"Ġgraduates":13000,"Ġwiv":13001,"Ġgardens":13002,"Ġcorona":13003,"Ġcorporate":13004,"Ġcorresp":13005,"Ġjacks":13006,"Ġjacked":13007,"Ġcheesey":13008,"Ġcheesecakes":13009,"Ġcheeseburger":13010,"Ġappreciation":13011,"Ġagreement":13012,"Ġmeningitis":13013,"Ġhari":13014,"Ġharley":13015,"Ġharold":13016,"Ġharlow":13017,"Ġharvard":13018,"Ġfreaky":13019,"Ġfreaked":13020,"Ġeffy":13021,"Ġeffed":13022,"Ġefforts":13023,"Ġrefs":13024,"Ġrefund":13025,"Ġrefreshing":13026,"tru":13027,"uku":13028,"uffy":13029,"Ġsalvation":13030,"Ġthrobb":13031,"Ġdistrac":13032,"Ġdistances":13033,"Ġdistribut":13034,"Ġalbums":13035,"justin":13036,"Ġtalaga":13037,"Ġnae":13038,"Ġnai":13039,"Ġnao":13040,"Ġnaww":13041,"Ġnatie":13042,"Ġnavy":13043,"Ġdunn":13044,"oshed":13045,"umption":13046,"Ġvaca":13047,"Ġvacations":13048,"Ġvaccines":13049,"Ġprojector":13050,"Ġholdin":13051,"Ġouchie":13052,"Ġnerve":13053,"Ġnerdy":13054,"Ġnerves":13055,"Ġpurrr":13056,"Ġfooty":13057,"Ġfootprint":13058,"Ġguten":13059,"Ġcyn":13060,"Ġcyber":13061,"Ġcosplay":13062,"Ġluvin":13063,"Ġranch":13064,"Ġchildhood":13065,"Ġchildrens":13066,"Ġvoid":13067,"Ġvoices":13068,"Ġprofound":13069,"Ġprofiles":13070,"Ġapparantly":13071,"Ġpresenting":13072,"Ġpresentations":13073,"101":13074,"Ġtumor":13075,"Ġtumors":13076,"Ġbreed":13077,"Ġbreast":13078,"Ġbreeding":13079,"Ġballerina":13080,"Ġbugles":13081,"Ġprize":13082,"Ġprizes":13083,"Ġfabre":13084,"Ġcentury":13085,"Ġcentigrade":13086,"Ġcreat":13087,"Ġcreate":13088,"Ġcreating":13089,"Ġwordpress":13090,"ologist":13091,"tweets":13092,",,,,":13093,"monk":13094,"mony":13095,"monkey":13096,"renee":13097,"Ġeta":13098,"Ġethn":13099,"Ġethan":13100,"Ġethics":13101,"Ġwomp":13102,"Ġwomens":13103,"Ġbasic":13104,"Ġbleeding":13105,"Ġpayday":13106,"Ġfishy":13107,"Ġfishes":13108,"Ġgiggling":13109,"Ġhahahahah":13110,"Ġtransition":13111,"Ġtranspar":13112,"Ġskyping":13113,"Ġsurprises":13114,"0981":13115,"burst":13116,"Ġtouchin":13117,"Ġtouching":13118,"Ġgeoff":13119,"Ġgeorg":13120,"Ġgeomet":13121,"Ġdynasty":13122,"Ġcostco":13123,"Ġlatin":13124,"Ġpossessed":13125,"Ġpossibility":13126,"Ġstressin":13127,"Ġexpired":13128,"Ġexpans":13129,"Ġexpense":13130,"Ġexpenses":13131,"................":13132,".................":13133,"Ġsprink":13134,"Ġsprite":13135,"Ġsprings":13136,"Ġconstit":13137,"Ġmarkets":13138,"Ġwifey":13139,"daughter":13140,"Ġ><":13141,"Ġ>>":13142,"Ġqi":13143,"Ġqs":13144,"Ġqot":13145,"Ġnonethe":13146,"Ġaudi":13147,"Ġaudit":13148,"Ġmisery":13149,"Ġbaguio":13150,"Ġpolish":13151,"Ġpolicy":13152,"Ġdigest":13153,"Ġdiggin":13154,"Ġ143":13155,"Ġscreening":13156,"121":13157,"123":13158,"128":13159,"paris":13160,"parks":13161,"Ġsighs":13162,"although":13163,"Ġfanta":13164,"Ġfantasy":13165,"Ġgerms":13166,"Ġcopenha":13167,"eeky":13168,"Ġrelate":13169,"Ġrelig":13170,"Ġroller":13171,"Ġshopaholic":13172,"Ġkickin":13173,"Ġkicking":13174,"racing":13175,"Ġkeyed":13176,"Ġkeychain":13177,"Ġpcd":13178,"Ġjays":13179,"Ġjaycees":13180,"Ġraid":13181,"Ġraft":13182,"Ġraimi":13183,"Ġshallow":13184,"Ġimperson":13185,"heading":13186,"headed":13187,"Ġboyfriends":13188,"Ġdisappointment":13189,"garia":13190,"Ġ04":13191,"Ġ06":13192,"Ġhosting":13193,"Ġhumour":13194,"Ġhumble":13195,"Ġhummmmm":13196,"Ġhumidity":13197,"Ġbenjam":13198,"Ġbenadryl":13199,"Ġbaths":13200,"Ġbehalf":13201,"Ġshirtless":13202,"Ġtenen":13203,"Ġlowest":13204,"Ġmelting":13205,"Ġrubs":13206,"Ġrubber":13207,"Ġrubbing":13208,"Ġphiladelphia":13209,"Ġteams":13210,"doba":13211,"linux":13212,"Ġmasc":13213,"Ġmasse":13214,"Ġmascul":13215,"Ġpanel":13216,"Ġpantera":13217,"Ġpotus":13218,"Ġdances":13219,"Ġdanced":13220,"oopy":13221,"Ġrelegated":13222,"Ġsouthend":13223,"Ġsouthland":13224,"Ġtwilightguy":13225,"Ġimaginary":13226,"Ġscreamin":13227,"Ġcheered":13228,"Ġdiscre":13229,"Ġcongratss":13230,"Ġnicked":13231,"Ġmicrowave":13232,"Ġthrowing":13233,"Ġfrees":13234,"Ġfreee":13235,"Ġcape":13236,"Ġcaption":13237,"Ġcapacity":13238,"Ġladie":13239,"Ġyoungster":13240,"Ġdocuments":13241,"Ġsuggested":13242,"starr":13243,"Ġmodest":13244,"Ġtravels":13245,"Ġteaches":13246,"Ġeyebrows":13247,"Ġpublicly":13248,"faire":13249,"gregor":13250,"ivan":13251,"older":13252,"Ġteething":13253,"Ġmichaels":13254,"Ġpalace":13255,"Ġpinky":13256,"Ġpinkpop":13257,"Ġfitz":13258,"Ġooops":13259,"Ġooohhh":13260,"Ġwebsites":13261,"Ġprinting":13262,"Ġprints":13263,"Ġprincet":13264,"Ġchristop":13265,"canucks":13266,"project":13267,"Ġtania":13268,"Ġtanner":13269,"Ġnoooooo":13270,"Ġaffili":13271,"Ġmixer":13272,"Ġrecovered":13273,"Ġsharp":13274,"Ġsharon":13275,"Ġshares":13276,"Ġlivingroom":13277,"Ġsumone":13278,"Ġsumtime":13279,"Ġscrewing":13280,"Ġsweeney":13281,"Ġdesigns":13282,"exp":13283,"exper":13284,"excited":13285,"Ġsanity":13286,"Ġmua":13287,"Ġmuhahaha":13288,"Ġhomee":13289,"Ġhometown":13290,"Ġhilton":13291,"Ġanimating":13292,"Ġvibe":13293,"Ġvibr":13294,"Ġvivid":13295,"Ġ160":13296,"Ġspammer":13297,"Ġblasting":13298,"Ġcovering":13299,"Ġcoverage":13300,"Ġqueer":13301,"Ġqueue":13302,"Ġfeeds":13303,"Ġproudly":13304,"Ġdirector":13305,"hooting":13306,"jax":13307,"pax":13308,"Ġnicer":13309,"Ġnicest":13310,"Ġniceee":13311,"Ġniceeeee":13312,"Ġautor":13313,"Ġautograph":13314,"Ġmamm":13315,"Ġmamma":13316,"Ġhype":13317,"Ġhyped":13318,"Ġbanner":13319,"Ġbanned":13320,"Ġbritish":13321,"Ġlmk":13322,"Ġlayin":13323,"Ġlaydown":13324,"Ġowt":13325,"Ġinspite":13326,"Ġinspire":13327,"Ġelection":13328,"Ġelegance":13329,"Ġrequired":13330,"Ġsolve":13331,"Ġsolving":13332,"Ġsolved":13333,"Ġkaties":13334,"Ġhealthcare":13335,"Ġstatue":13336,"Ġplaced":13337,"Ġvalent":13338,"Ġvalid":13339,"Ġviewing":13340,"Ġcontacting":13341,"Ġconnecting":13342,"Ġsmelling":13343,"Ġdeserves":13344,"Ġprogrammer":13345,"guys":13346,"katie":13347,"leton":13348,"letter":13349,"smh":13350,"smith":13351,"smiles":13352,"Ġayo":13353,"Ġwernt":13354,"Ġwalls":13355,"Ġwallace":13356,"Ġmatching":13357,"Ġbaka":13358,"Ġlynne":13359,"Ġlamer":13360,"Ġuggh":13361,"Ġjean":13362,"Ġleading":13363,"Ġinstalling":13364,"Ġhandsome":13365,"Ġalexi":13366,"Ġalexis":13367,"boystell":13368,"final":13369,"Ġvermont":13370,"Ġbailey":13371,"Ġtorta":13372,"Ġtorture":13373,"Ġgareth":13374,"Ġgarbage":13375,"Ġdeeper":13376,"Ġdumbo":13377,"Ġcellphone":13378,"Ġlimb":13379,"Ġlanded":13380,"Ġoopsie":13381,"Ġangela":13382,"Ġintro":13383,"Ġintake":13384,"Ġintended":13385,"Ġintrigu":13386,"Ġeventually":13387,"Ġeventhough":13388,"Ġreceiving":13389,"Ġstorage":13390,"ffffff":13391,"Ġbrandy":13392,"Ġmontanna":13393,"Ġrobins":13394,"Ġrobina":13395,"eeeeeeeeeee":13396,"eeeeeeeeeeeeeee":13397,"Ġstrongly":13398,"Ġhonesty":13399,"116":13400,"easy":13401,"office":13402,"officially":13403,"Ġnaming":13404,"Ġnaman":13405,"Ġnambu":13406,"Ġnamask":13407,"Ġahahah":13408,"Ġahahahahahaha":13409,"Ġsnake":13410,"Ġsnapping":13411,"Ġsessions":13412,"Ġwoodstock":13413,"Ġhosts":13414,"Ġhostage":13415,"Ġbalancing":13416,"Ġbaltim":13417,"Ġlabor":13418,"Ġlabel":13419,"Ġyessir":13420,"Ġbegining":13421,"Ġrichie":13422,"Ġrichard":13423,"Ġbuttercup":13424,"Ġarghhh":13425,"Ġbrighton":13426,"Ġschedules":13427,"twittertake":13428,"Ġfloors":13429,"Ġspringsteen":13430,"lights":13431,"someone":13432,"Ġignorant":13433,"Ġhmv":13434,"Ġhalls":13435,"Ġhallway":13436,"Ġhalluc":13437,"Ġhalloween":13438,"Ġhoneymoon":13439,"Ġdishwas":13440,"Ġcudve":13441,"Ġloudly":13442,"Ġepicent":13443,"Ġliek":13444,"Ġimported":13445,"Ġimportantly":13446,"Ġdroped":13447,"Ġdiscover":13448,"Ġstrangely":13449,"144":13450,"boots":13451,"download":13452,"fying":13453,"jeff":13454,"jeans":13455,"ocaching":13456,"slow":13457,"uhs":13458,"Ġsixth":13459,"Ġwraps":13460,"Ġwrapping":13461,"Ġbanging":13462,"Ġtoasting":13463,"Ġdarl":13464,"Ġdarren":13465,"Ġcasino":13466,"Ġformal":13467,"Ġheavens":13468,"Ġstriped":13469,"Ġstrikes":13470,"Ġstripey":13471,"Ġdepot":13472,"Ġdeposits":13473,"Ġscares":13474,"Ġscarred":13475,"Ġtrader":13476,"Ġsmoothly":13477,"Ġsmoothies":13478,"Ġspeeds":13479,"Ġspeedy":13480,"Ġtechnique":13481,"Ġstatuses":13482,"Ġhusbands":13483,"girls":13484,"girlfriend":13485,"girlstell":13486,"suit":13487,"suicides":13488,"voicemail":13489,"wxl":13490,"Ġturtles":13491,"Ġirc":13492,"Ġnoms":13493,"Ġnomatter":13494,"Ġaaah":13495,"Ġaaaw":13496,"Ġaaahhh":13497,"Ġaaawww":13498,"Ġpinched":13499,"Ġstepmom":13500,"Ġchannels":13501,"Ġcontinually":13502,"ubscribe":13503,"Ġadvil":13504,"Ġadvanced":13505,"Ġpaintings":13506,"uuuuuu":13507,"uuuuuuu":13508,"Ġdoubtful":13509,"Ġtaxes":13510,"musings":13511,"Ġutter":13512,"Ġoscar":13513,"Ġessays":13514,"Ġseaworld":13515,"Ġnetbook":13516,"Ġmalam":13517,"Ġmalaria":13518,"Ġmigraines":13519,"Ġbonnie":13520,"Ġbatteries":13521,"Ġpooping":13522,"Ġpoofy":13523,"Ġlarry":13524,"Ġvenus":13525,"Ġvenice":13526,"Ġoffering":13527,"Ġscenie":13528,"Ġscenario":13529,"petitive":13530,"Ġemotions":13531,"Ġ90210":13532,"kkkkk":13533,"Ġavoiding":13534,"Ġdistraction":13535,"Ġbathrooms":13536,"Ġsandwiches":13537,"Ġscratches":13538,"Ġincludes":13539,"Ġincluded":13540,"Ġresponding":13541,"cincinnati":13542,"fgxd":13543,"liesboystell":13544,"liesgirlstell":13545,"moment":13546,"wrong":13547,"works":13548,"Ġsarcastic":13549,"Ġsusan":13550,"Ġsuspected":13551,"Ġsuspicious":13552,"Ġwisconsin":13553,"Ġmartini":13554,"Ġhookah":13555,"Ġtoyota":13556,"Ġdcd":13557,"Ġderbys":13558,"Ġdreaded":13559,"Ġtheaters":13560,"Ġretweets":13561,"Ġretweeted":13562,"Ġgolfing":13563,"Ġkobe":13564,"Ġalcoholic":13565,"Ġlearnt":13566,"Ġsavings":13567,"Ġflickr":13568,"hahahah":13569,"Ġmarathi":13570,"Ġempathise":13571,"Ġdifficulties":13572,"Ġinsanely":13573,"Ġfabulously":13574,"Ġlmfaoooo":13575,"Ġlanguages":13576,"ceries":13577,"drag":13578,"nicole":13579,"Ġtutoring":13580,"Ġtatami":13581,"Ġtisdale":13582,"Ġtabs":13583,"Ġtablo":13584,"Ġtables":13585,"Ġtablets":13586,"Ġsymptoms":13587,"Ġmerced":13588,"Ġmatte":13589,"Ġbullied":13590,"Ġbrownies":13591,"Ġpillows":13592,"Ġgroceries":13593,"Ġdutch":13594,"Ġduties":13595,"Ġdomestic":13596,"Ġdubbed":13597,"Ġdubai":13598,"Ġcincinnati":13599,"Ġcircuit":13600,"Ġlonley":13601,"Ġunavail":13602,"Ġrented":13603,"Ġrosemary":13604,"Ġshooter":13605,"Ġshipment":13606,"Ġshipwre":13607,"Ġkaya":13608,"Ġkayleigh":13609,"Ġatmos":13610,"Ġarchety":13611,"Ġupgrades":13612,"Ġsuffer":13613,"Ġdebating":13614,"Ġdebussy":13615,"Ġdebugging":13616,"Ġprocessing":13617,"Ġswitching":13618,"Ġcrushed":13619,"Ġsituations":13620,"Ġbootcamp":13621,"Ġpatio":13622,"Ġpatience":13623,"Ġboarding":13624,"Ġhahahahahah":13625,"Ġdiscussed":13626,"Ġdiscussions":13627,"Ġdeveloping":13628,"Ġdeveloped":13629,"Ġmcdonald":13630,"marked":13631,"nsyl":13632,"snjen":13633,"Ġsixt":13634,"Ġsiya":13635,"Ġsilent":13636,"Ġsources":13637,"Ġmentor":13638,"Ġmikey":13639,"Ġhillsong":13640,"Ġbubba":13641,"Ġtowels":13642,"Ġtoothbrush":13643,"Ġcooool":13644,"Ġcinemas":13645,"Ġlaser":13646,"Ġlasagna":13647,"Ġoperation":13648,"Ġannapolis":13649,"Ġhawt":13650,"Ġhawth":13651,"Ġummmnnn":13652,"Ġequival":13653,"Ġroscoe":13654,"Ġmaxim":13655,"Ġmaxed":13656,"Ġvolunte":13657,"Ġvirtually":13658,"Ġcompetiton":13659,"Ġspotify":13660,"Ġphysio":13661,"Ġphysical":13662,"Ġteenage":13663,"Ġteenager":13664,"Ġtemporary":13665,"Ġquoted":13666,"Ġroflmao":13667,"Ġswedes":13668,"Ġpreferred":13669,"Ġadams":13670,"Ġappeared":13671,"Ġsmokes":13672,"Ġentertained":13673,"Ġterminal":13674,"Ġbottoms":13675,"Ġdyeing":13676,"Ġpopularity":13677,"2008":13678,"cups":13679,"cupcakes":13680,"jcf":13681,"listed":13682,"niqht":13683,"sheesh":13684,"Ġtarmac":13685,"Ġnatal":13686,"Ġsensation":13687,"Ġsensible":13688,"Ġmirrors":13689,"Ġmulch":13690,"Ġpengu":13691,"Ġpennsyl":13692,"Ġduet":13693,"Ġduvet":13694,"Ġdissapp":13695,"Ġcherry":13696,"Ġcherish":13697,"Ġcasting":13698,"ometriosis":13699,"Ġmysterious":13700,"Ġultra":13701,"Ġultras":13702,"Ġsoftball":13703,"Ġroman":13704,"Ġrachael":13705,"Ġmagnet":13706,"complete":13707,"umenthal":13708,"Ġgreeting":13709,"Ġfunnier":13710,"Ġclaim":13711,"Ġclaude":13712,"Ġclaudia":13713,"Ġcloses":13714,"Ġcloseness":13715,"Ġadoption":13716,"Ġparticular":13717,"Ġbroadcast":13718,"iiiin":13719,"Ġdrawer":13720,"Ġprofessionals":13721,"Ġaudioboo":13722,"musicmonday":13723,"Ġmotorbike":13724,"everyone":13725,"everything":13726,"everybody":13727,"svm":13728,"Ġtattooed":13729,"Ġnutri":13730,"Ġnoodle":13731,"Ġsoulja":13732,"Ġwires":13733,"Ġbooooooo":13734,"Ġfoam":13735,"Ġdestroys":13736,"Ġlisting":13737,"Ġyelling":13738,"Ġozzy":13739,"Ġoccup":13740,"Ġoccured":13741,"Ġanthrop":13742,"Ġhamburger":13743,"Ġbeyonce":13744,"Ġelliot":13745,"Ġjumped":13746,"Ġracers":13747,"Ġracism":13748,"Ġstreamline":13749,"Ġfrogs":13750,"hawt":13751,"hawks":13752,"Ġplanting":13753,"Ġvincent":13754,"Ġsplash":13755,"Ġspinach":13756,"Ġbuzzed":13757,"Ġcrisis":13758,"Ġcrispy":13759,"Ġcrispies":13760,"ificent":13761,"Ġerrors":13762,"Ġcourtney":13763,"Ġburritos":13764,"Ġmedication":13765,"Ġincrease":13766,"Ġincreased":13767,"Ġbeginnings":13768,"Ġconditioning":13769,"Ġsubscribe":13770,"Ġsubscribers":13771,"Ġsubscribed":13772,"beautiful":13773,"buddy":13774,"deserved":13775,"grace":13776,"pretty":13777,"qljyb":13778,"enzie":13779,"Ġtuner":13780,"Ġtuned":13781,"Ġicant":13782,"Ġicurve":13783,"Ġnurses":13784,"Ġaunts":13785,"Ġmillionaire":13786,"Ġhtc":13787,"Ġhenrie":13788,"Ġbiatch":13789,"Ġbsb":13790,"Ġbrewing":13791,"Ġpitas":13792,"Ġfoxy":13793,"Ġfolding":13794,"Ġcartoons":13795,"Ġcricket":13796,"Ġcubicle":13797,"Ġcubbies":13798,"Ġcultural":13799,"Ġinfested":13800,"Ġjumps":13801,"Ġwhiskey":13802,"Ġrehearsals":13803,"Ġsophia":13804,"Ġsophomore":13805,"Ġlocker":13806,"Ġsherbert":13807,"Ġarrggh":13808,"Ġarranged":13809,"steve":13810,"stein":13811,"steph":13812,"Ġimovie":13813,"Ġdemocra":13814,"Ġexercising":13815,"Ġsleeeep":13816,"Ġblonding":13817,"Ġclimbing":13818,"Ġsausages":13819,"belle":13820,"Ġscotts":13821,"Ġscotland":13822,"Ġaccomplish":13823,"Ġborrowing":13824,"Ġlaunched":13825,"Ġcrazii":13826,"Ġemployer":13827,"promotion":13828,"Ġapologize":13829,"Ġvegetable":13830,"Ġeditors":13831,"Ġcomplaints":13832,"Ġresistance":13833,"Ġmethod":13834,"Ġtypically":13835,"!!!!!!!!!!!!!!!!!!!!!!!!!!!!!!!!":13836,"Ġcornwall":13837,"Ġ?????????":13838,"Ġjournalists":13839,"Ġvirginia":13840,"Ġvirginity":13841,"Ġaccepted":13842,"275":13843,"bonus":13844,"half":13845,"mothers":13846,"peter":13847,"uccino":13848,"warming":13849,"Ġniggu":13850,"Ġalyssa":13851,"Ġachievement":13852,"Ġsowwy":13853,"Ġsowwie":13854,"Ġneglect":13855,"Ġhoodie":13856,"Ġbryant":13857,"Ġbulgaria":13858,"Ġpunching":13859,"Ġfiasco":13860,"Ġcords":13861,"Ġcordova":13862,"Ġlucy":13863,"Ġobser":13864,"Ġobsession":13865,"Ġanxious":13866,"asylm":13867,"Ġinventor":13868,"Ġinvented":13869,"Ġinvention":13870,"Ġfortun":13871,"Ġfortune":13872,"Ġrblp":13873,"Ġrabies":13874,"Ġrickbaker":13875,"Ġklutz":13876,"Ġkenny":13877,"Ġwithdraw":13878,"Ġdoggy":13879,"Ġathletic":13880,"Ġchaos":13881,"Ġabandoning":13882,"Ġgreek":13883,"Ġsparkling":13884,"Ġblowout":13885,"Ġunlimited":13886,"Ġorganized":13887,"Ġorganizing":13888,"Ġseesmic":13889,"Ġtempt":13890,"Ġscotty":13891,"Ġcarlile":13892,"Ġadmir":13893,"Ġadmire":13894,"Ġadmitted":13895,"Ġadvert":13896,"Ġadvertise":13897,"Ġadvertising":13898,"Ġlahiran":13899,"nnnnnnnn":13900,"Ġeducated":13901,"Ġpublishing":13902,"Ġsync":13903,"Ġsynced":13904,"Ġsyncing":13905,"Ġregardless":13906,"Ġtranslate":13907,"Ġruining":13908,"Ġviolated":13909,"Ġviolently":13910,"Ġelectron":13911,"Ġangelina":13912,"Ġeconomics":13913,"Ġauthority":13914,"disk":13915,"monds":13916,"ranjan":13917,"ridges":13918,"something":13919,"weekend":13920,"Ġtapeworm":13921,"Ġninja":13922,"Ġsteroids":13923,"Ġwrecked":13924,"Ġfuckkk":13925,"Ġfoggy":13926,"Ġgilmore":13927,"Ġgilbert":13928,"Ġgums":13929,"Ġgumbo":13930,"Ġgabba":13931,"Ġdampen":13932,"Ġcertific":13933,"Ġceltic":13934,"Ġodyssey":13935,"omorphic":13936,"Ġinjury":13937,"Ġugggh":13938,"Ġjulie":13939,"Ġjello":13940,"Ġwhitney":13941,"Ġrugby":13942,"Ġkiis":13943,"Ġkiyos":13944,"Ġkaloka":13945,"Ġtwiiter":13946,"Ġtwinz":13947,"Ġaliens":13948,"Ġknoxville":13949,"Ġknocking":13950,"Ġawaits":13951,"Ġ1995":13952,"Ġunfollowed":13953,"Ġshelby":13954,"Ġcocoa":13955,"Ġconverting":13956,"Ġconverted":13957,"Ġsunset":13958,"Ġgranny":13959,"Ġquinn":13960,"Ġadsense":13961,"Ġsmacked":13962,"Ġsmackdown":13963,"Ġcompanion":13964,"Ġparental":13965,"Ġwarnings":13966,"Ġperformed":13967,"Ġcameron":13968,"Ġcameras":13969,"Ġpairs":13970,"Ġmilkshakes":13971,"Ġpasswords":13972,"Ġescape":13973,"Ġinvitations":13974,"Ġexperiences":13975,"Ġautofollow":13976,"Ġwitnessing":13977,"0000000000000000":13978,"Ġemotionally":13979,"Ġcoworkers":13980,"cordon":13981,"dollhouse":13982,"feeling":13983,"harry":13984,"iwoe":13985,"lisa":13986,"toronto":13987,"trick":13988,"Ġoui":13989,"Ġxxxxxxxx":13990,"Ġtxting":13991,"Ġtigers":13992,"Ġaaaaaaaa":13993,"Ġwingstop":13994,"Ġwacky":13995,"Ġmurder":13996,"Ġmurray":13997,"Ġmaternity":13998,"Ġthorough":13999,"Ġpgpm":14000,"Ġpantry":14001,"Ġpacman":14002,"Ġpacquiao":14003,"Ġpedicures":14004,"Ġferry":14005,"Ġfiddle":14006,"Ġcaddy":14007,"Ġcadbury":14008,"Ġcurling":14009,"Ġlenny":14010,"Ġlouise":14011,"Ġopted":14012,"Ġeagle":14013,"Ġreunion":14014,"Ġreunited":14015,"Ġracket":14016,"Ġribena":14017,"Ġshaved":14018,"Ġshaanxi":14019,"Ġkoreans":14020,"Ġkrispy":14021,"Ġdodger":14022,"student":14023,"studying":14024,"ffeine":14025,"Ġwilliams":14026,"Ġblued":14027,"Ġbluetooth":14028,"Ġclarks":14029,"Ġprovider":14030,"Ġproviding":14031,"Ġproviders":14032,"Ġphillip":14033,"Ġbroncos":14034,"Ġfelted":14035,"Ġprepared":14036,"Ġprotein":14037,"Ġprotect":14038,"Ġflooding":14039,"society":14040,"photo":14041,"photography":14042,"Ġdisgusted":14043,"Ġdisgusting":14044,"Ġcramping":14045,"blackberry":14046,"Ġexclusive":14047,"Ġexclamation":14048,"Ġ,,,,,":14049,"Ġkellie":14050,"Ġkelley":14051,"Ġdescribe":14052,"Ġdescription":14053,"Ġveggies":14054,"Ġcalorie":14055,"Ġcalories":14056,"Ġmetallic":14057,"Ġgraphics":14058,"Ġcelebrities":14059,"Ġcolouring":14060,"Ġcontroversial":14061,"Ġevryone":14062,"Ġpolitical":14063,"Ġdiggnation":14064,"Ġsquirrel":14065,"Ġsquirrels":14066,"Ġxoxoxo":14067,"Ġpracticing":14068,"Ġdissapointed":14069,"sanctuary":14070,"Ġrabbits":14071,"Ġreinstalled":14072,"Ġcommercials":14073,"/./.":14074,"babies":14075,"casm":14076,"detox":14077,"google":14078,"metal":14079,"milk":14080,"popular":14081,"startrek":14082,"soulja":14083,"vania":14084,"Ġtackle":14085,"Ġnapping":14086,"Ġnaturally":14087,"Ġairline":14088,"Ġairlines":14089,"Ġsinking":14090,"Ġwikipedia":14091,"Ġmourning":14092,"Ġheeeey":14093,"Ġbastos":14094,"Ġbounce":14095,"Ġbouncing":14096,"Ġbodies":14097,"Ġbodyshop":14098,"Ġbucket":14099,"Ġbonding":14100,"Ġpilot":14101,"Ġpumps":14102,"Ġpiercing":14103,"Ġpopsicle":14104,"Ġtommy":14105,"Ġfonz":14106,"Ġfonts":14107,"Ġfisch":14108,"Ġfukn":14109,"Ġfukin":14110,"Ġgentleman":14111,"Ġgathering":14112,"Ġgoooooood":14113,"Ġdimple":14114,"Ġdurin":14115,"Ġdoughnuts":14116,"Ġdazed":14117,"Ġcotton":14118,"Ġcereal":14119,"Ġceremony":14120,"Ġcindy":14121,"Ġyeeeeah":14122,"Ġoliver":14123,"Ġinfected":14124,"Ġofcourse":14125,"Ġjosiah":14126,"Ġjillian":14127,"Ġrearrang":14128,"Ġretiring":14129,"Ġgovern":14130,"Ġrhubarb":14131,"Ġrotation":14132,"Ġshaky":14133,"Ġklemm":14134,"Ġstroke":14135,"Ġaloha":14136,"Ġalpha":14137,"Ġ-.-":14138,"Ġdeclined":14139,"Ġvoyager":14140,"Ġtwiterfon":14141,"Ġblisters":14142,"Ġleonardo":14143,"Ġsatisfied":14144,"Ġsunniest":14145,"Ġoverheating":14146,"Ġgrumpy":14147,"Ġrobbed":14148,"Ġrobbie":14149,"Ġchelsey":14150,"Ġplayoffs":14151,"Ġpreparing":14152,"Ġpartyyyyy":14153,"Ġdiploma":14154,"Ġendlessly":14155,"Ġaccidents":14156,"Ġaccidently":14157,"Ġskateboard":14158,"Ġawwwwwwwwww":14159,"Ġwelcomed":14160,"Ġcharleston":14161,"Ġspecifically":14162,"Ġcompleting":14163,"Ġmacarons":14164,"Ġmacarena":14165,"Ġconflict":14166,"Ġmcmuffin":14167,"Ġcontemplate":14168,"Ġcontemplating":14169,"Ġinsulting":14170,"Ġindoors":14171,"Ġreferring":14172,"Ġreferences":14173,"Ġproducers":14174,"Ġdiscouraging":14175,"Ġdiscouraged":14176,"Ġresponses":14177,"Ġaffected":14178,"Ġrequirements":14179,"Ġtroubleshooting":14180,"Ġstraightener":14181,"Ġeurovision":14182,"Ġjennifer":14183,"Ġashleighhh":14184,"Ġtutorials":14185,"Ġrepeatedly":14186,"Ġlifesaver":14187,"Ġsilverlight":14188,"Ġoccasionally":14189,"Ġincreasingly":14190,"Ġbamboozle":14191,"Ġanticipation":14192,"apler":14193,"client":14194,"jonasweb":14195,"kisses":14196,"louise":14197,"simmons":14198,"sayin":14199,"Ġxxxxxxxxxxxxxxxxxx":14200,"Ġtidy":14201,"Ġizzard":14202,"Ġnorthern":14203,"Ġniko":14204,"Ġsouls":14205,"Ġneuroanatomy":14206,"Ġwiper":14207,"Ġwizard":14208,"Ġmimis":14209,"Ġmuseum":14210,"Ġhiccups":14211,"Ġporto":14212,"Ġpaso":14213,"Ġtourney":14214,"Ġfondue":14215,"Ġfanclub":14216,"Ġfifth":14217,"Ġfifteen":14218,"Ġfernanda":14219,"Ġfirmware":14220,"Ġgorilla":14221,"Ġgrizzly":14222,"Ġgourmet":14223,"Ġderek":14224,"Ġcategory":14225,"Ġlooooong":14226,"Ġluggage":14227,"Ġlancaster":14228,"Ġyaaaaaaay":14229,"Ġyorkshire":14230,"ottawa":14231,"Ġinvestig":14232,"Ġinitial":14233,"Ġbeverage":14234,"Ġforbidden":14235,"Ġeuphoria":14236,"challenged":14237,"Ġjaneiro":14238,"Ġreckon":14239,"Ġrejection":14240,"Ġruler":14241,"Ġrsvp":14242,"Ġshitttt":14243,"unfortunately":14244,"unfollowed":14245,"Ġkettle":14246,"Ġstamina":14247,"Ġdolphin":14248,"Ġnottingham":14249,"Ġfrappuccino":14250,"Ġcanadian":14251,"Ġcandidate":14252,"Ġarrested":14253,"Ġcheeto":14254,"Ġsuprisingly":14255,"Ġnovels":14256,"Ġnotifications":14257,"Ġmorrissey":14258,"Ġalabama":14259,"Ġ-_-":14260,"Ġambul":14261,"Ġmaaaan":14262,"Ġmagnificent":14263,"richards":14264,"Ġweeek":14265,"Ġplatform":14266,"Ġslippers":14267,"Ġspectacular":14268,"Ġeveryoneeeee":14269,"Ġorchestra":14270,"Ġorthodontist":14271,"Ġconcepts":14272,"Ġphenomenon":14273,"Ġengaged":14274,"Ġenvironment":14275,"Ġsundae":14276,"Ġgrammar":14277,"Ġcarriers":14278,"aguirre":14279,"Ġtropical":14280,"Ġtrumps":14281,"Ġpredicting":14282,"Ġpriscilla":14283,"Ġpoems":14284,"Ġappartment":14285,"Ġhibernate":14286,"Ġomelette":14287,"Ġtravelling":14288,"Ġtraumatized":14289,"Ġdisabled":14290,"Ġcruising":14291,"Ġparallels":14292,"Ġpermanently":14293,"Ġremoved":14294,"Ġskillz":14295,"Ġsneezed":14296,"mexico":14297,"Ġvehicle":14298,"Ġbarbeque":14299,"Ġpostponed":14300,"swineflu":14301,"Ġbankruptcy":14302,"Ġreschedule":14303,"Ġpreschooler":14304,"Ġindulgence":14305,"Ġindividual":14306,"Ġvoegele":14307,"Ġmassacre":14308,"california":14309,"Ġtransformers":14310,"Ġ>_>":14311,"Ġimpatient":14312,"Ġfreckles":14313,"Ġexplosion":14314,"Ġirregularly":14315,"Ġmalaysia":14316,"politico":14317,"Ġopposite":14318,"Ġpremiere":14319,"Ġiloveyout":14320,"Ġcrowdsourcing":14321,"Ġdisturbance":14322,"Ġcigarette":14323,"Ġkristin":14324,"Ġencouragement":14325,"Ġoverwhelmed":14326,"Ġembarrased":14327,"Ġunemployed":14328,"bubble":14329,"caca":14330,"eerrrr":14331,"factory":14332,"giggles":14333,"kirk":14334,"kitchenfire":14335,"kimbalicious":14336,"loopt":14337,"lakers":14338,"nothin":14339,"normal":14340,"rassed":14341,"rashid":14342,"seriously":14343,"sigjeans":14344,"sugar":14345,"uketic":14346,"wolverine":14347,"wockeez":14348,"wealth":14349,"Ġtucson":14350,"Ġttfn":14351,"Ġtivo":14352,"Ġigloo":14353,"Ġnutella":14354,"Ġnicholas":14355,"Ġniamh":14356,"Ġapril":14357,"Ġsashimi":14358,"Ġnettles":14359,"Ġnekkid":14360,"Ġwossy":14361,"Ġmeredith":14362,"Ġthighs":14363,"Ġheeey":14364,"Ġbldg":14365,"Ġboulder":14366,"Ġbishop":14367,"Ġbolt":14368,"Ġbagel":14369,"Ġpeeling":14370,"Ġpitts":14371,"Ġpuked":14372,"Ġtorrent":14373,"Ġtoothache":14374,"Ġfiona":14375,"Ġfurlough":14376,"Ġdindin":14377,"Ġcystic":14378,"Ġcautious":14379,"Ġcoooooooool":14380,"Ġczech":14381,"Ġlousy":14382,"Ġlamesauce":14383,"Ġlumberjack":14384,"atlantic":14385,"Ġyacht":14386,"Ġoasis":14387,"Ġottawa":14388,"Ġoatmeal":14389,"Ġanalytics":14390,"Ġintense":14391,"Ġinfluence":14392,"Ġontario":14393,"Ġisaac":14394,"Ġbehaved":14395,
[...]
